{
  "eos_token": "<|EOS|>",
  "unk_token": "<|UNK|>",
  "vocab": {
    "<|EOS|>": 0,
    "<|UNK|>": 1,
    "\t": 2,
    "\n": 3,
    " ": 4,
    "!": 5,
    "\"": 6,
    "#": 7,
    "$": 8,
    "%": 9,
    "&": 10,
    "'": 11,
    "(": 12,
    ")": 13,
    "*": 14,
    "+": 15,
    ",": 16,
    "-": 17,
    ".": 18,
    "/": 19,
    "0": 20,
    "1": 21,
    "2": 22,
    "3": 23,
    "4": 24,
    "5": 25,
    "6": 26,
    "7": 27,
    "8": 28,
    "9": 29,
    ":": 30,
    ";": 31,
    "<": 32,
    "=": 33,
    ">": 34,
    "?": 35,
    "@": 36,
    "A": 37,
    "B": 38,
    "C": 39,
    "D": 40,
    "E": 41,
    "F": 42,
    "G": 43,
    "H": 44,
    "I": 45,
    "J": 46,
    "K": 47,
    "L": 48,
    "M": 49,
    "N": 50,
    "O": 51,
    "P": 52,
    "R": 53,
    "S": 54,
    "T": 55,
    "U": 56,
    "V": 57,
    "W": 58,
    "X": 59,
    "Y": 60,
    "Z": 61,
    "[": 62,
    "\\": 63,
    "]": 64,
    "^": 65,
    "_": 66,
    "a": 67,
    "b": 68,
    "c": 69,
    "d": 70,
    "e": 71,
    "f": 72,
    "g": 73,
    "h": 74,
    "i": 75,
    "j": 76,
    "k": 77,
    "l": 78,
    "m": 79,
    "n": 80,
    "o": 81,
    "p": 82,
    "r": 83,
    "s": 84,
    "t": 85,
    "u": 86,
    "v": 87,
    "w": 88,
    "x": 89,
    "y": 90,
    "z": 91,
    "{": 92,
    "|": 93,
    "}": 94,
    "~": 95,
    " ": 96,
    "£": 97,
    "¥": 98,
    "§": 99,
    "©": 100,
    "«": 101,
    "¬": 102,
    "®": 103,
    "°": 104,
    "²": 105,
    "»": 106,
    "×": 107,
    "ę": 108,
    "́": 109,
    "̂": 110,
    "ό": 111,
    "Є": 112,
    "І": 113,
    "Ї": 114,
    "А": 115,
    "Б": 116,
    "В": 117,
    "Г": 118,
    "Д": 119,
    "Е": 120,
    "Ж": 121,
    "З": 122,
    "И": 123,
    "Й": 124,
    "К": 125,
    "Л": 126,
    "М": 127,
    "Н": 128,
    "О": 129,
    "П": 130,
    "Р": 131,
    "С": 132,
    "Т": 133,
    "У": 134,
    "Ф": 135,
    "Х": 136,
    "Ц": 137,
    "Ч": 138,
    "Ш": 139,
    "Щ": 140,
    "Ь": 141,
    "Ю": 142,
    "Я": 143,
    "а": 144,
    "б": 145,
    "в": 146,
    "г": 147,
    "д": 148,
    "е": 149,
    "ж": 150,
    "з": 151,
    "и": 152,
    "й": 153,
    "к": 154,
    "л": 155,
    "м": 156,
    "н": 157,
    "о": 158,
    "п": 159,
    "р": 160,
    "с": 161,
    "т": 162,
    "у": 163,
    "ф": 164,
    "х": 165,
    "ц": 166,
    "ч": 167,
    "ш": 168,
    "щ": 169,
    "ъ": 170,
    "ы": 171,
    "ь": 172,
    "ю": 173,
    "я": 174,
    "є": 175,
    "і": 176,
    "ї": 177,
    "ѝ": 178,
    "Ґ": 179,
    "ґ": 180,
    "қ": 181,
    " ": 182,
    " ": 183,
    "–": 184,
    "—": 185,
    "‘": 186,
    "’": 187,
    "“": 188,
    "”": 189,
    "„": 190,
    "•": 191,
    "…": 192,
    "€": 193,
    "№": 194,
    "■": 195,
    "﻿": 196,
    "�": 197,
    "  ": 198,
    ",  ": 199,
    ".  ": 200,
    "на": 201,
    "ст": 202,
    "ни": 203,
    "ро": 204,
    ",  -": 205,
    "ва": 206,
    "о  ": 207,
    "ви": 208,
    "  п": 209,
    "ре": 210,
    "ра": 211,
    "ри": 212,
    "\n\n": 213,
    "ня": 214,
    "ні": 215,
    "ві": 216,
    ";  ": 217,
    " \n\n": 218,
    "ка": 219,
    "ки": 220,
    "  з": 221,
    "ння": 222,
    "не": 223,
    "й  ": 224,
    "ла": 225,
    "ль": 226,
    "ли": 227,
    "у  ": 228,
    "рі": 229,
    "ся": 230,
    "ере": 231,
    "лі": 232,
    "сь": 233,
    "и  ": 234,
    "ля": 235,
    "ма": 236,
    "да": 237,
    "мі": 238,
    "ці": 239,
    "  д": 240,
    ".,  ": 241,
    "  т": 242,
    ",  ч": 243,
    ",  -а": 244,
    "  с": 245,
    "га": 246,
    "ува": 247,
    "2.  ": 248,
    "  —": 249,
    "1.  ": 250,
    "  і": 251,
    "від": 252,
    "кі": 253,
    "ний": 254,
    "го  ": 255,
    "  в": 256,
    "ого  ": 257,
    "  о": 258,
    "  по": 259,
    "ення": 260,
    ";  -": 261,
    ".  2.  ": 262,
    ".  1.  ": 263,
    "пере": 264,
    "  на": 265,
    "и,  ": 266,
    "них": 267,
    "ста": 268,
    ".  [": 269,
    "ти  ": 270,
    "роз": 271,
    "м.  ": 272,
    "що  ": 273,
    "лю": 274,
    "  к": 275,
    "  за": 276,
    "  ч": 277,
    "ься": 278,
    "ться": 279,
    "сти": 280,
    "ний  ": 281,
    "ови": 282,
    ". \n\n": 283,
    " на": 284,
    "н.  ": 285,
    "ба": 286,
    "про": 287,
    "л.  ": 288,
    "бі": 289,
    "при": 290,
    ",  -у": 291,
    ",  що  ": 292,
    "].  ": 293,
    "  а": 294,
    "сто": 295,
    "ова": 296,
    ",  -е": 297,
    "нач": 298,
    "  (": 299,
    "сті": 300,
    "кий  ": 301,
    "сть": 302,
    ",  -а,  ч": 303,
    "гі": 304,
    "  ви": 305,
    "бо  ": 306,
    "ря": 307,
    "ється": 308,
    ",  -а,  -е": 309,
    "оро": 310,
    "ось": 311,
    ",  я": 312,
    "  м": 313,
    "жи": 314,
    "ц.  ": 315,
    "  я": 316,
    "  та": 317,
    "ним": 318,
    "кий": 319,
    ".  П": 320,
    "до  ": 321,
    "уват": 322,
    "ного  ": 323,
    "  г": 324,
    "т.  ": 325,
    "ися": 326,
    "жа": 327,
    "ові": 328,
    ",  -у,  ч": 329,
    ",  с": 330,
    "род": 331,
    "кла": 332,
    "’я": 333,
    "  ко": 334,
    "кл.  ": 335,
    "кл.  -": 336,
    ",  ж": 337,
    "фі": 338,
    "ості": 339,
    "  про": 340,
    "ць": 341,
    ",  на": 342,
    ",  з": 343,
    "  б": 344,
    "ник": 345,
    ",  п": 346,
    "ськ": 347,
    ",  -и,  ": 348,
    "3.  ": 349,
    "  при": 350,
    ".,  кл.  -": 351,
    ";  ~": 352,
    "  у  ": 353,
    " не": 354,
    "  до": 355,
    "  для": 356,
    "  пі": 357,
    "тися": 358,
    "роб": 359,
    "  у": 360,
    ",  -и,  ж": 361,
    "дав": 362,
    ".  і": 363,
    "хі": 364,
    " ви": 365,
    "ран": 366,
    "  або  ": 367,
    "на  ": 368,
    "ини": 369,
    "ність": 370,
    "ми  ": 371,
    "ування": 372,
    "ких": 373,
    "  знач": 374,
    "пра": 375,
    "ори": 376,
    "¬ \n\n": 377,
    "сте": 378,
    "увати": 379,
    "віт": 380,
    "льн": 381,
    "  від": 382,
    "ця": 383,
    "гре": 384,
    "ели": 385,
    "єш": 386,
    ".)": 387,
    "На": 388,
    "лення": 389,
    "  як": 390,
    "ина": 391,
    "рів": 392,
    "  пе": 393,
    "му  ": 394,
    "].  1.  ": 395,
    "  не": 396,
    "ків": 397,
    "  то": 398,
    "для": 399,
    ".:": 400,
    "знач": 401,
    "р.:": 402,
    "пр.:": 403,
    "гось": 404,
    "асти": 405,
    "юва": 406,
    "лат.  ": 407,
    "рат": 408,
    ".  3.  ": 409,
    "ї  ": 410,
    "Який  ": 411,
    "рга": 412,
    "перех": 413,
    "  пере": 414,
    "на ": 415,
    "ження": 416,
    "клад": 417,
    "люд": 418,
    "ні ": 419,
    "в’я": 420,
    ", \n\n": 421,
    "рик": 422,
    "ша": 423,
    "  чо": 424,
    "  —  ": 425,
    "но  ": 426,
    "у,  ": 427,
    "іль": 428,
    "мат": 429,
    "  ін": 430,
    "  під": 431,
    "стан": 432,
    "кра": 433,
    "або  ": 434,
    "сько": 435,
    ",  -ї": 436,
    "ції": 437,
    " про": 438,
    "ніз": 439,
    "аль": 440,
    "сту": 441,
    "ряд": 442,
    "  •": 443,
    "фран": 444,
    ",  -а,  ч.,  кл.  -": 445,
    "літ": 446,
    "різ": 447,
    "  од": 448,
    ",  не": 449,
    " на ": 450,
    "  па": 451,
    "грец.  ": 452,
    "  із": 453,
    "е  ": 454,
    "она": 455,
    "  і ": 456,
    "  сп": 457,
    "ода": 458,
    "А,  -и,  ж": 459,
    "ний ": 460,
    "три": 461,
    "є  ": 462,
    "ція": 463,
    "ний,  -а,  -е": 464,
    "гля": 465,
    "ти,  ": 466,
    ",  напр.:": 467,
    "м.  -": 468,
    "  об": 469,
    ".  ін": 470,
    ",  -у,  ч.  [": 471,
    ",  -ї,  ж": 472,
    "    ": 473,
    "рос": 474,
    "ким": 475,
    "ка ": 476,
    "зна": 477,
    "льно": 478,
    "раз": 479,
    "дав.,  ": 480,
    ",  -я": 481,
    "орі": 482,
    "кри": 483,
    "рикм.  ": 484,
    "-н.  ": 485,
    "  — ": 486,
    ",  о": 487,
    "гра": 488,
    "  ос": 489,
    "слі": 490,
    "ому  ": 491,
    " при": 492,
    "  до  ": 493,
    "ИЙ": 494,
    "ств": 495,
    "ері": 496,
    "перен.  ": 497,
    ",  при": 498,
    "  х": 499,
    "  пев": 500,
    ",  -і": 501,
    "ред": 502,
    "дав.,  м.  -": 503,
    "жит": 504,
    "розм.  ": 505,
    "стос": 506,
    ",  за": 507,
    ",  по": 508,
    ".  В": 509,
    ",  м": 510,
    "  ме": 511,
    "ку  ": 512,
    "пла": 513,
    "них ": 514,
    "нів": 515,
    "ли ": 516,
    "х  ": 517,
    "  су": 518,
    "франц.  ": 519,
    "в’яз": 520,
    "ої  ": 521,
    "  де": 522,
    "ується": 523,
    "вля": 524,
    "ну  ": 525,
    "лив": 526,
    "й,  ": 527,
    "міс": 528,
    "ній  ": 529,
    "дат": 530,
    "в  ": 531,
    "огі": 532,
    "  тощ": 533,
    "  тощо": 534,
    "тра": 535,
    "кори": 536,
    "АН": 537,
    ",  щ": 538,
    "АТ": 539,
    "  ді": 540,
    "має": 541,
    "стр": 542,
    " від": 543,
    ",  д": 544,
    "ЕР": 545,
    "рикм.  до  ": 546,
    "ИЙ,  -а,  -е": 547,
    "ки ": 548,
    "  мо": 549,
    ",  перех": 550,
    "вели": 551,
    "гляд": 552,
    "вання": 553,
    "еред": 554,
    "дав.,  м.  -ці": 555,
    ".  С": 556,
    "\nна": 557,
    " не ": 558,
    "обі": 559,
    "гат": 560,
    "огось": 561,
    "оре": 562,
    "дна": 563,
    "кий ": 564,
    "в.  ": 565,
    "цт": 566,
    ".  [лат.  ": 567,
    ",  к": 568,
    "рганіз": 569,
    "СТ": 570,
    "  во": 571,
    "ю  ": 572,
    "  са": 573,
    "лів": 574,
    "чення": 575,
    "ель": 576,
    " \nна": 577,
    ",  в": 578,
    "каз": 579,
    "них  ": 580,
    "ній": 581,
    ".  [грец.  ": 582,
    "нка": 583,
    "цій": 584,
    "  те": 585,
    "а  ": 586,
    "росли": 587,
    "ений  ": 588,
    "слід": 589,
    "  си": 590,
    "  ча": 591,
    "увати  ": 592,
    ",  ви": 593,
    "мін": 594,
    "логі": 595,
    "між": 596,
    "ння ": 597,
    "уль": 598,
    "  з  ": 599,
    "  части": 600,
    ",  що": 601,
    "вій": 602,
    "тро": 603,
    "кар": 604,
    "ець": 605,
    "овий": 606,
    ".  З": 607,
    "лад": 608,
    "ності": 609,
    "ржа": 610,
    "  знач.)": 611,
    "бра": 612,
    "ара": 613,
    "н.,  ": 614,
    "  пра": 615,
    "ий  ": 616,
    "ват": 617,
    "кре": 618,
    "і  ": 619,
    "ене": 620,
    "м  ": 621,
    "вні": 622,
    "стру": 623,
    ".  —": 624,
    ".  -": 625,
    "стов": 626,
    "ери": 627,
    "ступ": 628,
    "АР": 629,
    "щось": 630,
    ".,  дав.,  м.  -ці": 631,
    "8  —": 632,
    "ми,  ": 633,
    "вати  ": 634,
    ".  Д": 635,
    "рід": 636,
    ".  Т": 637,
    "оба": 638,
    "  сам": 639,
    "став": 640,
    "  чи": 641,
    "чи  ": 642,
    "о,  ": 643,
    "прав": 644,
    "\nви": 645,
    "  •  ": 646,
    "ання": 647,
    "вари": 648,
    "ити  ": 649,
    "олі": 650,
    "хід": 651,
    "нні": 652,
    "ора": 653,
    "стрі": 654,
    "II": 655,
    ";  з": 656,
    "рюва": 657,
    "; \n\n": 658,
    ",  -ю": 659,
    "При": 660,
    "  бу": 661,
    "  на  ": 662,
    "омі": 663,
    "ються": 664,
    "ство": 665,
    "  в  ": 666,
    "воро": 667,
    ",  -уєш": 668,
    ",  а": 669,
    "ових": 670,
    "  зі": 671,
    "вий": 672,
    ",  яка": 673,
    "оли": 674,
    "о-н.  ": 675,
    "оль": 676,
    "  яко": 677,
    "трі": 678,
    "лат": 679,
    "ера": 680,
    "вищ": 681,
    "ліз": 682,
    " \nви": 683,
    "ОР": 684,
    "е,  що  ": 685,
    "  час": 686,
    "кін": 687,
    "  го": 688,
    "  т.  ін": 689,
    "стра": 690,
    "краї": 691,
    "нсь": 692,
    "біль": 693,
    "  пов": 694,
    "ЕН": 695,
    "кого  ": 696,
    "кіль": 697,
    "то  ": 698,
    "з  ": 699,
    "  спо": 700,
    "ства": 701,
    "АЛ": 702,
    "ома": 703,
    "рма": 704,
    "ись": 705,
    " пере": 706,
    "аст": 707,
    "реч": 708,
    "кам": 709,
    ".,  с": 710,
    ",  який  ": 711,
    "ніч": 712,
    "ь  ": 713,
    "ні  ": 714,
    "вит": 715,
    "вір": 716,
    " ма": 717,
    "стат": 718,
    "4.  ": 719,
    "вати": 720,
    "яких": 721,
    "вич": 722,
    ",  т": 723,
    "гл.  ": 724,
    "нгл.  ": 725,
    "пря": 726,
    "розм": 727,
    "(про": 728,
    "  зо": 729,
    "нення": 730,
    ",  -а,  ч.  [": 731,
    "исте": 732,
    "кона": 733,
    "англ.  ": 734,
    "пода": 735,
    "ласти": 736,
    "ла ": 737,
    "  бе": 738,
    ".  1.  П": 739,
    "  чог": 740,
    "клада": 741,
    "вого  ": 742,
    "ена": 743,
    "які": 744,
    "нят": 745,
    "стю": 746,
    "ологі": 747,
    "пові": 748,
    "чний  ": 749,
    "е  сам": 750,
    "ска": 751,
    ".  Який  ": 752,
    "рсь": 753,
    "ся ": 754,
    "вя": 755,
    "  (у  ": 756,
    "тіль": 757,
    "ван": 758,
    "вид": 759,
    "жив": 760,
    "важ": 761,
    "||": 762,
    "  мет": 763,
    "ІІ": 764,
    "робо": 765,
    "рок": 766,
    "\n2.  ": 767,
    "ними  ": 768,
    " мі": 769,
    ".  Прикм.  до  ": 770,
    "серед": 771,
    " \n\n\n\n": 772,
    "усь": 773,
    "части": 774,
    " ре": 775,
    ",  що  ви": 776,
    "ка  ": 777,
    "шення": 778,
    " 2.  ": 779,
    "ені": 780,
    ",  у": 781,
    "мати": 782,
    "нки": 783,
    " .  ін": 784,
    " роз": 785,
    "ІЯ": 786,
    "дина": 787,
    "т .  ін": 788,
    "бли": 789,
    "  ф": 790,
    "ений": 791,
    "користов": 792,
    "е  [": 793,
    "кат": 794,
    "ниж": 795,
    "  роз": 796,
    "  (про": 797,
    "чних": 798,
    "який  ": 799,
    ".  І": 800,
    "ців": 801,
    "лас": 802,
    "орма": 803,
    "дає": 804,
    ",  -а,  ч.,  кл.  -е": 805,
    "  без": 806,
    "иль": 807,
    "ою  ": 808,
    ",  -і,  ж": 809,
    ",  як": 810,
    "влення": 811,
    "рад": 812,
    "  — \n": 813,
    ",  -я,  с": 814,
    "ними": 815,
    "  [": 816,
    "во  ": 817,
    ";  с": 818,
    "у;  -": 819,
    "ержа": 820,
    "фіз": 821,
    "  інш": 822,
    "рати": 823,
    "  по¬": 824,
    "міщ": 825,
    "не ": 826,
    " \n2.  ": 827,
    "  бо": 828,
    "відм": 829,
    "іст": 830,
    "арак": 831,
    "ника": 832,
    ",  -а,": 833,
    "  люд": 834,
    "НИЙ,  -а,  -е": 835,
    "варин": 836,
    " ві": 837,
    "в’яза": 838,
    "кій  ": 839,
    "місц": 840,
    "ної  ": 841,
    "ріб": 842,
    "житт": 843,
    "світ": 844,
    ",  що ": 845,
    "ПР": 846,
    "ика": 847,
    "ни ": 848,
    "у.  ": 849,
    "хто  ": 850,
    ".  2.  перен.  ": 851,
    "АТИ": 852,
    "  ш": 853,
    "  зв": 854,
    "о  —": 855,
    "еля": 856,
    "редм": 857,
    "редме": 858,
    "дження": 859,
    "о \n\n": 860,
    "  так": 861,
    "більш": 862,
    "я,  -ї,  ж": 863,
    "  зе": 864,
    "+  ": 865,
    "овід": 866,
    "у;  ": 867,
    "ука": 868,
    ",  -ую": 869,
    "йма": 870,
    "місце": 871,
    "].  П": 872,
    "бро": 873,
    "ницт": 874,
    "олю": 875,
    "  по¬ ": 876,
    "аракт": 877,
    "овий  ": 878,
    "орот": 879,
    ",  -а, ": 880,
    ".  Р": 881,
    "його  ": 882,
    "  аб": 883,
    "бува": 884,
    "організ": 885,
    "прям": 886,
    "стро": 887,
    "ть  ": 888,
    "уватися": 889,
    "сла": 890,
    " пла": 891,
    " ба": 892,
    ",  б": 893,
    "  ве": 894,
    "ец.  ": 895,
    "ини  ": 896,
    ".  О": 897,
    "ой,  ": 898,
    "У  ": 899,
    "ло  ": 900,
    "  чи  ": 901,
    "пец.  ": 902,
    "стано": 903,
    "чного  ": 904,
    " ва": 905,
    "вець": 906,
    "и,  -": 907,
    "кова": 908,
    "  сл": 909,
    "  вели": 910,
    ".;  ": 911,
    "мір": 912,
    "  чогось": 913,
    "речови": 914,
    "ОЛ": 915,
    "кани": 916,
    "чний": 917,
    ",  -а,  ч.,  ": 918,
    "и.  2.  ": 919,
    "слідо": 920,
    ",  ш": 921,
    "зва": 922,
    "редмет": 923,
    "вича": 924,
    "гро": 925,
    "ному  ": 926,
    " ли": 927,
    "        ": 928,
    "  чого": 929,
    ";  -о": 930,
    "гар": 931,
    "й,  -а,  -е": 932,
    ",  -а,  ч.,  кл.  -е  [": 933,
    ".  По": 934,
    "крит": 935,
    "ників": 936,
    "нім.  ": 937,
    "  со": 938,
    ",  невідм": 939,
    "и;  ": 940,
    "с.  ": 941,
    "ІЯ,  -ї,  ж": 942,
    "спода": 943,
    "у  знач": 944,
    "  ма": 945,
    "  пове": 946,
    "алі": 947,
    "когось": 948,
    "чка": 949,
    "  і  т.  ін": 950,
    "склад": 951,
    "ога": 952,
    ",  прис": 953,
    "кли": 954,
    "ської": 955,
    "орів": 956,
    "робот": 957,
    " 1.  ": 958,
    "бір": 959,
    "чна": 960,
    "  кра": 961,
    ",  які": 962,
    "воре": 963,
    "літи": 964,
    "стя": 965,
    "хні": 966,
    " для": 967,
    "  е": 968,
    "ОН": 969,
    "\n1.  ": 970,
    "  склад": 971,
    " ка": 972,
    ".  4.  ": 973,
    "йсь": 974,
    "лік": 975,
    ".  М": 976,
    "м’я": 977,
    "на \n": 978,
    ".  1": 979,
    "вин": 980,
    "нова": 981,
    "у.  2.  ": 982,
    "єдна": 983,
    "мусь": 984,
    "рит": 985,
    ";  о": 986,
    "ОВ": 987,
    "вигляд": 988,
    "еці": 989,
    "перед": 990,
    "  чого-": 991,
    "ині": 992,
    "повід": 993,
    "ру  ": 994,
    " ро": 995,
    "  буд": 996,
    "ації": 997,
    "тре": 998,
    "ціє": 999,
    ".  При": 1000,
    "знача": 1001,
    "ира": 1002,
    "рослин": 1003,
    "\nне": 1004,
    "ськог": 1005,
    "  ст": 1006,
    "ючи  ": 1007,
    "1  знач.)": 1008,
    "гли": 1009,
    ",  -у,  ч.,  ": 1010,
    " у  ": 1011,
    "ація": 1012,
    "держа": 1013,
    "нах": 1014,
    "перев.  ": 1015,
    "  тако": 1016,
    "  зі  знач": 1017,
    "роби": 1018,
    "ура": 1019,
    "ульт": 1020,
    "ського": 1021,
    ",  ко": 1022,
    "струм": 1023,
    "Ьа": 1024,
    "ний \n": 1025,
    "  р": 1026,
    "Лю": 1027,
    "ди  ": 1028,
    "  ду": 1029,
    "али": 1030,
    "нап": 1031,
    "цін": 1032,
    " \n1.  ": 1033,
    "  ї": 1034,
    ". \n\n\n\n": 1035,
    "характ": 1036,
    "іння": 1037,
    ",  ч.,  кл.  -": 1038,
    ".  [франц.  ": 1039,
    "е  саме,  що  ": 1040,
    "ти,  -": 1041,
    " ня": 1042,
    "  доп": 1043,
    "ман": 1044,
    ",  -и": 1045,
    ".  На": 1046,
    "вість": 1047,
    "у,  ч": 1048,
    "19": 1049,
    "А,  -и,  ж.,  дав.,  м.  -ці": 1050,
    "ви¬": 1051,
    "е  —": 1052,
    "крі": 1053,
    "род.  -": 1054,
    ",  -а,  с": 1055,
    ".  К": 1056,
    "ага": 1057,
    ".  2.  П": 1058,
    "творе": 1059,
    "заст": 1060,
    "матері": 1061,
    "орюва": 1062,
    "  зву": 1063,
    ",  -аю": 1064,
    ",  об": 1065,
    "..  ": 1066,
    "  ку": 1067,
    "газ": 1068,
    "].  С": 1069,
    ".  1.  В": 1070,
    "пність": 1071,
    "соба": 1072,
    "а,  -е": 1073,
    "ерат": 1074,
    "лат.": 1075,
    "ури": 1076,
    "кро": 1077,
    "...  ": 1078,
    "життя": 1079,
    "оні": 1080,
    " \nне": 1081,
    "багат": 1082,
    "вий  ": 1083,
    "рна": 1084,
    "това": 1085,
    "упність": 1086,
    "купність": 1087,
    "ати  ": 1088,
    "тільки": 1089,
    "вна": 1090,
    "рах": 1091,
    "  зап": 1092,
    "  зах": 1093,
    ",  і": 1094,
    "лова": 1095,
    "  або": 1096,
    "  зем": 1097,
    "  організ": 1098,
    "(у  ": 1099,
    "-а,  -е": 1100,
    "ире": 1101,
    ".  Ви": 1102,
    "кій": 1103,
    "лін": 1104,
    "ргі": 1105,
    "  частина": 1106,
    "давн": 1107,
    "  гре": 1108,
    "  ті": 1109,
    "и  з": 1110,
    "вих": 1111,
    "лений  ": 1112,
    "  допо": 1113,
    "ерез": 1114,
    "и;  -": 1115,
    "  под": 1116,
    "  осо": 1117,
    "  якої": 1118,
    "АЦ": 1119,
    "лові": 1120,
    " ні": 1121,
    "АК": 1122,
    "вичай": 1123,
    "  оп": 1124,
    "  пл": 1125,
    "відо": 1126,
    "крем": 1127,
    "ол.  ": 1128,
    "  1": 1129,
    "КА,  -и,  ж.,  дав.,  м.  -ці": 1130,
    "сля": 1131,
    "та  ": 1132,
    "чне": 1133,
    "юється": 1134,
    "ЕЛ": 1135,
    "аро": 1136,
    "влю": 1137,
    "елі": 1138,
    "ливо": 1139,
    "нням": 1140,
    "рис": 1141,
    "го-н.  ": 1142,
    "ко  ": 1143,
    "ких ": 1144,
    "місти": 1145,
    "ним ": 1146,
    "ці ": 1147,
    "  вод": 1148,
    ".  Н": 1149,
    "чні": 1150,
    "  ц": 1151,
    "вори": 1152,
    "оля": 1153,
    "ром": 1154,
    "кові": 1155,
    "ой,  хто  ": 1156,
    "родини  ": 1157,
    ",  роз": 1158,
    "АД": 1159,
    "а  —": 1160,
    "вний  ": 1161,
    "  і т .  ін": 1162,
    "сподар": 1163,
    "  му": 1164,
    ";  за": 1165,
    "ву  ": 1166,
    "оряд": 1167,
    "ський": 1168,
    ",  г": 1169,
    "вар": 1170,
    "ви¬ ": 1171,
    "АМ": 1172,
    "ворюва": 1173,
    "гал": 1174,
    "  н": 1175,
    " да": 1176,
    "  дв": 1177,
    ",  про": 1178,
    "УР": 1179,
    "ового  ": 1180,
    "\nня": 1181,
    "\nщо  ": 1182,
    " На": 1183,
    "  осн": 1184,
    "  та  ": 1185,
    ",  пі": 1186,
    "струме": 1187,
    "  се": 1188,
    ".  2.  В": 1189,
    "ЕТ": 1190,
    "вне": 1191,
    "цію": 1192,
    ",  сп": 1193,
    "мад": 1194,
    "ня ": 1195,
    "огра": 1196,
    "у \n\n": 1197,
    "\nре": 1198,
    "  на ": 1199,
    "  повер": 1200,
    ",  мн.  ": 1201,
    ";  ви": 1202,
    "н  ": 1203,
    "струмен": 1204,
    " пра": 1205,
    "  чого-н": 1206,
    "к  ": 1207,
    "тка": 1208,
    "уля": 1209,
    "нат": 1210,
    "сь ": 1211,
    "  зб": 1212,
    "коли": 1213,
    "  зас": 1214,
    "вда": 1215,
    "гід": 1216,
    "ду  ": 1217,
    "давнь": 1218,
    "кість": 1219,
    "ній ": 1220,
    "  також": 1221,
    ",  -аєш": 1222,
    "АВ": 1223,
    "вних": 1224,
    "ського  ": 1225,
    "ш,  перех": 1226,
    "юват": 1227,
    "  ви¬": 1228,
    "  під  час": 1229,
    "ками": 1230,
    "франц": 1231,
    "  дере": 1232,
    "  за¬": 1233,
    ";  по": 1234,
    "біт": 1235,
    "ніт": 1236,
    "  допом": 1237,
    ".  За": 1238,
    "нець": 1239,
    "ння  ": 1240,
    "  тощо)": 1241,
    "',  -": 1242,
    ",  -ів": 1243,
    ".  Г": 1244,
    ".  ін.  ": 1245,
    "  держа": 1246,
    ".  Б": 1247,
    ";  на": 1248,
    "струмент": 1249,
    "іля": 1250,
    ",  що  з": 1251,
    "ка,  -и,  ж": 1252,
    "орга": 1253,
    "у  з": 1254,
    "укупність": 1255,
    "  допомо": 1256,
    ".  2.  пере": 1257,
    "кріп": 1258,
    "форма": 1259,
    "ється ": 1260,
    "  ди": 1261,
    "УЛ": 1262,
    "лат. ": 1263,
    "лях": 1264,
    "низ": 1265,
    " \nня": 1266,
    "д  ": 1267,
    "ося": 1268,
    ";  -і": 1269,
    "ас.  ": 1270,
    "овля": 1271,
    ";  пере": 1272,
    "вний": 1273,
    "вся": 1274,
    "жить": 1275,
    "ро¬": 1276,
    "  або ": 1277,
    "ості,  ж": 1278,
    "ту  ": 1279,
    "  зна": 1280,
    ".  1.  С": 1281,
    "ВАТИ": 1282,
    "ахі": 1283,
    " що  ": 1284,
    ".  2.  С": 1285,
    "].  В": 1286,
    "значення": 1287,
    "лан": 1288,
    "  тварин": 1289,
    ", на": 1290,
    "¬ \nна": 1291,
    "рес": 1292,
    "¬ на": 1293,
    "мн.  ": 1294,
    "мага": 1295,
    "не  ": 1296,
    "піль": 1297,
    "я  зі  знач": 1298,
    "ія  зі  знач": 1299,
    " \nщо  ": 1300,
    ",  -ую,  -уєш": 1301,
    ";  в": 1302,
    "ва ": 1303,
    "ього  ": 1304,
    "  св": 1305,
    "  інши": 1306,
    ",  -у,  ч.  [франц.  ": 1307,
    "нес": 1308,
    "  краї": 1309,
    "  ткани": 1310,
    "поряд": 1311,
    "роп": 1312,
    "  щ": 1313,
    "вят": 1314,
    "ки,": 1315,
    "чогось": 1316,
    "  гол": 1317,
    "вигляді": 1318,
    "и \n\n": 1319,
    "  дія": 1320,
    ".  1.  З": 1321,
    ".  1.  Який  ": 1322,
    "льності": 1323,
    "у. \n\n": 1324,
    "стосо": 1325,
    "ють  ": 1326,
    "  ви¬ ": 1327,
    ",  від": 1328,
    ".  [і": 1329,
    "Який ": 1330,
    "арат": 1331,
    "кільк": 1332,
    "оне": 1333,
    "овищ": 1334,
    "селя": 1335,
    "ського ": 1336,
    "\nпри": 1337,
    " \nре": 1338,
    "дення": 1339,
    "ист": 1340,
    "  допомог": 1341,
    " наш": 1342,
    "ОМ": 1343,
    "км.  ": 1344,
    "ки.": 1345,
    "льної": 1346,
    "ний,": 1347,
    "  деяких": 1348,
    "  для ": 1349,
    "  пи": 1350,
    ";  -т": 1351,
    "вніш": 1352,
    "парат": 1353,
    " про ": 1354,
    ";  -увати": 1355,
    "вості": 1356,
    "умі": 1357,
    "’єдна": 1358,
    "- \n\n\n\n": 1359,
    "горо": 1360,
    "еро": 1361,
    "ний  і": 1362,
    "Людина": 1363,
    "иться": 1364,
    "каза": 1365,
    "нього  ": 1366,
    "ювати": 1367,
    "  орга": 1368,
    "Який": 1369,
    "у,  -": 1370,
    "ує  ": 1371,
    "  зд": 1372,
    "2  знач.)": 1373,
    "исти": 1374,
    "лам": 1375,
    "ниця": 1376,
    "ніх": 1377,
    "стосов": 1378,
    "\n\n ": 1379,
    "  вис": 1380,
    "  пос": 1381,
    "  і  ": 1382,
    "нич": 1383,
    "вим": 1384,
    "или": 1385,
    "истецт": 1386,
    "увати ": 1387,
    "  за¬ ": 1388,
    ",  який": 1389,
    "вал": 1390,
    "ей  ": 1391,
    "мова": 1392,
    "ціл": 1393,
    "ість": 1394,
    "ліб": 1395,
    "номі": 1396,
    "осподар": 1397,
    "приє": 1398,
    "рмі": 1399,
    "щення": 1400,
    ". на": 1401,
    "¬ \nви": 1402,
    "  кон": 1403,
    "  особ": 1404,
    "+  гре": 1405,
    ",  -у,  ч.  [лат.  ": 1406,
    ",  невідм.,  с": 1407,
    ",  під": 1408,
    "00": 1409,
    "звичай": 1410,
    "ніш": 1411,
    "шире": 1412,
    "\nу  ": 1413,
    " ра": 1414,
    "спец.  ": 1415,
    "ас.  до  ": 1416,
    "людини": 1417,
    "ро¬ ": 1418,
    ";  д": 1419,
    "приєм": 1420,
    "і  т.  ін": 1421,
    "  сво": 1422,
    "  якого  ": 1423,
    ",  -юю": 1424,
    ";  -ний,  -а,  -е": 1425,
    "].  Р": 1426,
    "ерів": 1427,
    "користовується": 1428,
    "лят": 1429,
    "редстав": 1430,
    ",  до": 1431,
    "-н.,  ": 1432,
    "и. \n\n": 1433,
    "  голо": 1434,
    "  певн": 1435,
    ".  1.  Д": 1436,
    "аніз": 1437,
    "лений": 1438,
    "міщення": 1439,
    "\nва": 1440,
    "Прикм.  до  ": 1441,
    "Про": 1442,
    "май": 1443,
    "  гро": 1444,
    "  прот": 1445,
    ".  1.  Т": 1446,
    ";  -а": 1447,
    "блі": 1448,
    "військ": 1449,
    "гне": 1450,
    "ива": 1451,
    "ока": 1452,
    "рка": 1453,
    "слідок": 1454,
    "станов": 1455,
    "явля": 1456,
    "  предмет": 1457,
    "віль": 1458,
    "господар": 1459,
    "нім": 1460,
    "хімі": 1461,
    "\nвід": 1462,
    "  мето": 1463,
    "  суд": 1464,
    "8  —  ": 1465,
    "змі": 1466,
    "одження": 1467,
    "прави": 1468,
    "річ": 1469,
    "який": 1470,
    ",  пере": 1471,
    ",  де": 1472,
    ",  чо": 1473,
    "08  —": 1474,
    "увати,  ": 1475,
    "  поч": 1476,
    ",  -й": 1477,
    "г  —": 1478,
    "мови": 1479,
    "над": 1480,
    "склада": 1481,
    ";  у": 1482,
    "енні": 1483,
    "итися": 1484,
    "ом  ": 1485,
    "осте": 1486,
    "овий,  -а,  -е": 1487,
    "ули": 1488,
    "шкі": 1489,
    "\nпро": 1490,
    " \nпри": 1491,
    "  над": 1492,
    "  пу": 1493,
    ".  У": 1494,
    "ний, ": 1495,
    "тріш": 1496,
    "   ": 1497,
    "  когось": 1498,
    "  проц": 1499,
    "  проце": 1500,
    "грец": 1501,
    "коро": 1502,
    "кції": 1503,
    "ка \n": 1504,
    "  одн": 1505,
    ".,  м": 1506,
    "дере": 1507,
    "  ре": 1508,
    ".  Не": 1509,
    "клика": 1510,
    "стер": 1511,
    "трим": 1512,
    "фізи": 1513,
    "характе": 1514,
    "іо  —": 1515,
    ";  при": 1516,
    "рша": 1517,
    "розм.": 1518,
    "твір": 1519,
    " ста": 1520,
    "  дво": 1521,
    "  тв": 1522,
    "аліз": 1523,
    "бла": 1524,
    "вного  ": 1525,
    "матеріа": 1526,
    "тання": 1527,
    "цьо": 1528,
    "  додат": 1529,
    "  пол": 1530,
    "  систе": 1531,
    ",  ф": 1532,
    ",  -ості,  ж": 1533,
    ".  II": 1534,
    ".  ім.  ": 1535,
    ";  який  ": 1536,
    "].  З": 1537,
    "ки, ": 1538,
    "собі": 1539,
    "спіль": 1540,
    "  мета": 1541,
    "  слів": 1542,
    "  та  ін": 1543,
    "ЙР": 1544,
    "бар": 1545,
    "дар": 1546,
    "кі ": 1547,
    "люб": 1548,
    "пеці": 1549,
    "уван": 1550,
    "чись": 1551,
    " до  ": 1552,
    "  пла": 1553,
    " він": 1554,
    ",  -юєш": 1555,
    ",  ме": 1556,
    "ОТ": 1557,
    "віз": 1558,
    "карт": 1559,
    "ливий": 1560,
    "таро": 1561,
    "  гр": 1562,
    "  дов": 1563,
    "  осно": 1564,
    "  ти": 1565,
    " пласту": 1566,
    "галу": 1567,
    "користову": 1568,
    "льо": 1569,
    "льно  ": 1570,
    "  гру": 1571,
    "таль": 1572,
    ".  2": 1573,
    ".  2.  Т": 1574,
    "них \n": 1575,
    " \n\n-": 1576,
    "  пар": 1577,
    "едення": 1578,
    "ила": 1579,
    "роду": 1580,
    "стри": 1581,
    "  спор": 1582,
    "ОБ": 1583,
    "ПЛ": 1584,
    "Украї": 1585,
    "відом": 1586,
    "ений  для": 1587,
    "обра": 1588,
    "ути  ": 1589,
    "є  в": 1590,
    "ані": 1591,
    "ві ": 1592,
    "дити  ": 1593,
    "дан": 1594,
    "ених": 1595,
    "напр.:": 1596,
    "о¬ \n\n": 1597,
    "хиль": 1598,
    "чний,  -а,  -е": 1599,
    "  (у  1  знач.)": 1600,
    "  вер": 1601,
    ",  -о": 1602,
    ".  Який  стос": 1603,
    "ліс": 1604,
    "мось": 1605,
    "овлення": 1606,
    " т .  ін": 1607,
    "  певно": 1608,
    "  по¬ \n": 1609,
    ",  -аю,  -аєш": 1610,
    "ов’яза": 1611,
    "і т .  ін": 1612,
    " \nвід": 1613,
    ".  3": 1614,
    "волю": 1615,
    "виг": 1616,
    "плю": 1617,
    "урі": 1618,
    " \nпро": 1619,
    "  вид": 1620,
    "  муз": 1621,
    "  ру": 1622,
    ",  у  ": 1623,
    ",  шо  ": 1624,
    ".  Ро": 1625,
    ";  т": 1626,
    ";  -й": 1627,
    "].  О": 1628,
    "мас": 1629,
    "оли ": 1630,
    "рикм.  д": 1631,
    "утріш": 1632,
    "нутріш": 1633,
    "чина": 1634,
    " вели": 1635,
    "  процес": 1636,
    "  серед": 1637,
    "ЗМ": 1638,
    "кис": 1639,
    "нструмент": 1640,
    "оря": 1641,
    "ології": 1642,
    "разо": 1643,
    "і  —": 1644,
    "\nабо  ": 1645,
    " \nу  ": 1646,
    "  змі": 1647,
    "давньо": 1648,
    "ерша": 1649,
    "зага": 1650,
    "коль": 1651,
    "мів": 1652,
    "они": 1653,
    "слова": 1654,
    "стрій  ": 1655,
    "ування ": 1656,
    " \nва": 1657,
    "  мож": 1658,
    "  пер": 1659,
    ",  -з": 1660,
    "<  ": 1661,
    "иро": 1662,
    "ських": 1663,
    "є  на": 1664,
    "\nли": 1665,
    "АГ": 1666,
    "ведення": 1667,
    "грец.": 1668,
    "  т.  ін.  ": 1669,
    "  чого-н.": 1670,
    "  •  1": 1671,
    ".,  розм.  ": 1672,
    ";  не": 1673,
    "вис": 1674,
    "людина": 1675,
    "ороть": 1676,
    "шка": 1677,
    " бі": 1678,
    ",  розм.  ": 1679,
    "е  саме": 1680,
    "нюва": 1681,
    "ними ": 1682,
    "раді": 1683,
    "  для  ви": 1684,
    "  допомого": 1685,
    "  допомогою": 1686,
    " нас": 1687,
    ".  1.": 1688,
    ".,  сп": 1689,
    "дати": 1690,
    "рхі": 1691,
    "у  по": 1692,
    ",  ~": 1693,
    ".  5": 1694,
    "УВАТИ": 1695,
    "го \n\n": 1696,
    "лка": 1697,
    "нови": 1698,
    "народ": 1699,
    "  на¬": 1700,
    "  поді": 1701,
    ",  х": 1702,
    ",  -а, \n": 1703,
    ",  що \n": 1704,
    ".  Ві": 1705,
    "¬ ви": 1706,
    "ОД": 1707,
    "ана": 1708,
    "атися": 1709,
    "ктро": 1710,
    "ектро": 1711,
    "нятт": 1712,
    "ого-н.  ": 1713,
    "стій": 1714,
    "франц.": 1715,
    " або  ": 1716,
    ".\n\n": 1717,
    ".  2.  З": 1718,
    "XV": 1719,
    "ОГ": 1720,
    "книж": 1721,
    "ража": 1722,
    "єпри": 1723,
    "  й  ": 1724,
    "  світ": 1725,
    "значе": 1726,
    "ки. ": 1727,
    "лектро": 1728,
    "омусь": 1729,
    "рикм.  до": 1730,
    "характер": 1731,
    ",  присл.  ": 1732,
    "Вели": 1733,
    "бан": 1734,
    "нит": 1735,
    "ости": 1736,
    " \n\nП": 1737,
    "  (у": 1738,
    ".  Ж": 1739,
    "бН": 1740,
    "м  і": 1741,
    "н.;  ": 1742,
    "спри": 1743,
    "ючись": 1744,
    "  та ": 1745,
    "бри": 1746,
    "значений  для": 1747,
    "лена": 1748,
    "сторі": 1749,
    " га": 1750,
    "  ком": 1751,
    "  пло": 1752,
    "  сло": 1753,
    "би  ": 1754,
    "громад": 1755,
    "крива": 1756,
    "маш": 1757,
    "сіль": 1758,
    "чий  ": 1759,
    "  ког": 1760,
    "  пап": 1761,
    ",  що  п": 1762,
    "вель": 1763,
    "льний": 1764,
    "міф": 1765,
    "ніє": 1766,
    "ола": 1767,
    "тварин": 1768,
    "у  за": 1769,
    "філ": 1770,
    "  ж": 1771,
    "дання": 1772,
    "ктри": 1773,
    "ку,  ": 1774,
    "лі ": 1775,
    "лігі": 1776,
    "ництва": 1777,
    " \nли": 1778,
    ",  -н": 1779,
    "бере": 1780,
    "вник": 1781,
    "дач": 1782,
    "ністю": 1783,
    "пля": 1784,
    "рикм": 1785,
    "рідк": 1786,
    "сторо": 1787,
    "чно  ": 1788,
    ".  Ч": 1789,
    "нен": 1790,
    " ри": 1791,
    "  зак": 1792,
    "  кого": 1793,
    " від ": 1794,
    " най": 1795,
    "А,  -и,  ж.,  ": 1796,
    "вів": 1797,
    "лінг": 1798,
    "ся,": 1799,
    " зна": 1800,
    "  зді": 1801,
    "  тра": 1802,
    ",  а  також": 1803,
    "варт": 1804,
    "го,  ": 1805,
    "иня": 1806,
    "ль¬": 1807,
    "рам": 1808,
    "швид": 1809,
    "галуз": 1810,
    "дини": 1811,
    "доро": 1812,
    "люва": 1813,
    "о ви": 1814,
    "одити  ": 1815,
    "сли": 1816,
    "справ": 1817,
    "уро": 1818,
    " ся": 1819,
    "  ге": 1820,
    "  при¬": 1821,
    ". На": 1822,
    ".  1. ": 1823,
    "ектри": 1824,
    "кування": 1825,
    "кап": 1826,
    "лектри": 1827,
    "цією": 1828,
    "  нав": 1829,
    ",  -и,  Ж": 1830,
    "АЛЬ": 1831,
    "має  ": 1832,
    "нці": 1833,
    "ного  п": 1834,
    "робля": 1835,
    "ське": 1836,
    "талі": 1837,
    "у  т": 1838,
    "хліб": 1839,
    "ь  у  ": 1840,
    ",  -а,  ч.,  кл.  -у": 1841,
    ",  що  в": 1842,
    ".  1.  О": 1843,
    "ІР": 1844,
    "в  —": 1845,
    "колі": 1846,
    "ми  т": 1847,
    "няття": 1848,
    "ожи": 1849,
    "рикм.  до ": 1850,
    "рідко": 1851,
    "трима": 1852,
    "чини": 1853,
    "\nдо  ": 1854,
    " які": 1855,
    "  музи": 1856,
    "  про¬": 1857,
    ".  [англ.  ": 1858,
    "УН": 1859,
    "Який  стос": 1860,
    "гад": 1861,
    "гати": 1862,
    "ест": 1863,
    "кови": 1864,
    "міні": 1865,
    "міт": 1866,
    "нам": 1867,
    "уга": 1868,
    "  -": 1869,
    "  додатка": 1870,
    "  нап": 1871,
    "  яких": 1872,
    ",  -а,  ч.": 1873,
    ",  що  за": 1874,
    "Я,  -я,  с": 1875,
    "бира": 1876,
    "вся ": 1877,
    "нтра": 1878,
    "нування": 1879,
    "на¬": 1880,
    "ієпри": 1881,
    "  між": 1882,
    "  людини": 1883,
    "  обо": 1884,
    "  прав": 1885,
    ",  па": 1886,
    ".  1.  Р": 1887,
    "].  Т": 1888,
    "вик": 1889,
    "уба": 1890,
    "ханіз": 1891,
    " \nабо  ": 1892,
    "  гра": 1893,
    "  поз": 1894,
    "  ус": 1895,
    ",  напр.:  ": 1896,
    ".  2.": 1897,
    "2)": 1898,
    "АБ": 1899,
    "ЕМ": 1900,
    "еріга": 1901,
    "м,  ": 1902,
    "ни¬": 1903,
    "ської ": 1904,
    "чки": 1905,
    "  ву": 1906,
    "  висо": 1907,
    "  для  ": 1908,
    "  най": 1909,
    "  на¬ ": 1910,
    "  по  ": 1911,
    "-н.;  ": 1912,
    ".,  спе": 1913,
    ".,  спец": 1914,
    "льність": 1915,
    "мери": 1916,
    "напр": 1917,
    "ниць": 1918,
    "п  —": 1919,
    "рне": 1920,
    "розвит": 1921,
    "систе": 1922,
    "творення": 1923,
    "  (з": 1924,
    "  че": 1925,
    ",  ч.,  ": 1926,
    ".  А": 1927,
    "діля": 1928,
    "люде": 1929,
    "озна": 1930,
    "свід": 1931,
    "ходження": 1932,
    "яка": 1933,
    " \nдо  ": 1934,
    "  вол": 1935,
    "  спі": 1936,
    "  •  1 ": 1937,
    "2 \n\n": 1938,
    "АНТ": 1939,
    "вант": 1940,
    "літерат": 1941,
    "най": 1942,
    "робит": 1943,
    "украї": 1944,
    "уються": 1945,
    "у  с": 1946,
    " знач": 1947,
    "  метою": 1948,
    "  народ": 1949,
    "  після": 1950,
    "  із  ": 1951,
    ", ви": 1952,
    ",  -юю,  -юєш": 1953,
    ";  ~і": 1954,
    "ИТ": 1955,
    "глиб": 1956,
    "літа": 1957,
    "має ": 1958,
    "станови": 1959,
    "чання": 1960,
    "чи,  ": 1961,
    "ї,  ж": 1962,
    "  здій": 1963,
    "  пт": 1964,
    "  у  вигляді": 1965,
    "  частин": 1966,
    "боро": 1967,
    "вроп": 1968,
    "ліні": 1969,
    "ові ": 1970,
    "розм. ": 1971,
    "  (в": 1972,
    "  одно": 1973,
    "  інших": 1974,
    " над": 1975,
    ".  [нім.  ": 1976,
    "ЕВ": 1977,
    "ваг": 1978,
    "глі": 1979,
    "даю": 1980,
    "лене": 1981,
    "лля": 1982,
    "мах": 1983,
    "роди": 1984,
    "ула": 1985,
    ".,  о": 1986,
    "¬ \n2.  ": 1987,
    "важа": 1988,
    "ворот": 1989,
    "дова": 1990,
    "квіт": 1991,
    "містит": 1992,
    "рикм.": 1993,
    "рослини": 1994,
    "уска": 1995,
    "що-н.  ": 1996,
    " селя": 1997,
    "  поверх": 1998,
    "  пром": 1999,
    "). \n\n": 2000,
    "А,  -и,  Ж": 2001,
    "бів": 2002,
    "всь": 2003,
    "город": 2004,
    "ках": 2005,
    "олові": 2006,
    "ономі": 2007,
    "різних": 2008,
    "ужи": 2009,
    "франц. ": 2010,
    "хова": 2011,
    " рі": 2012,
    "  або  п": 2013,
    ",  -а,  ": 2014,
    ",  присл": 2015,
    "6 \n\n": 2016,
    "8 \n\n": 2017,
    "в’яни": 2018,
    "ографі": 2019,
    "полі": 2020,
    "рот": 2021,
    "року": 2022,
    "ся, ": 2023,
    "філо": 2024,
    "  кри": 2025,
    "  перед": 2026,
    "  тр": 2027,
    ")  —": 2028,
    "ванта": 2029,
    "млі": 2030,
    "ого \n\n": 2031,
    "ума": 2032,
    "  см": 2033,
    "  ху": 2034,
    " прот": 2035,
    ");  -": 2036,
    "*/": 2037,
    ",  -у,  ч.  [англ.  ": 2038,
    ",  бе": 2039,
    ",  пе": 2040,
    ".  Ст": 2041,
    "Пере": 2042,
    "ені ": 2043,
    "их  ": 2044,
    "ичний  ": 2045,
    "конання": 2046,
    "риб": 2047,
    "уда": 2048,
    "хре": 2049,
    "хів": 2050,
    "\n3.  ": 2051,
    "  воло": 2052,
    "  при¬ ": 2053,
    ",  -уєш,  перех": 2054,
    ";  к": 2055,
    "бре": 2056,
    "вища": 2057,
    "еві": 2058,
    "ежа": 2059,
    "кому  ": 2060,
    "кольо": 2061,
    "льна": 2062,
    "ль¬ ": 2063,
    "нал": 2064,
    "пера": 2065,
    "сна": 2066,
    "спра": 2067,
    "ський,  -а,  -е": 2068,
    "тільки ": 2069,
    "ї \n\n": 2070,
    "—  ": 2071,
    " робот": 2072,
    " ці": 2073,
    "  метал": 2074,
    "  повіт": 2075,
    "  про¬ ": 2076,
    "  тощо.": 2077,
    "  їх": 2078,
    ",  нап": 2079,
    ".  [іт.  ": 2080,
    "4 \n\n": 2081,
    "].  Г": 2082,
    "].  На": 2083,
    "ЙЦ": 2084,
    "бач": 2085,
    "влас": 2086,
    "нні ": 2087,
    ",  «": 2088,
    ",  до  ": 2089,
    ",  -й,  ж": 2090,
    ",  су": 2091,
    "].  М": 2092,
    "диться": 2093,
    "енів": 2094,
    "но  з": 2095,
    "оду  ": 2096,
    "офі": 2097,
    "ров": 2098,
    "шся": 2099,
    "\nдля": 2100,
    "\nка": 2101,
    "  ак": 2102,
    "  ск": 2103,
    "  із ": 2104,
    ".  с": 2105,
    ".  2.  О": 2106,
    ";  ~и": 2107,
    "гіп": 2108,
    "овне": 2109,
    "ється  з": 2110,
    "інструмент": 2111,
    "  кол": 2112,
    "  нед": 2113,
    "  пот": 2114,
    ". ви": 2115,
    ".  4": 2116,
    ".  2.  На": 2117,
    "бити  ": 2118,
    "ба ": 2119,
    "біл": 2120,
    "зне": 2121,
    "кл.  -е": 2122,
    "лови": 2123,
    "льний  ": 2124,
    "них  слів": 2125,
    "осеред": 2126,
    "ост": 2127,
    "оста": 2128,
    "р.  -": 2129,
    "тник": 2130,
    "товля": 2131,
    "ться ": 2132,
    "чого  ": 2133,
    "ю,  ": 2134,
    "\nпере": 2135,
    "  будь": 2136,
    "  будь-": 2137,
    "  зал": 2138,
    "  чого-н.  ": 2139,
    " для ": 2140,
    " перед": 2141,
    ",  -у,  ч.  [грец.  ": 2142,
    ";  -и": 2143,
    "ентра": 2144,
    "казу": 2145,
    "м. \n\n": 2146,
    "на¬ ": 2147,
    "нера": 2148,
    "о8  —": 2149,
    "ово  ": 2150,
    "онів": 2151,
    "овий ": 2152,
    "через": 2153,
    "  но": 2154,
    "  нас": 2155,
    "].  Д": 2156,
    "Старо": 2157,
    "Фахі": 2158,
    "ально": 2159,
    "влений  ": 2160,
    "емлі": 2161,
    "збір": 2162,
    "коли ": 2163,
    "лювання": 2164,
    "місця": 2165,
    "ни¬ ": 2166,
    "повідає": 2167,
    "рез": 2168,
    "хоро": 2169,
    "шова": 2170,
    "якого  ": 2171,
    "ів  ": 2172,
    "  кого-": 2173,
    "  поро": 2174,
    "  тем": 2175,
    "X  ст": 2176,
    "ЙВ": 2177,
    "ва¬": 2178,
    "евели": 2179,
    "ими  ": 2180,
    "чна  ": 2181,
    " ки": 2182,
    ",  те": 2183,
    "- \n\n": 2184,
    ";  від": 2185,
    "Невели": 2186,
    "віч": 2187,
    "гір": 2188,
    "кових": 2189,
    "ка,": 2190,
    "мистецт": 2191,
    "на,": 2192,
    "отовля": 2193,
    "р  ": 2194,
    "скра": 2195,
    "хворо": 2196,
    "ї,  ": 2197,
    "  здійс": 2198,
    "  особа": 2199,
    "  у  с": 2200,
    "+  грец.  ": 2201,
    "¬ 2.  ": 2202,
    "Те  саме,  що  ": 2203,
    "ари": 2204,
    "грец. ": 2205,
    "е  —  ": 2206,
    "містить": 2207,
    "уваг": 2208,
    "ціона": 2209,
    "  ми": 2210,
    ",  -а,  ч.  [франц.  ": 2211,
    ".  1.  Прикм.  до  ": 2212,
    "==": 2213,
    "військо": 2214,
    "електро": 2215,
    "и  за": 2216,
    "лива": 2217,
    "переч": 2218,
    "раху": 2219,
    "сний": 2220,
    "тика": 2221,
    "торі": 2222,
    "ти,  з": 2223,
    "тися ": 2224,
    "уки": 2225,
    "  (п": 2226,
    "  м’я": 2227,
    "  фо": 2228,
    ".,  кл.  -е": 2229,
    "0 \n\n": 2230,
    ";  ~а": 2231,
    "ІЯ,  -ї,  ж.  [лат.  ": 2232,
    "акий": 2233,
    "вив": 2234,
    "він": 2235,
    "ерес": 2236,
    "ериз": 2237,
    "йнят": 2238,
    "кінч": 2239,
    "мато": 2240,
    "наслідок": 2241,
    "ову  ": 2242,
    "окрем": 2243,
    "свят": 2244,
    "слів": 2245,
    "шлях": 2246,
    "ін.  ": 2247,
    "\nся": 2248,
    "  до ": 2249,
    "  това": 2250,
    "  ім": 2251,
    " він ": 2252,
    "(у  1  знач.)": 2253,
    ")  ": 2254,
    ",  напр.: ": 2255,
    "УТ": 2256,
    "вати ": 2257,
    "дня": 2258,
    "живе": 2259,
    "и,  ж": 2260,
    "кономі": 2261,
    "люди": 2262,
    "м,  -у,  ч": 2263,
    "міш": 2264,
    "оліти": 2265,
    "перен.,  ": 2266,
    "род.  -а": 2267,
    "товлення": 2268,
    "ти  в": 2269,
    "у  в": 2270,
    "  ан": 2271,
    "  запа": 2272,
    "  уч": 2273,
    "  і  т.  ін.": 2274,
    ",  -а,  ч.  [англ.  ": 2275,
    ".  2. ": 2276,
    "вико": 2277,
    "нюється": 2278,
    "о на": 2279,
    "овні": 2280,
    "ого,  ": 2281,
    "остій": 2282,
    "ратив": 2283,
    "речовин": 2284,
    "ріо": 2285,
    "різня": 2286,
    "стрій": 2287,
    "ть  у  ": 2288,
    "у  знач.  ім.  ": 2289,
    "чаль": 2290,
    " організ": 2291,
    "  одини": 2292,
    "  пор": 2293,
    ",  -я,  ч": 2294,
    ". \nна": 2295,
    "УМ": 2296,
    "ЦЕН": 2297,
    "ежить": 2298,
    "и на ": 2299,
    "крас": 2300,
    "ків ": 2301,
    "нас": 2302,
    "ння \n": 2303,
    "они ": 2304,
    "орід": 2305,
    "ська": 2306,
    "тий  ": 2307,
    "у.  3.  ": 2308,
    "уєш": 2309,
    "філос": 2310,
    "ь  на": 2311,
    "ій  ": 2312,
    " 19": 2313,
    "  до¬": 2314,
    "  зобра": 2315,
    "  пря": 2316,
    "СТР": 2317,
    "гніт": 2318,
    "дах": 2319,
    "имі": 2320,
    "культ": 2321,
    "лий": 2322,
    "лит": 2323,
    "му,  ": 2324,
    "матеріал": 2325,
    "овище": 2326,
    "пас.  до  ": 2327,
    "ре¬": 2328,
    "рем": 2329,
    "  двох": 2330,
    "  слу": 2331,
    ",  яке": 2332,
    "бхід": 2333,
    "бат": 2334,
    "біг": 2335,
    "лин": 2336,
    "ництв": 2337,
    "обхід": 2338,
    "овлю": 2339,
    "перен": 2340,
    "рюється": 2341,
    "ція,  -ї,  ж": 2342,
    "іва": 2343,
    "іла": 2344,
    "інка": 2345,
    "\nНа": 2346,
    " 3.  ": 2347,
    "  частина  склад": 2348,
    ";  ~о": 2349,
    "].  1.  С": 2350,
    "ами  ": 2351,
    "елення": 2352,
    "лиш": 2353,
    "ма ": 2354,
    "нав": 2355,
    "ного  з": 2356,
    "стич": 2357,
    "ував": 2358,
    "  об’": 2359,
    "  природ": 2360,
    ",  виг": 2361,
    ",  чи": 2362,
    ". \n\n-": 2363,
    ".,  ор.  -": 2364,
    "гає": 2365,
    "грець": 2366,
    "ени": 2367,
    "ймається": 2368,
    "кувати": 2369,
    "ка,  -и,  ж.,  дав.,  м.  -ці": 2370,
    "ким ": 2371,
    "оди  ": 2372,
    "поро": 2373,
    "рні": 2374,
    "стате": 2375,
    "тина": 2376,
    "  об’є": 2377,
    ");  ": 2378,
    ". \n\n\n\n1": 2379,
    ".  2.  Який  ": 2380,
    "амі": 2381,
    "жни": 2382,
    "ири": 2383,
    "исьм": 2384,
    "м;  ": 2385,
    "отовлення": 2386,
    "прот": 2387,
    "разі": 2388,
    "струк": 2389,
    " \nдля": 2390,
    " ПР": 2391,
    "  док": 2392,
    "  зу": 2393,
    "  оч": 2394,
    "  оди": 2395,
    ",  без": 2396,
    ",  мо": 2397,
    ".  1.  Ви": 2398,
    "].  У": 2399,
    "].  1.  П": 2400,
    "арі": 2401,
    "асті": 2402,
    "власти": 2403,
    "грі": 2404,
    "кими  ": 2405,
    "на  з": 2406,
    "ний  із": 2407,
    "орсь": 2408,
    "стів": 2409,
    "тері": 2410,
    "ти  к": 2411,
    "івель": 2412,
    "                ": 2413,
    "  вироб": 2414,
    "  др": 2415,
    "  осі": 2416,
    "  прави": 2417,
    "  спеці": 2418,
    ",  мн": 2419,
    ",  що  о": 2420,
    "[грец.  ": 2421,
    "ва¬ ": 2422,
    "зба": 2423,
    "и.  3.  ": 2424,
    "ковий  ": 2425,
    "кан": 2426,
    "кати": 2427,
    "ма¬": 2428,
    "робіт": 2429,
    "стоя": 2430,
    " \nся": 2431,
    "  вс": 2432,
    "  виг": 2433,
    "  значення": 2434,
    "  мед": 2435,
    "1  •": 2436,
    "[лат.  ": 2437,
    "»,  «": 2438,
    "віс": 2439,
    "грам": 2440,
    "давати  ": 2441,
    "крес": 2442,
    "о-н.,  ": 2443,
    "рний  ": 2444,
    "ру,  ": 2445,
    "рен": 2446,
    "я  ": 2447,
    " \n3.  ": 2448,
    "  вз": 2449,
    ".  2.  У": 2450,
    ".  Від": 2451,
    "7  •": 2452,
    "9  •": 2453,
    "EO": 2454,
    "EOS": 2455,
    "EOS|": 2456,
    "EOS|>": 2457,
    "].  1": 2458,
    "|EOS|>": 2459,
    "ацій": 2460,
    "жар": 2461,
    "ики": 2462,
    "йна": 2463,
    "кій ": 2464,
    "л  ": 2465,
    "оці": 2466,
    "перат": 2467,
    "різн": 2468,
    "різь": 2469,
    "т  ": 2470,
    "увач": 2471,
    "  назва": 2472,
    "  сі": 2473,
    ",  -ю,  ч": 2474,
    ";  -я": 2475,
    "Фахівець": 2476,
    "Части": 2477,
    "асть": 2478,
    "в,  ": 2479,
    "вність": 2480,
    "ви¬ \n": 2481,
    "кисл": 2482,
    "кількість": 2483,
    "льного  ": 2484,
    "лід": 2485,
    "ний.": 2486,
    "ов’яз": 2487,
    "одиться": 2488,
    "ору  ": 2489,
    "пуска": 2490,
    "рикм. ": 2491,
    "інки": 2492,
    " \nка": 2493,
    " в  ": 2494,
    "  й": 2495,
    "  тощо. ": 2496,
    "  і т .  ін.": 2497,
    "',  ~": 2498,
    ",  -яю": 2499,
    ",  що  с": 2500,
    ",  який ": 2501,
    ",  яку  ": 2502,
    ".  1.  На": 2503,
    ".  Прикм.  до ": 2504,
    "ЙЛ": 2505,
    "вад": 2506,
    "ги  ": 2507,
    "ники": 2508,
    "сні": 2509,
    "стрій  для": 2510,
    "тора": 2511,
    "  (у  2  знач.)": 2512,
    "  мови": 2513,
    "  фа": 2514,
    ",  -а,  ч.  [лат.  ": 2515,
    "<|EOS|> ": 2516,
    "А,  -й,  ж": 2517,
    "Ц,  -у,  ч": 2518,
    "влі": 2519,
    "гори": 2520,
    "лиз": 2521,
    "нних": 2522,
    "оження": 2523,
    "плив": 2524,
    "рег": 2525,
    "речовини": 2526,
    "ро¬ \n": 2527,
    "ступа": 2528,
    "ти.  2.  ": 2529,
    "ювання": 2530,
    "ї  —": 2531,
    "\nга": 2532,
    " \nпере": 2533,
    "  дій": 2534,
    "  недо": 2535,
    "  пів": 2536,
    "  тіла": 2537,
    ".  1 ": 2538,
    ".  [лат. ": 2539,
    "НЯ,  -я,  с": 2540,
    "вах": 2541,
    "вантаж": 2542,
    "дн.  ": 2543,
    "еяких": 2544,
    "жний  ": 2545,
    "кої  ": 2546,
    "користа": 2547,
    "ну,  ": 2548,
    "ним  ": 2549,
    "осла": 2550,
    "ристи": 2551,
    "розт": 2552,
    "\nма": 2553,
    " -а,  -е": 2554,
    " ша": 2555,
    " \n\nп": 2556,
    " \n\nт": 2557,
    "  влас": 2558,
    "  зовніш": 2559,
    "  ко¬": 2560,
    "  і  т.  ін.)": 2561,
    ",  що  вив": 2562,
    ".  2.  Р": 2563,
    ".  П.  ": 2564,
    ".,  ме": 2565,
    "5  •": 2566,
    "ЕЛЬ": 2567,
    "вий,  -а,  -е": 2568,
    "гато": 2569,
    "дміні": 2570,
    "зм,  -у,  ч": 2571,
    "исто": 2572,
    "кілько": 2573,
    "льних": 2574,
    "не¬": 2575,
    "одн.  ": 2576,
    "тність": 2577,
    "ти  на": 2578,
    "ти  с": 2579,
    "ти  щось": 2580,
    "ували": 2581,
    "уванням": 2582,
    "хва": 2583,
    "із  ": 2584,
    " тре": 2585,
    "  ав": 2586,
    "  зага": 2587,
    "  захворюва": 2588,
    "  проду": 2589,
    ",  -а,  ч.  [грец.  ": 2590,
    ",  -у,  ч.,  м": 2591,
    ",  ос": 2592,
    ",  що  вивч": 2593,
    ",  що  вивча": 2594,
    "].  За": 2595,
    "бажа": 2596,
    "вироб": 2597,
    "в’яниста": 2598,
    "діння": 2599,
    "еного  ": 2600,
    "зна¬": 2601,
    "кими": 2602,
    "лігій": 2603,
    "нові": 2604,
    "ною  ": 2605,
    "нця": 2606,
    "на, ": 2607,
    "огляд": 2608,
    "ре¬ ": 2609,
    "стві": 2610,
    "тель": 2611,
    "хви": 2612,
    " коли ": 2613,
    "  відн": 2614,
    "  дії": 2615,
    ",  невідм.,  ": 2616,
    "5Ш": 2617,
    ";  об": 2618,
    "апарат": 2619,
    "буває": 2620,
    "ві¬": 2621,
    "дріб": 2622,
    "ихі": 2623,
    "людей": 2624,
    "ми;  ": 2625,
    "сне": 2626,
    "стави": 2627,
    "уні": 2628,
    "цьог": 2629,
    "частина": 2630,
    "ієприкм.  ": 2631,
    " більш": 2632,
    " ни": 2633,
    " хліб": 2634,
    " \n\n\n\n1": 2635,
    "  л": 2636,
    "  мі": 2637,
    "  росли": 2638,
    "  до¬ ": 2639,
    "  довг": 2640,
    "  слов": 2641,
    "  тканини": 2642,
    "  хо": 2643,
    ",  ц": 2644,
    ",  що  від": 2645,
    ".  Той,  хто  ": 2646,
    "].  К": 2647,
    "значає": 2648,
    "ка¬": 2649,
    "лені": 2650,
    "лл.  ": 2651,
    "лі¬": 2652,
    "матич": 2653,
    "олл.  ": 2654,
    "пері": 2655,
    "пров": 2656,
    "су  ": 2657,
    "т  —": 2658,
    "тріб": 2659,
    "цього  ": 2660,
    "чник": 2661,
    "  кори": 2662,
    "  мол": 2663,
    "  певної": 2664,
    ".  Л": 2665,
    ".  Те  саме,  що  ": 2666,
    "3  •": 2667,
    "ада": 2668,
    "дні": 2669,
    "електри": 2670,
    "еність": 2671,
    "кцій": 2672,
    "ка, ": 2673,
    "критт": 2674,
    "овний  ": 2675,
    "пови": 2676,
    "сихі": 2677,
    "трач": 2678,
    "цього": 2679,
    "ійсь": 2680,
    "\nни": 2681,
    "\nний  ": 2682,
    "  груп": 2683,
    "  повітря": 2684,
    ",  ді": 2685,
    "-и,  ж": 2686,
    ". 2.  ": 2687,
    "ЦА,  -и,  ж": 2688,
    "би,  ": 2689,
    "бороть": 2690,
    "важл.  ": 2691,
    "викон": 2692,
    "деяких": 2693,
    "ева": 2694,
    "еня": 2695,
    "жива": 2696,
    "ий,  -а,  -е": 2697,
    "лу  ": 2698,
    "лют": 2699,
    "ошення": 2700,
    "раження": 2701,
    "розумі": 2702,
    "  І": 2703,
    "  ви¬ \n": 2704,
    "  гу": 2705,
    "  за ": 2706,
    "  от": 2707,
    "  одніє": 2708,
    "  іс": 2709,
    ".  1.  М": 2710,
    ".  Роз": 2711,
    ".,  спец.  ": 2712,
    "а,  ч": 2713,
    "бР": 2714,
    "вище": 2715,
    "голл.  ": 2716,
    "же  ": 2717,
    "живання": 2718,
    "зичний  ": 2719,
    "змін": 2720,
    "ливість": 2721,
    "політи": 2722,
    "плат": 2723,
    "раб": 2724,
    "реди": 2725,
    "рювання": 2726,
    "ста¬": 2727,
    "ісля": 2728,
    " року": 2729,
    " сіль": 2730,
    "  дру": 2731,
    "  проми": 2732,
    ",  -яєш": 2733,
    ".  Дія  зі  знач": 2734,
    ".  Ма": 2735,
    "1,  ": 2736,
    ";  б": 2737,
    "].  При": 2738,
    "Пла": 2739,
    "ація,  -ї,  ж": 2740,
    "вня": 2741,
    "горі": 2742,
    "е  з": 2743,
    "енергі": 2744,
    "ма¬ ": 2745,
    "мі¬": 2746,
    "ні \n": 2747,
    "рап": 2748,
    "старо": 2749,
    "у;  ~": 2750,
    "цвіт": 2751,
    "\n-а,  -е": 2752,
    "\nний": 2753,
    "  зако": 2754,
    "  звук": 2755,
    "  основ": 2756,
    ").  2.  ": 2757,
    ",  чог": 2758,
    "8  — ": 2759,
    "].  1.": 2760,
    "ЕД": 2761,
    "вців": 2762,
    "ег  —": 2763,
    "жність": 2764,
    "ковий": 2765,
    "кисло": 2766,
    "крити": 2767,
    "кількості": 2768,
    "льне": 2769,
    "лює": 2770,
    "мля": 2771,
    "неперех": 2772,
    "радіо": 2773,
    "разом": 2774,
    "ч.  ": 2775,
    "ючи,  ": 2776,
    "\nроз": 2777,
    " ний": 2778,
    "  водо": 2779,
    "  парт": 2780,
    "  поверхні": 2781,
    "  пта": 2782,
    "  спол": 2783,
    "  хворо": 2784,
    "[франц.  ": 2785,
    "О,  -а,  с": 2786,
    "багато": 2787,
    "ини ": 2788,
    "йй,  -а,  -е": 2789,
    "лим": 2790,
    "ління": 2791,
    "м’ят": 2792,
    "ництво": 2793,
    "паль": 2794,
    "пеціаль": 2795,
    "ристия": 2796,
    "робити  ": 2797,
    "роз¬": 2798,
    "у,  з": 2799,
    "учення": 2800,
    "фін.  ": 2801,
    "чови": 2802,
    "ь \n\n": 2803,
    "  або  з": 2804,
    "  ор": 2805,
    "  періо": 2806,
    "  це": 2807,
    "  і р": 2808,
    ",  е": 2809,
    ",  спо": 2810,
    ",  що \n\n": 2811,
    ".  Пі": 2812,
    ".  Сп": 2813,
    ".,  мед": 2814,
    ";  -ник": 2815,
    "ається": 2816,
    "дода": 2817,
    "ину  ": 2818,
    "користовую": 2819,
    "лінгв": 2820,
    "міц": 2821,
    "овлений  ": 2822,
    "рних": 2823,
    "ра¬": 2824,
    "редставник": 2825,
    "смі": 2826,
    "ти  з": 2827,
    "у  знач,  при": 2828,
    "част": 2829,
    "ює  ": 2830,
    "яльності": 2831,
    "  ат": 2832,
    "  рух": 2833,
    "  тве": 2834,
    "  і р ": 2835,
    " селян": 2836,
    ",  го": 2837,
    ",  що  має": 2838,
    ".,  кл.  -о,  ": 2839,
    "НА,  -и,  ж": 2840,
    "господарства": 2841,
    "ди,  ": 2842,
    "жере": 2843,
    "живо": 2844,
    "капі": 2845,
    "ків.": 2846,
    "ний  с": 2847,
    "ний. ": 2848,
    "риз": 2849,
    "станова": 2850,
    "ської  ": 2851,
    "уся": 2852,
    "ьний,  -а,  -е": 2853,
    "  <": 2854,
    "  гли": 2855,
    "  зв’яз": 2856,
    "  осіб": 2857,
    "  твер": 2858,
    "#1": 2859,
    ".  2.  К": 2860,
    ".  2.  Ви": 2861,
    ".  І.  ": 2862,
    ".  —  ": 2863,
    "XVII": 2864,
    "авда": 2865,
    "блення": 2866,
    "вони ": 2867,
    "да ": 2868,
    "держав": 2869,
    "е.  Прикм.  до  ": 2870,
    "зна¬ ": 2871,
    "иці": 2872,
    "клю": 2873,
    "куля": 2874,
    "кці": 2875,
    "нний": 2876,
    "рний": 2877,
    "рахун": 2878,
    "силь": 2879,
    "сних": 2880,
    "сно  ": 2881,
    "терес": 2882,
    "ть  на": 2883,
    "т.  і": 2884,
    "ти  (": 2885,
    "ули ": 2886,
    "фік": 2887,
    "яга": 2888,
    "і  т.  ін.)": 2889,
    "’,  -": 2890,
    " \nга": 2891,
    "  озна": 2892,
    "  ін.  ": 2893,
    " вис": 2894,
    ",  -у,  ч.,  ме": 2895,
    ",  -у,  ч.,  мед": 2896,
    ",  бу": 2897,
    "-уєш": 2898,
    ".  1.  К": 2899,
    ";  м": 2900,
    "І8  —": 2901,
    "ПЕР": 2902,
    "Той,  хто  ": 2903,
    "ала": 2904,
    "ений ": 2905,
    "ерша  частина  склад": 2906,
    "о-н.;  ": 2907,
    "перен.": 2908,
    "створе": 2909,
    "сти ": 2910,
    "сто¬": 2911,
    "тери": 2912,
    "і,  ": 2913,
    " між": 2914,
    " них": 2915,
    "  (с": 2916,
    "  збро": 2917,
    "  ум": 2918,
    "  усі": 2919,
    "  худ": 2920,
    "  якогось": 2921,
    "  і  т.  ін.  ": 2922,
    "- \n\n\n\n1": 2923,
    ".  2.  Д": 2924,
    ".  Ди": 2925,
    "].  1.  В": 2926,
    "¬ \n1.  ": 2927,
    "АСТ": 2928,
    "а,  ч.,  кл.  -": 2929,
    "араб": 2930,
    "бов’яз": 2931,
    "гнення": 2932,
    "дрі": 2933,
    "дал": 2934,
    "и  по": 2935,
    "кома": 2936,
    "м;  -": 2937,
    "мобі": 2938,
    "мінь": 2939,
    "нак": 2940,
    "ни.": 2941,
    "о,  ч": 2942,
    "о§": 2943,
    "отри": 2944,
    "остей": 2945,
    "рон": 2946,
    "страх": 2947,
    "творюва": 2948,
    "тера": 2949,
    " При": 2950,
    " серед": 2951,
    "  або \n": 2952,
    "  наз": 2953,
    "  свої": 2954,
    "  твари": 2955,
    "  три": 2956,
    "  і т": 2957,
    ".  2.  перен": 2958,
    "Я,  -і,  ж": 2959,
    "влад": 2960,
    "гу  ": 2961,
    "ена  ": 2962,
    "еним": 2963,
    "кого-н.  ": 2964,
    "коре": 2965,
    "карб": 2966,
    "криття": 2967,
    "нник": 2968,
    "не¬ ": 2969,
    "ний  д": 2970,
    "о. \n\n": 2971,
    "оп  —": 2972,
    "ство,  -а,  с": 2973,
    "стот": 2974,
    "тується": 2975,
    "тіла": 2976,
    "угі": 2977,
    "уряд": 2978,
    "усти": 2979,
    "увати,": 2980,
    "хожи": 2981,
    "чере": 2982,
    "’єднання": 2983,
    " лі": 2984,
    "  є": 2985,
    "  без  додатка": 2986,
    "  діє": 2987,
    "  соб": 2988,
    "  які": 2989,
    " проти": 2990,
    ",  Ж": 2991,
    ".  Х": 2992,
    "].  1. ": 2993,
    "].  1.  З": 2994,
    "¬ 1.  ": 2995,
    "УБ": 2996,
    "агі": 2997,
    "браз": 2998,
    "близ": 2999,
    "ві¬ ": 3000,
    "дові": 3001,
    "дав.": 3002,
    "жна": 3003,
    "кольор": 3004,
    "кінця": 3005,
    "лих": 3006,
    "м \n\n": 3007,
    "нер": 3008,
    "обре": 3009,
    "ок  ": 3010,
    "ражає": 3011,
    "робл": 3012,
    "тування": 3013,
    "чних  ": 3014,
    "ьові": 3015,
    "ньові": 3016,
    "ю \n\n": 3017,
    "і  з": 3018,
    " \nний": 3019,
    " го  ": 3020,
    "  гри": 3021,
    "  на \n": 3022,
    "  проти": 3023,
    "  тру": 3024,
    " відб": 3025,
    ", не": 3026,
    ";  перен.  ": 3027,
    "ІСТ": 3028,
    "К,  -а,  ч": 3029,
    "Л.  -": 3030,
    "а,  ": 3031,
    "вним": 3032,
    "го,  ч": 3033,
    "дови": 3034,
    "кості": 3035,
    "ка.": 3036,
    "ниці": 3037,
    "ом.  ": 3038,
    "прово": 3039,
    "ранс": 3040,
    "рівн": 3041,
    "ува¬": 3042,
    "іа  —": 3043,
    "\nв  ": 3044,
    " ний  ": 3045,
    "  (перев.  ": 3046,
    "  діяльності": 3047,
    "  за  ": 3048,
    "  меди": 3049,
    " нашо": 3050,
    " рай": 3051,
    ").  3.  ": 3052,
    "+  грец": 3053,
    ", які": 3054,
    ",  -я,  ч.,  кл.  -": 3055,
    ",  -ів,  мн.  ": 3056,
    ",  що  по": 3057,
    ". \n2.  ": 3058,
    "біо": 3059,
    "емі": 3060,
    "жений": 3061,
    "кція": 3062,
    "лі¬ ": 3063,
    "нізм": 3064,
    "ткани": 3065,
    "товари": 3066,
    "треб": 3067,
    "фізі": 3068,
    "хніч": 3069,
    "характериз": 3070,
    "їст": 3071,
    " \nний  ": 3072,
    " \n\nВ": 3073,
    "  [лат.  ": 3074,
    "  ко¬ ": 3075,
    "  повед": 3076,
    "  чимось": 3077,
    "  і т .  ін.)": 3078,
    ", не ": 3079,
    ",  розм": 3080,
    ",  -и,": 3081,
    ",  во": 3082,
    ".  5.  ": 3083,
    "¬ \nне": 3084,
    "¬ \nня": 3085,
    "Амери": 3086,
    "вої  ": 3087,
    "вчення": 3088,
    "відн": 3089,
    "дав.,  м.  -з": 3090,
    "для ": 3091,
    "и,  -аю,  -аєш": 3092,
    "ине": 3093,
    "к,  -": 3094,
    "ких  ": 3095,
    "лежить": 3096,
    "ливе": 3097,
    "лювати": 3098,
    "ляти": 3099,
    "на.": 3100,
    "напр.,  ": 3101,
    "о;  -": 3102,
    "овніш": 3103,
    "ський  ": 3104,
    "ти,  п": 3105,
    "ушення": 3106,
    "цині": 3107,
    "часті": 3108,
    " \nма": 3109,
    " життя": 3110,
    " світ": 3111,
    " \n\nз": 3112,
    "  вип": 3113,
    "  вищ": 3114,
    "  держав": 3115,
    "  за  допомогою": 3116,
    "  культ": 3117,
    "  кор": 3118,
    "  нер": 3119,
    "  ха": 3120,
    "  ци": 3121,
    " на п": 3122,
    ",  ма": 3123,
    "..  [грец.  ": 3124,
    "...  [грец.  ": 3125,
    ".  Ста": 3126,
    "Європ": 3127,
    "КЛ.  -": 3128,
    "Людина,  яка": 3129,
    "Сукупність": 3130,
    "ТОР": 3131,
    "біля": 3132,
    "велик": 3133,
    "куль": 3134,
    "кимось": 3135,
    "неп": 3136,
    "ників ": 3137,
    "овна": 3138,
    "опера": 3139,
    "ої \n\n": 3140,
    "предмет": 3141,
    "р.  ": 3142,
    "розд": 3143,
    "ставля": 3144,
    "ста¬ ": 3145,
    "твори": 3146,
    "троп": 3147,
    "ції ": 3148,
    "чолові": 3149,
    "ібра": 3150,
    "\nро": 3151,
    " \n-а,  -е": 3152,
    "  грош": 3153,
    "  країнах": 3154,
    "  предметі": 3155,
    "  своє": 3156,
    "  сили": 3157,
    "  фор": 3158,
    "  худо": 3159,
    "  що": 3160,
    " нам": 3161,
    ", \nна": 3162,
    ",  -а,  ч.,  к": 3163,
    ",  -ує": 3164,
    ".  Зм": 3165,
    ".  Пере": 3166,
    "].  1.  О": 3167,
    "АФ": 3168,
    "АХ": 3169,
    "Й,  -а,  -е": 3170,
    "ТЕР": 3171,
    "джа": 3172,
    "жувати": 3173,
    "жується": 3174,
    "м.  -ці": 3175,
    "мі¬ ": 3176,
    "остя": 3177,
    "ових ": 3178,
    "ором": 3179,
    "плення": 3180,
    "правля": 3181,
    "сказа": 3182,
    "сування": 3183,
    "сто¬ ": 3184,
    "стосову": 3185,
    "та  —": 3186,
    "тний": 3187,
    "тних": 3188,
    "ільно": 3189,
    "  авт": 3190,
    "  почу": 3191,
    "  почут": 3192,
    "  ту": 3193,
    "  тощо  ": 3194,
    "  тіл": 3195,
    " на с": 3196,
    " робіт": 3197,
    "].  Б": 3198,
    "Аз": 3199,
    "воль": 3200,
    "года": 3201,
    "гірсь": 3202,
    "дри": 3203,
    "дається": 3204,
    "ено  ": 3205,
    "ка¬ ": 3206,
    "користовуют": 3207,
    "ливості": 3208,
    "літерату": 3209,
    "ми  і": 3210,
    "н  із": 3211,
    "нан": 3212,
    "о...  ": 3213,
    "овори": 3214,
    "пали": 3215,
    "роз¬ ": 3216,
    "снова": 3217,
    "суль": 3218,
    "тура": 3219,
    "у,  по": 3220,
    "удова": 3221,
    "узичний  ": 3222,
    "успіль": 3223,
    "цьк": 3224,
    "цієї": 3225,
    " \nроз": 3226,
    "  +  ": 3227,
    "  ба": 3228,
    "  для \n": 3229,
    "  зберіга": 3230,
    "  органів": 3231,
    "  пас": 3232,
    "  полі": 3233,
    "  у  в": 3234,
    "  через": 3235,
    "  ід": 3236,
    ",  -а,  ч.,  кл": 3237,
    ",  напр": 3238,
    ",  що  д": 3239,
    ",  що  вивчає": 3240,
    ".  6": 3241,
    "].  Ви": 3242,
    "^єш": 3243,
    "Дія  зі  знач": 3244,
    "КОН": 3245,
    "бВ": 3246,
    "ватися": 3247,
    "вік": 3248,
    "газе": 3249,
    "дра": 3250,
    "ена ": 3251,
    "збро": 3252,
    "комусь": 3253,
    "лася": 3254,
    "лю¬": 3255,
    "мна": 3256,
    "мові": 3257,
    "мак": 3258,
    "напрям": 3259,
    "нет": 3260,
    "ні,": 3261,
    "о не": 3262,
    "п  —  ": 3263,
    "рука": 3264,
    "ред¬": 3265,
    "рин": 3266,
    "ряду  ": 3267,
    "товлений  ": 3268,
    "у-н.  ": 3269,
    "уван¬": 3270,
    "ування,  -я,  с": 3271,
    "ї  та": 3272,
    "•  ": 3273,
    "\nні": 3274,
    " <|EOS|> ": 3275,
    " собі": 3276,
    "  \n": 3277,
    "  ар": 3278,
    "  вик": 3279,
    "  до  п": 3280,
    "  промис": 3281,
    "  частини": 3282,
    "  чин": 3283,
    ",  -а,  ч.,  кл.  -у.  ": 3284,
    ",  -і,  ж.,  ор.  -": 3285,
    ",  коли": 3286,
    "-е.  Прикм.  до  ": 3287,
    ".  Зме": 3288,
    ".  Змен": 3289,
    ";  -е": 3290,
    "I  ст": 3291,
    "].  Ро": 3292,
    "Пра": 3293,
    "СР": 3294,
    "а  також": 3295,
    "бік": 3296,
    "вка": 3297,
    "вірш": 3298,
    "или ": 3299,
    "инка": 3300,
    "й  т": 3301,
    "лак": 3302,
    "новид": 3303,
    "о не ": 3304,
    "оплю": 3305,
    "рай": 3306,
    "сник": 3307,
    "стані": 3308,
    "фри": 3309,
    "щ,  перех": 3310,
    "ька": 3311,
    "юся": 3312,
    "ються ": 3313,
    "яльність": 3314,
    "ї  в": 3315,
    "\nки": 3316,
    " \n\nД": 3317,
    " \n\nс": 3318,
    "  пе¬": 3319,
    "  певних": 3320,
    "  служ": 3321,
    "  умо": 3322,
    "  чере": 3323,
    "  чер": 3324,
    ", при": 3325,
    ",  щось": 3326,
    ". у  ": 3327,
    ". \n\nН": 3328,
    ".  1.  При": 3329,
    "].  І": 3330,
    "¬ ня": 3331,
    "З  знач.)": 3332,
    "УГ": 3333,
    "вності": 3334,
    "водити  ": 3335,
    "вця": 3336,
    "галузі": 3337,
    "грош": 3338,
    "дне": 3339,
    "иля": 3340,
    "ичного  ": 3341,
    "ластивість": 3342,
    "лич": 3343,
    "лювати  ": 3344,
    "м.  2.  ": 3345,
    "ми;  -": 3346,
    "не \n": 3347,
    "о.  2.  ": 3348,
    "о;  ": 3349,
    "обли": 3350,
    "овості": 3351,
    "орюється": 3352,
    "посеред": 3353,
    "повіда": 3354,
    "рця": 3355,
    "рей": 3356,
    "рим": 3357,
    "робити": 3358,
    "стріч": 3359,
    "сьо": 3360,
    "ужить": 3361,
    "ііо  —": 3362,
    "\nних": 3363,
    " \nни": 3364,
    "  «": 3365,
    "  внаслідок": 3366,
    "  відно": 3367,
    "  дріб": 3368,
    "  за¬ \n": 3369,
    "  комп": 3370,
    "  ок": 3371,
    "  продук": 3372,
    "  процесі": 3373,
    "  сил": 3374,
    ",  -а,  ч.,": 3375,
    ",  заст": 3376,
    ",  фо": 3377,
    ".  2.  перен.": 3378,
    ".  До": 3379,
    ";  про": 3380,
    "¬ \n\nП": 3381,
    "І08  —": 3382,
    "АЖ": 3383,
    "ИР": 3384,
    "Ь,  -": 3385,
    "Який \n": 3386,
    "а  ін": 3387,
    "ацію": 3388,
    "вань": 3389,
    "графі": 3390,
    "знання": 3391,
    "иш,  перех": 3392,
    "ка,  -и,  ж.,  ": 3393,
    "кращ": 3394,
    "лужить": 3395,
    "листя": 3396,
    "ности": 3397,
    "ний  т": 3398,
    "одна": 3399,
    "перем.  ": 3400,
    "ра¬ ": 3401,
    "рівня": 3402,
    "сова": 3403,
    "тувати": 3404,
    "хання": 3405,
    "хильник": 3406,
    "явлення": 3407,
    "\nна  ": 3408,
    " розм.  ": 3409,
    "  родини  ": 3410,
    "  дум": 3411,
    "  період": 3412,
    "  почутт": 3413,
    "  та  ін.": 3414,
    "  чим": 3415,
    "  якому  ": 3416,
    ",  виго": 3417,
    "-у,  ч": 3418,
    ".  Ш": 3419,
    "бування": 3420,
    "біол.  ": 3421,
    "вивч": 3422,
    "говори": 3423,
    "гап": 3424,
    "гас": 3425,
    "дав.,": 3426,
    "ерна": 3427,
    "ити,  ": 3428,
    "кора": 3429,
    "кій  міф": 3430,
    "ли¬": 3431,
    "лю,  -": 3432,
    "мовля": 3433,
    "н.  2.  ": 3434,
    "нглі": 3435,
    "нна": 3436,
    "нищ": 3437,
    "ормі": 3438,
    "провод": 3439,
    "стий": 3440,
    "урна": 3441,
    "ці.": 3442,
    "шо  ": 3443,
    "ія,  -ї,  ж": 3444,
    " .  ін.  ": 3445,
    " має": 3446,
    " рад": 3447,
    "  щось": 3448,
    "  вико": 3449,
    "  громад": 3450,
    "  обол": 3451,
    "  оболо": 3452,
    "  об’єк": 3453,
    "  одиниця": 3454,
    "  собо": 3455,
    "  чом": 3456,
    "+  грец.": 3457,
    "-а,  ч.,  кл.  -": 3458,
    ".  1.  Г": 3459,
    ".  1.  У": 3460,
    ".  1.  По": 3461,
    ".  [п": 3462,
    "¬ що  ": 3463,
    "К,  -": 3464,
    "УД": 3465,
    "а  з": 3466,
    "ахід": 3467,
    "волюцій": 3468,
    "даж": 3469,
    "давньогрець": 3470,
    "життє": 3471,
    "зика": 3472,
    "клі": 3473,
    "кою  ": 3474,
    "користовують": 3475,
    "лося": 3476,
    "лікування": 3477,
    "ні з": 3478,
    "ой,  х": 3479,
    "ой,  хт": 3480,
    "розп": 3481,
    "рідини": 3482,
    "сл.  ": 3483,
    "сня": 3484,
    "ува¬ ": 3485,
    "фіг": 3486,
    "фіка": 3487,
    "фін": 3488,
    "ці,": 3489,
    "чним": 3490,
    "частин": 3491,
    "шого  ": 3492,
    "юри": 3493,
    "  виро": 3494,
    "  дерев": 3495,
    "  держави": 3496,
    "  люди": 3497,
    "  окрем": 3498,
    "  опера": 3499,
    "  пере¬": 3500,
    "  предметів": 3501,
    "  слова": 3502,
    "'ї": 3503,
    ",  іст": 3504,
    ",  -а,  */": 3505,
    ",  та": 3506,
    ",  яким": 3507,
    ". \nви": 3508,
    ". 1.  ": 3509,
    ".  1 .": 3510,
    ".  1 . ": 3511,
    ".  2.  По": 3512,
    ".  Вели": 3513,
    ".  Те": 3514,
    ";  ~6": 3515,
    ";  сп": 3516,
    "Ц,  -а,  ч": 3517,
    "а  —  ": 3518,
    "а,  -и,  ж": 3519,
    "гла": 3520,
    "датність": 3521,
    "ити,  -": 3522,
    "ква": 3523,
    "кст": 3524,
    "кількох": 3525,
    "нний  ": 3526,
    "ний  з": 3527,
    "ного  т": 3528,
    "о при": 3529,
    "оло  ": 3530,
    "овим": 3531,
    "плі": 3532,
    "помі": 3533,
    "речовина": 3534,
    "сся": 3535,
    "тку  ": 3536,
    "тря": 3537,
    "уваль": 3538,
    "українсь": 3539,
    "формі": 3540,
    "юсь": 3541,
    "і  с": 3542,
    "іро": 3543,
    "  +": 3544,
    "  бог": 3545,
    "  зав": 3546,
    "  корот": 3547,
    "  пре": 3548,
    "  слово": 3549,
    ",  невідм.,  ч": 3550,
    ",  по¬": 3551,
    ",  чого": 3552,
    ".  1.  Н": 3553,
    ".  1.  Ро": 3554,
    ".  Прикм. ": 3555,
    "8  — \n": 3556,
    "¬ не": 3557,
    "¬ \n\nВ": 3558,
    "Азі": 3559,
    "аніч": 3560,
    "ежний  ": 3561,
    "жна ": 3562,
    "збірн.  ": 3563,
    "и8  —": 3564,
    "крет": 3565,
    "маю": 3566,
    "нев": 3567,
    "ні.": 3568,
    "ося ": 3569,
    "ологіч": 3570,
    "при¬": 3571,
    "рові": 3572,
    "роч": 3573,
    "розч": 3574,
    "рядд": 3575,
    "стоп": 3576,
    "ти,  -аю,  -аєш": 3577,
    "ти  т": 3578,
    "уванні": 3579,
    "\nз  ": 3580,
    " \nки": 3581,
    " \nні": 3582,
    " вони ": 3583,
    " прав": 3584,
    "  верх": 3585,
    "  заліз": 3586,
    "  запи": 3587,
    "  поча": 3588,
    "  тон": 3589,
    " викона": 3590,
    ",  -у,  ч.  [нім.  ": 3591,
    ",  -ї,": 3592,
    ",  од": 3593,
    "А,  -и": 3594,
    "ЕНТ": 3595,
    "СЛ": 3596,
    "вки": 3597,
    "військов": 3598,
    "жан": 3599,
    "ження ": 3600,
    "кликає": 3601,
    "ллю": 3602,
    "лаг": 3603,
    "лати": 3604,
    "м.,  ": 3605,
    "ми.  2.  ": 3606,
    "ний,  -а,  -е.": 3607,
    "овний": 3608,
    "ось ": 3609,
    "рак": 3610,
    "рази": 3611,
    "сток": 3612,
    "у, \n\n": 3613,
    "уючи  ": 3614,
    "хіміч": 3615,
    "ю  або  ": 3616,
    "янсь": 3617,
    "і  т.  ін.  ": 3618,
    " змі": 3619,
    "  рослин": 3620,
    "  вчення": 3621,
    "  пласти": 3622,
    "  пле": 3623,
    "  тверд": 3624,
    " нав": 3625,
    ",  -уєшся": 3626,
    "-ї,  ж": 3627,
    ". ре": 3628,
    ".  1.  За": 3629,
    "<  лат.  ": 3630,
    "агат": 3631,
    "багать": 3632,
    "ган": 3633,
    "жене": 3634,
    "жний": 3635,
    "истема": 3636,
    "капіт": 3637,
    "католи": 3638,
    "лежний  ": 3639,
    "мога": 3640,
    "му;  -": 3641,
    "маши": 3642,
    "міст": 3643,
    "норма": 3644,
    "нин": 3645,
    "ньовіч": 3646,
    "ологія": 3647,
    "пора": 3648,
    "роді": 3649,
    "сель": 3650,
    "си  ": 3651,
    "тися,": 3652,
    "у,  що  ": 3653,
    "чомусь": 3654,
    "шина": 3655,
    "іт.  ": 3656,
    "іяльності": 3657,
    "діяльності": 3658,
    "\nється": 3659,
    " вання": 3660,
    " три": 3661,
    "  земн": 3662,
    "  недок": 3663,
    "  об’єкт": 3664,
    "  прий": 3665,
    "  чу": 3666,
    "  чого-н.,  ": 3667,
    ",  то": 3668,
    ". \n\nВ": 3669,
    ".  2.  М": 3670,
    ".  Зменш": 3671,
    "бливо": 3672,
    "бувається": 3673,
    "віть": 3674,
    "газет": 3675,
    "ерне": 3676,
    "жувати  ": 3677,
    "и;  ~": 3678,
    "й  на": 3679,
    "казі": 3680,
    "лий  ": 3681,
    "м  або  ": 3682,
    "мар": 3683,
    "ми  (": 3684,
    "ність,  -ості,  ж": 3685,
    "ряддя": 3686,
    "ріш": 3687,
    "ски": 3688,
    "трат": 3689,
    "ть \n\n": 3690,
    "ула ": 3691,
    "утність": 3692,
    "яви": 3693,
    "\nри": 3694,
    "  (д": 3695,
    "  від¬": 3696,
    "  одя": 3697,
    "  парті": 3698,
    "  хре": 3699,
    "  чомусь": 3700,
    "  і т .  ін. ": 3701,
    "  її": 3702,
    " нас ": 3703,
    " не з": 3704,
    " хлібо": 3705,
    ",  чогось": 3706,
    ",  ін": 3707,
    ". \n\nС": 3708,
    ".  2.  перен.,  ": 3709,
    ".  3.  перен.  ": 3710,
    "].  По": 3711,
    "¬ \nпри": 3712,
    "ПАР": 3713,
    "ЧНИЙ,  -а,  -е": 3714,
    "алення": 3715,
    "ами,  ": 3716,
    "ання ": 3717,
    "бЛ": 3718,
    "волі": 3719,
    "вується": 3720,
    "гові": 3721,
    "дав.,  м.  -зі": 3722,
    "дерева": 3723,
    "жка": 3724,
    "завда": 3725,
    "зв’яз": 3726,
    "к,  ": 3727,
    "кля": 3728,
    "кола": 3729,
    "ка. ": 3730,
    "ловлю": 3731,
    "м  для": 3732,
    "ми  та": 3733,
    "на  родини  ": 3734,
    "ний  на": 3735,
    "ного  по": 3736,
    "няти": 3737,
    "окре": 3738,
    "она ": 3739,
    "остат": 3740,
    "орган": 3741,
    "редит": 3742,
    "складу  ": 3743,
    "ти;  ": 3744,
    "шах": 3745,
    "ь  до  ": 3746,
    "ю,  -": 3747,
    "ють  у  ": 3748,
    " перех": 3749,
    " ска": 3750,
    " спра": 3751,
    " \n\nН": 3752,
    "  власти": 3753,
    "  заг": 3754,
    "  зве": 3755,
    "  землі": 3756,
    "  моло": 3757,
    "  неб": 3758,
    "  одного  ": 3759,
    "  пе¬ ": 3760,
    "  прям": 3761,
    "  собою": 3762,
    "  спос": 3763,
    "  іде": 3764,
    ", на ": 3765,
    ",  -у,  ч.": 3766,
    ",  са": 3767,
    ".;  -": 3768,
    ".  1.  Б": 3769,
    ".  Об": 3770,
    "¬ \nре": 3771,
    "¬ \n\nН": 3772,
    "Римі": 3773,
    "бива": 3774,
    "вна  ": 3775,
    "вувати": 3776,
    "висо": 3777,
    "вич.  ": 3778,
    "дале": 3779,
    "егі": 3780,
    "ерен": 3781,
    "жник": 3782,
    "жу,  -": 3783,
    "ичних": 3784,
    "лю¬ ": 3785,
    "лять": 3786,
    "нків": 3787,
    "нтується": 3788,
    "нами": 3789,
    "ни. ": 3790,
    "ний  о": 3791,
    "нів ": 3792,
    "оня": 3793,
    "освіт": 3794,
    "отріб": 3795,
    "очка": 3796,
    "пов’яза": 3797,
    "поля": 3798,
    "про¬": 3799,
    "ред¬ ": 3800,
    "розта": 3801,
    "соба,  яка": 3802,
    "ступі": 3803,
    "улі": 3804,
    "уван¬ ": 3805,
    "україн": 3806,
    "хня": 3807,
    "цієї  ": 3808,
    "чого-н.  ": 3809,
    "ювати,  -юю,  -юєш": 3810,
    "іка": 3811,
    "їсь": 3812,
    "\nвання": 3813,
    " \nних": 3814,
    " пода": 3815,
    " стан": 3816,
    "  нау": 3817,
    "  сол": 3818,
    "  спорт": 3819,
    "  яком": 3820,
    " хлібоз": 3821,
    " хлібоза": 3822,
    " хлібозаг": 3823,
    " хлібозаго": 3824,
    " хлібозагот": 3825,
    "),  ": 3826,
    ",  -и, ": 3827,
    ". \n\nт": 3828,
    ".  2.  За": 3829,
    ".  Ді": 3830,
    ";  ~я": 3831,
    "XX  ст": 3832,
    "КАР": 3833,
    "альної": 3834,
    "добре": 3835,
    "дося": 3836,
    "дро": 3837,
    "дав.,  м": 3838,
    "к  із": 3839,
    "курі": 3840,
    "лися ": 3841,
    "ме,  що  ": 3842,
    "аме,  що  ": 3843,
    "нь  ": 3844,
    "нижч": 3845,
    "ння.": 3846,
    "овець": 3847,
    "ової  ": 3848,
    "правління": 3849,
    "раз ": 3850,
    "снення": 3851,
    "суспіль": 3852,
    "ть  до  ": 3853,
    "унтується": 3854,
    "увати, ": 3855,
    "який ": 3856,
    " \nв  ": 3857,
    " \nро": 3858,
    " тільки ": 3859,
    "  З": 3860,
    "  від  ": 3861,
    "  закон": 3862,
    "  засі": 3863,
    "  однієї": 3864,
    "  певного  ": 3865,
    "  політи": 3866,
    "  про¬ \n": 3867,
    "  та \n": 3868,
    "  чис": 3869,
    "!!": 3870,
    "'їз": 3871,
    ",  -и,  ж.,  ": 3872,
    ",  пов’яза": 3873,
    ".  Ф": 3874,
    ";  під": 3875,
    ";  г": 3876,
    ";  ч": 3877,
    ";  -ов": 3878,
    ";  вй": 3879,
    "ИЛ": 3880,
    "авати  ": 3881,
    "вивча": 3882,
    "вящ": 3883,
    "гляді": 3884,
    "д  час": 3885,
    "дам": 3886,
    "дмініст": 3887,
    "еода": 3888,
    "жений  ": 3889,
    "загалі": 3890,
    "кіст": 3891,
    "лист": 3892,
    "льног": 3893,
    "н.)": 3894,
    "несення": 3895,
    "ни,": 3896,
    "ниц": 3897,
    "ння,": 3898,
    "о про": 3899,
    "обливо": 3900,
    "ожна ": 3901,
    "оклад": 3902,
    "ослід": 3903,
    "палення": 3904,
    "прес": 3905,
    "після": 3906,
    "перев": 3907,
    "перен.,  розм.  ": 3908,
    "рунтується": 3909,
    "риба": 3910,
    "сила": 3911,
    "снюва": 3912,
    "стом": 3913,
    "ському  ": 3914,
    "тори": 3915,
    "тури": 3916,
    "фіцій": 3917,
    "х  —": 3918,
    "хоплю": 3919,
    "часть": 3920,
    "якому  ": 3921,
    " \nна  ": 3922,
    " ст": 3923,
    "  вп": 3924,
    "  звер": 3925,
    "  один": 3926,
    "  площ": 3927,
    "  почуття": 3928,
    "'їзд": 3929,
    ",  -у,  ": 3930,
    ",  зд": 3931,
    ". \n\nБ": 3932,
    ". \n\n\n\n1 ": 3933,
    ".  II.  ": 3934,
    "1о§": 3935,
    "].  1.  М": 3936,
    "¬ про": 3937,
    "ЕГ": 3938,
    "ЙЙ,  -а,  -е": 3939,
    "анець": 3940,
    "багатьо": 3941,
    "е§": 3942,
    "жена": 3943,
    "илення": 3944,
    "има": 3945,
    "инки": 3946,
    "иска": 3947,
    "исьме": 3948,
    "кий  с": 3949,
    "лежа": 3950,
    "ловості": 3951,
    "лав": 3952,
    "льні": 3953,
    "моні": 3954,
    "мат.  ": 3955,
    "мате": 3956,
    "мают": 3957,
    "мають": 3958,
    "наг": 3959,
    "ної  ф": 3960,
    "ніж": 3961,
    "обла": 3962,
    "ожна": 3963,
    "ображення": 3964,
    "рансп": 3965,
    "ранспо": 3966,
    "ранспор": 3967,
    "риторі": 3968,
    "саме,  що  ": 3969,
    "сутність": 3970,
    "стої": 3971,
    "стосовується": 3972,
    "тки": 3973,
    "тна": 3974,
    "тільки  недок": 3975,
    "ханіч": 3976,
    "центра": 3977,
    "\nго  ": 3978,
    " 1  •": 3979,
    " місце": 3980,
    " сказа": 3981,
    " \n\nС": 3982,
    " \n\nв": 3983,
    "  або  с": 3984,
    "  відповід": 3985,
    "  земно": 3986,
    "  кого  ": 3987,
    "  на¬ \n": 3988,
    "  печ": 3989,
    "  поло": 3990,
    "(у  2  знач.)": 3991,
    ",  -а,  ч., ": 3992,
    ",  -яю,  -яєш": 3993,
    ".  2.  Н": 3994,
    ".  Про": 3995,
    ".  Під": 3996,
    "].  Рі": 3997,
    "¬ \nщо  ": 3998,
    "Фран": 3999,
    "а,  с": 4000,
    "беріга": 4001,
    "були ": 4002,
    "бал": 4003,
    "гна": 4004,
    "дати ": 4005,
    "економі": 4006,
    "елю": 4007,
    "йстер": 4008,
    "кий,  -а,  -е": 4009,
    "лай": 4010,
    "ль¬ \n": 4011,
    "льною": 4012,
    "лінії": 4013,
    "літин": 4014,
    "мене": 4015,
    "мний": 4016,
    "муні": 4017,
    "нка ": 4018,
    "ніше": 4019,
    "образ": 4020,
    "оказ": 4021,
    "омобі": 4022,
    "ороз": 4023,
    "прямова": 4024,
    "рба": 4025,
    "ристиян": 4026,
    "род.  -у": 4027,
    "ріа": 4028,
    "сили": 4029,
    "стал": 4030,
    "ство  ": 4031,
    "сть ": 4032,
    "ськом": 4033,
    "тові": 4034,
    "уаль": 4035,
    "франц. \n": 4036,
    "ху  ": 4037,
    "ці, ": 4038,
    "і ви": 4039,
    "ів,  ": 4040,
    "ід  час": 4041,
    " \nється": 4042,
    " ніч": 4043,
    " тра": 4044,
    "  місце": 4045,
    "  дуж": 4046,
    "  зол": 4047,
    "  золо": 4048,
    "  кр": 4049,
    "  люде": 4050,
    "  не¬": 4051,
    "  пози": 4052,
    "  спеціаль": 4053,
    "  чого-н. ": 4054,
    "  інд": 4055,
    "  інф": 4056,
    "  іншо": 4057,
    " прац": 4058,
    ",  для": 4059,
    ",  -а,  ч.,  кл.  -е  [лат.  ": 4060,
    ". не": 4061,
    "].  Роз": 4062,
    "¬ \nу  ": 4063,
    "ОСТ": 4064,
    "ЦИЙ,  -а,  -е": 4065,
    "арсь": 4066,
    "вважа": 4067,
    "вяще": 4068,
    "дают": 4069,
    "дають": 4070,
    "е,  ": 4071,
    "ейсь": 4072,
    "есь": 4073,
    "ехні": 4074,
    "зневажл.  ": 4075,
    "ирок": 4076,
    "коло  ": 4077,
    "ким-": 4078,
    "кла¬": 4079,
    "ленів": 4080,
    "ли¬ ": 4081,
    "ливо  ": 4082,
    "м  на": 4083,
    "мені": 4084,
    "міч": 4085,
    "місці": 4086,
    "нувати  ": 4087,
    "ніши": 4088,
    "оліт": 4089,
    "ом  і": 4090,
    "оніч": 4091,
    "пара": 4092,
    "пова": 4093,
    "потріб": 4094,
    "права": 4095,
    "рмін": 4096,
    "рувати": 4097,
    "реа": 4098,
    "розді": 4099,
    "у,  за": 4100,
    "цтв": 4101,
    "широ": 4102,
    "іяльність": 4103,
    "ієприкм.  пас.  до  ": 4104,
    "\nля": 4105,
    "\nмі": 4106,
    "\nякий  ": 4107,
    " громад": 4108,
    " рід": 4109,
    " \n\nР": 4110,
    "  внутріш": 4111,
    "  дослід": 4112,
    "  мов": 4113,
    "  небе": 4114,
    "  перев.  ": 4115,
    "  прилад": 4116,
    "  прин": 4117,
    " треба ": 4118,
    "(перев.  ": 4119,
    ",  ду": 4120,
    ",  по¬ ": 4121,
    ",  чого-": 4122,
    ",  що  на": 4123,
    ".  То": 4124,
    ".) ": 4125,
    "5  —": 4126,
    ";  мн.  ": 4127,
    "ансь": 4128,
    "атрі": 4129,
    "в  у  ": 4130,
    "вигляді  ": 4131,
    "витк": 4132,
    "від¬": 4133,
    "ге  —": 4134,
    "гене": 4135,
    "дава": 4136,
    "ега": 4137,
    "етри": 4138,
    "землі": 4139,
    "итання": 4140,
    "йця": 4141,
    "керів": 4142,
    "лода": 4143,
    "льну  ": 4144,
    "музичний  ": 4145,
    "місі": 4146,
    "нку  ": 4147,
    "ння, ": 4148,
    "ні, ": 4149,
    "ой,  хто": 4150,
    "перех.  і": 4151,
    "проти": 4152,
    "розу": 4153,
    "рхіт": 4154,
    "ріс": 4155,
    "складається  з": 4156,
    "строї": 4157,
    "участь": 4158,
    "ують  ": 4159,
    "у  то": 4160,
    "хворюва": 4161,
    "цько": 4162,
    "ці. ": 4163,
    "чувати  ": 4164,
    "через ": 4165,
    "ший  ": 4166,
    "ьому  ": 4167,
    "ілі": 4168,
    " стат": 4169,
    " \n\nК": 4170,
    " \n\nд": 4171,
    "  (прот.  ": 4172,
    "  бороть": 4173,
    "  виб": 4174,
    "  викона": 4175,
    "  всі": 4176,
    "  вуз": 4177,
    "  змін": 4178,
    "  ке": 4179,
    "  метале": 4180,
    "  нез": 4181,
    "  пан": 4182,
    "  пере¬ ": 4183,
    "  худож": 4184,
    "+  грец. ": 4185,
    ", коли ": 4186,
    ", про": 4187,
    ",  р": 4188,
    ",  -5Ш": 4189,
    ",  -а,  ч.  [нім.  ": 4190,
    ",  -а,  ч.,  кл.": 4191,
    ",  -ів,  мн": 4192,
    ",  ку": 4193,
    ". при": 4194,
    ".  Я": 4195,
    ".  2.  Г": 4196,
    ".  2.  розм.  ": 4197,
    ".  Див.  ": 4198,
    ".  Мі": 4199,
    ".  Рі": 4200,
    "====": 4201,
    "ІЯ,  -ї,  ж.  [грец.  ": 4202,
    "АЛІ": 4203,
    "ОФ": 4204,
    "будова": 4205,
    "банк": 4206,
    "вмі": 4207,
    "вно  ": 4208,
    "внутріш": 4209,
    "ворюється": 4210,
    "вип": 4211,
    "вити": 4212,
    "вніч": 4213,
    "віл": 4214,
    "готовлення": 4215,
    "диниця": 4216,
    "екцій": 4217,
    "ести": 4218,
    "й  о": 4219,
    "кві": 4220,
    "клас": 4221,
    "кінці": 4222,
    "лених": 4223,
    "лося ": 4224,
    "м  (": 4225,
    "м;  ~": 4226,
    "міжнарод": 4227,
    "ного \n\n": 4228,
    "нтро": 4229,
    "ньому  ": 4230,
    "на¬ \n": 4231,
    "ники ": 4232,
    "ний, \n": 4233,
    "ний,  -а,  -е. ": 4234,
    "ом;  ": 4235,
    "овища": 4236,
    "розм. \n": 4237,
    "рядо": 4238,
    "собливо": 4239,
    "скрав": 4240,
    "творюється": 4241,
    "ти  і": 4242,
    "ургі": 4243,
    "ував ": 4244,
    "фінан": 4245,
    "ється \n": 4246,
    "іга": 4247,
    "  .": 4248,
    "  голос": 4249,
    "  зображення": 4250,
    "  плат": 4251,
    "  хв": 4252,
    "  яким": 4253,
    "  і п": 4254,
    "  і  т.  ін.,  ": 4255,
    " не п": 4256,
    ",  -злю": 4257,
    ",  -и,  ж.": 4258,
    "-ці": 4259,
    ". \n1.  ": 4260,
    ". ня": 4261,
    ".  Який": 4262,
    ".  п": 4263,
    ".  1.  Який  стос": 4264,
    ".  [лат.  с": 4265,
    ".  Пас.  до  ": 4266,
    "].  Х": 4267,
    "].  1.  Р": 4268,
    "].  1.  У  ": 4269,
    "¬ ре": 4270,
    "¬ \n\nБ": 4271,
    "ОК,  -": 4272,
    "ПОР": 4273,
    "Те,  що  ": 4274,
    "в  (": 4275,
    "вування": 4276,
    "вувати  ": 4277,
    "ду,  ": 4278,
    "за  ": 4279,
    "значається": 4280,
    "ками ": 4281,
    "ків. ": 4282,
    "кій  міфології": 4283,
    "лаб": 4284,
    "льного": 4285,
    "ліч": 4286,
    "м  у  ": 4287,
    "мона": 4288,
    "на. ": 4289,
    "нем": 4290,
    "ни¬ \n": 4291,
    "ної  фо": 4292,
    "ної  фор": 4293,
    "ніг": 4294,
    "о на ": 4295,
    "о,  не": 4296,
    "олення": 4297,
    "опла": 4298,
    "остан": 4299,
    "пест": 4300,
    "поста": 4301,
    "рва": 4302,
    "релігій": 4303,
    "родо": 4304,
    "твари": 4305,
    "уст": 4306,
    "ульта": 4307,
    "фікс": 4308,
    "цтво": 4309,
    "цього ": 4310,
    "чиня": 4311,
    "ю;  -": 4312,
    "ґрунтується": 4313,
    " \nз  ": 4314,
    " Украї": 4315,
    " з  ": 4316,
    " коли": 4317,
    " щось": 4318,
    " \n\nБ": 4319,
    " \n\n\n\n1 ": 4320,
    "  вигляд": 4321,
    "  з  метою": 4322,
    "  захи": 4323,
    "  кров": 4324,
    "  прип": 4325,
    "  сіль": 4326,
    "  спору": 4327,
    "  такого  ": 4328,
    "  фу": 4329,
    "  якій  ": 4330,
    "  якоїсь": 4331,
    " не б": 4332,
    ",  -ї, ": 4333,
    ",  невідм.,  с.  [франц.  ": 4334,
    ", які ": 4335,
    ".  У  ": 4336,
    ".  т": 4337,
    ".  1.  Ві": 4338,
    ".  3.": 4339,
    ".  Ко": 4340,
    ".  Невели": 4341,
    "8с": 4342,
    ";  який": 4343,
    ";  ~ат": 4344,
    "^^": 4345,
    "¬ \nвід": 4346,
    "Який  має": 4347,
    "арів": 4348,
    "бори": 4349,
    "влений": 4350,
    "відки": 4351,
    "вітри": 4352,
    "гий  ": 4353,
    "готовля": 4354,
    "гаду": 4355,
    "дись": 4356,
    "дприєм": 4357,
    "жня": 4358,
    "жити": 4359,
    "з  додатка": 4360,
    "ез  додатка": 4361,
    "и, \n\n": 4362,
    "ий,  ": 4363,
    "ила ": 4364,
    "ичний": 4365,
    "й  с": 4366,
    "кислот": 4367,
    "ключ": 4368,
    "кім": 4369,
    "лися": 4370,
    "літератур": 4371,
    "можна": 4372,
    "магніт": 4373,
    "ми,  що  ": 4374,
    "но,  ": 4375,
    "обро": 4376,
    "ом,  ": 4377,
    "особливо": 4378,
    "ою \n\n": 4379,
    "порядкова": 4380,
    "прямо": 4381,
    "рій": 4382,
    "становлю": 4383,
    "стір": 4384,
    "сьог": 4385,
    "т  (": 4386,
    "ти \n\n": 4387,
    "територі": 4388,
    "тримання": 4389,
    "у на ": 4390,
    "ували ": 4391,
    "човина": 4392,
    "є \n\n": 4393,
    "ідприєм": 4394,
    "\n(про": 4395,
    "\nра": 4396,
    " пови": 4397,
    " свят": 4398,
    " який  ": 4399,
    " \n\nГ": 4400,
    "  П": 4401,
    "  вза": 4402,
    "  виді": 4403,
    "  кру": 4404,
    "  не¬ ": 4405,
    "  обе": 4406,
    "  організм": 4407,
    "  сх": 4408,
    "  спа": 4409,
    ",  [": 4410,
    ",  -их": 4411,
    ",  -и,  ж.,  дав.,  м.  -ці": 4412,
    ",  перех.": 4413,
    "-ний,  -а,  -е": 4414,
    "..  П": 4415,
    ". \n\nК": 4416,
    ". \n\nП": 4417,
    ".  1.  Ст": 4418,
    ".  2.  При": 4419,
    ".  [грец. ": 4420,
    ".  Те  саме": 4421,
    "...  +  ": 4422,
    "¬ мі": 4423,
    "¬ у  ": 4424,
    "»,  напр.:": 4425,
    "О...  [грец.  ": 4426,
    "а  — ": 4427,
    "бряд": 4428,
    "бстр": 4429,
    "буваю": 4430,
    "більшення": 4431,
    "вона ": 4432,
    "дав., ": 4433,
    "дав.,  м.": 4434,
    "дачі": 4435,
    "е  в": 4436,
    "е  по": 4437,
    "екст": 4438,
    "ивних": 4439,
    "иві": 4440,
    "кате": 4441,
    "кістю": 4442,
    "ли,": 4443,
    "ливі": 4444,
    "мець": 4445,
    "мка": 4446,
    "му  по": 4447,
    "нути  ": 4448,
    "неб": 4449,
    "обов’яз": 4450,
    "остре": 4451,
    "перен. ": 4452,
    "повідь": 4453,
    "при¬ ": 4454,
    "прод": 4455,
    "про¬ ": 4456,
    "руба": 4457,
    "р’я": 4458,
    "сподарсь": 4459,
    "стит": 4460,
    "ти  ко": 4461,
    "у  —": 4462,
    "чних ": 4463,
    "шки": 4464,
    "ю,  ч": 4465,
    "я,  с": 4466,
    "\nда": 4467,
    " Прикм.  до  ": 4468,
    "  С": 4469,
    "  1 ": 4470,
    "  ал": 4471,
    "  або  ч": 4472,
    "  пара": 4473,
    "  певну  ": 4474,
    "  певній  ": 4475,
    "  перев": 4476,
    "  пое": 4477,
    "  право  ": 4478,
    "  себ": 4479,
    "  спосо": 4480,
    "  суспіль": 4481,
    ")  —  ": 4482,
    ",  -а,  ч.,  КЛ.  -": 4483,
    ",  нез": 4484,
    ",  чого-н": 4485,
    "...  П": 4486,
    ". \n\nз": 4487,
    ";  -ь": 4488,
    "IX  ст": 4489,
    "{одн.  ": 4490,
    "¬ \nва": 4491,
    "Іван": 4492,
    "И,  -": 4493,
    "Частина": 4494,
    "ахів": 4495,
    "бМ": 4496,
    "бель": 4497,
    "бля": 4498,
    "бувати  ": 4499,
    "ворі": 4500,
    "використовується": 4501,
    "віте": 4502,
    "гри": 4503,
    "дня ": 4504,
    "дома": 4505,
    "да¬": 4506,
    "е  від": 4507,
    "еся": 4508,
    "ехніч": 4509,
    "имось": 4510,
    "книжн": 4511,
    "книжн.  ": 4512,
    "ла,": 4513,
    "люн": 4514,
    "ля ": 4515,
    "лікар": 4516,
    "мистецтва": 4517,
    "нез": 4518,
    "окій": 4519,
    "омуні": 4520,
    "оступ": 4521,
    "отовлений  ": 4522,
    "пи  ": 4523,
    "р,  -а,  ч": 4524,
    "с  ": 4525,
    "сього": 4526,
    "узика": 4527,
    "уре": 4528,
    "ціле": 4529,
    "чимось": 4530,
    "чний ": 4531,
    "ю  та": 4532,
    "яких ": 4533,
    "іли": 4534,
    "ґаніз": 4535,
    "рґаніз": 4536,
    " \nвання": 4537,
    " \nякий  ": 4538,
    " жи": 4539,
    " краї": 4540,
    " ля": 4541,
    "  взає": 4542,
    "  використа": 4543,
    "  земної": 4544,
    "  певним": 4545,
    "  пош": 4546,
    "  умов": 4547,
    "  усіх": 4548,
    "  чому": 4549,
    " 192": 4550,
    ", ма": 4551,
    ",  зап": 4552,
    ".  3.  В": 4553,
    ".  [а": 4554,
    "1.  2.  ": 4555,
    "].  Л": 4556,
    "].  1.  На": 4557,
    "АЦІЯ,  -ї,  ж": 4558,
    "АЦІЯ,  -ї,  ж.  [лат.  ": 4559,
    "Азії": 4560,
    "ЙНИЙ,  -а,  -е": 4561,
    "КА,  -и,  ж.,  дав.,  м.  -ці  [": 4562,
    "ОВИЙ,  -а,  -е": 4563,
    "аре": 4564,
    "волення": 4565,
    "вугі": 4566,
    "вяз": 4567,
    "військово": 4568,
    "го-н.,  ": 4569,
    "е  — \n": 4570,
    "и  з  ": 4571,
    "иви": 4572,
    "кового  ": 4573,
    "кит": 4574,
    "лат. \n": 4575,
    "мперат": 4576,
    "машин": 4577,
    "нога": 4578,
    "нців": 4579,
    "ний,  ": 4580,
    "никнення": 4581,
    "німа": 4582,
    "ній  Р": 4583,
    "орах": 4584,
    "рування": 4585,
    "рато": 4586,
    "ряч": 4587,
    "ріди": 4588,
    "сності": 4589,
    "снюється": 4590,
    "створ": 4591,
    "сторін": 4592,
    "торів": 4593,
    "ти  д": 4594,
    "тися, ": 4595,
    "цьом": 4596,
    "чні ": 4597,
    "шувати  ": 4598,
    "і т .  ін.)": 4599,
    " гі": 4600,
    " справ": 4601,
    " тися": 4602,
    " ється": 4603,
    "  або  в": 4604,
    "  зало": 4605,
    "  засіб": 4606,
    "  зер": 4607,
    "  об¬": 4608,
    "  оброб": 4609,
    "  обер": 4610,
    "  одяг": 4611,
    "  психі": 4612,
    "  поя": 4613,
    "  поса": 4614,
    "  при¬ \n": 4615,
    "  пун": 4616,
    "  пунк": 4617,
    "  підприєм": 4618,
    "  судна": 4619,
    "  тек": 4620,
    "  —  у": 4621,
    " перед ": 4622,
    ",  -аюся": 4623,
    ",  -уюся": 4624,
    ",  -я,  ч.,  кл.  -ю": 4625,
    ",  ру": 4626,
    ",  спец.  ": 4627,
    ".  Па": 4628,
    "...  +": 4629,
    "||А,  -и,  ж": 4630,
    "Захід": 4631,
    "УЗ": 4632,
    "УВАТИ,  -ую,  -уєш": 4633,
    "ЮВАТИ": 4634,
    "або  п": 4635,
    "біол": 4636,
    "в  і": 4637,
    "вжи": 4638,
    "вітер": 4639,
    "дрів": 4640,
    "е не": 4641,
    "жіння": 4642,
    "значен": 4643,
    "иця": 4644,
    "ична": 4645,
    "й  і": 4646,
    "ку;  -": 4647,
    "капіта": 4648,
    "кла¬ ": 4649,
    "корис": 4650,
    "ку  т": 4651,
    "лами": 4652,
    "млення": 4653,
    "млю": 4654,
    "маток": 4655,
    "міс¬": 4656,
    "нда": 4657,
    "нкції": 4658,
    "нство": 4659,
    "нія": 4660,
    "о\n\n": 4661,
    "овник": 4662,
    "окри": 4663,
    "ої  в": 4664,
    "обітник": 4665,
    "п  ": 4666,
    "побі": 4667,
    "поль": 4668,
    "під  час": 4669,
    "перен.  В": 4670,
    "ради": 4671,
    "рог": 4672,
    "рою": 4673,
    "розмір": 4674,
    "розчи": 4675,
    "сма": 4676,
    "стори": 4677,
    "тики": 4678,
    "тись": 4679,
    "ту,  ": 4680,
    "у,  на": 4681,
    "івлі": 4682,
    "  [грец.  ": 4683,
    "  ант": 4684,
    "  взаєм": 4685,
    "  від¬ ": 4686,
    "  голов": 4687,
    "  дух": 4688,
    "  дуже": 4689,
    "  засобі": 4690,
    "  зі ": 4691,
    "  кож": 4692,
    "  коло": 4693,
    "  невели": 4694,
    "  основі": 4695,
    "  посу": 4696,
    "  продукт": 4697,
    "  справи": 4698,
    "  систем": 4699,
    "  та  ін. ": 4700,
    "  той": 4701,
    "  шкі": 4702,
    "  шт": 4703,
    "  явищ": 4704,
    "  і д": 4705,
    " багато": 4706,
    " нап": 4707,
    ",  ал": 4708,
    ",  спе": 4709,
    ",  що  у": 4710,
    "-а,  ч": 4711,
    ".  Ц": 4712,
    ".  2.  Ро": 4713,
    "8)  —": 4714,
    ";  2)": 4715,
    ";  -н": 4716,
    "].  Н": 4717,
    "].  1.  К": 4718,
    "¬ ма": 4719,
    "¬ при": 4720,
    "АНД": 4721,
    "ЕФ": 4722,
    "Ль": 4723,
    "Склад": 4724,
    "від¬ ": 4725,
    "га¬": 4726,
    "грам.  ": 4727,
    "дних": 4728,
    "е  — ": 4729,
    "еол.  ": 4730,
    "ермін": 4731,
    "еханіз": 4732,
    "ереж": 4733,
    "заліз": 4734,
    "и  про": 4735,
    "и,  -і": 4736,
    "к,  -а,  ч": 4737,
    "кни": 4738,
    "кров": 4739,
    "можна ": 4740,
    "мовах": 4741,
    "не  мож": 4742,
    "ництві": 4743,
    "ного  за": 4744,
    "оволення": 4745,
    "доволення": 4746,
    "ових  ": 4747,
    "па  ": 4748,
    "пільно": 4749,
    "плян": 4750,
    "рант": 4751,
    "робле": 4752,
    "рос¬": 4753,
    "скона": 4754,
    "тири": 4755,
    "у,  напр.:": 4756,
    "у,  п": 4757,
    "удження": 4758,
    "уже  ": 4759,
    "уста": 4760,
    "ука  про": 4761,
    "фір": 4762,
    "хім.  ": 4763,
    "чині": 4764,
    "чувати": 4765,
    "шування": 4766,
    "ша ": 4767,
    "ширення": 4768,
    "юватися": 4769,
    "іда": 4770,
    "\nПри": 4771,
    " .  ": 4772,
    " о  ": 4773,
    " склад": 4774,
    "  будь-я": 4775,
    "  ек": 4776,
    "  завда": 4777,
    "  зале": 4778,
    "  звуки": 4779,
    "  мистецт": 4780,
    "  нерв": 4781,
    "  п.  —": 4782,
    "  прац": 4783,
    "  свят": 4784,
    "  територі": 4785,
    "  у  д": 4786,
    "  характ": 4787,
    "  часі": 4788,
    "  чор": 4789,
    " наши": 4790,
    " не бу": 4791,
    " роботи": 4792,
    ",  -а,  ч. ": 4793,
    ",  -у,": 4794,
    ",  пов": 4795,
    ". від": 4796,
    ".  Од": 4797,
    ".  Пе": 4798,
    ".  Прикм.  до \n": 4799,
    "192": 4800,
    ";  -ї": 4801,
    "¬ \nдо  ": 4802,
    "ани": 4803,
    "аєш": 4804,
    "була ": 4805,
    "бай": 4806,
    "в;  -": 4807,
    "вигу": 4808,
    "вито": 4809,
    "від  ": 4810,
    "вій ": 4811,
    "гам": 4812,
    "дного  ": 4813,
    "ет.  ": 4814,
    "зення": 4815,
    "ин  із": 4816,
    "к  —": 4817,
    "кам’я": 4818,
    "культу": 4819,
    "кіс": 4820,
    "ложення": 4821,
    "ла¬": 4822,
    "лаш": 4823,
    "ламе": 4824,
    "ламен": 4825,
    "ластивий  ": 4826,
    "льна  ": 4827,
    "лії": 4828,
    "ми. \n\n": 4829,
    "маз": 4830,
    "магання": 4831,
    "міс¬ ": 4832,
    "о роз": 4833,
    "о,  с": 4834,
    "ого-н.,  ": 4835,
    "орґаніз": 4836,
    "прац": 4837,
    "рив": 4838,
    "рішення": 4839,
    "става": 4840,
    "ступін": 4841,
    "ського господарства": 4842,
    "ти. \n\n": 4843,
    "ти;  -": 4844,
    "тн.  ": 4845,
    "ти  когось": 4846,
    "у,  с": 4847,
    "у  знач,  прикм.  ": 4848,
    "ції.": 4849,
    "шлюб": 4850,
    "ький  ": 4851,
    "ьої  ": 4852,
    "ньої  ": 4853,
    "ін.  до  ": 4854,
    "\nПрикм.  до  ": 4855,
    "\nного  ": 4856,
    "\nтися": 4857,
    "\nці": 4858,
    " \nля": 4859,
    " \nри": 4860,
    " курі": 4861,
    " літ": 4862,
    "     ": 4863,
    "  або  по": 4864,
    "  велик": 4865,
    "  доку": 4866,
    "  знак": 4867,
    "  золот": 4868,
    "  людина": 4869,
    "  людей": 4870,
    "  паль": 4871,
    "  пріз": 4872,
    "  постій": 4873,
    "  сц": 4874,
    "  та  ін.  ": 4875,
    "  чолові": 4876,
    " наші": 4877,
    " при ": 4878,
    ", 2.  ": 4879,
    ",  -а,  ч.,  кл. ": 4880,
    ",  -у,  ч. ": 4881,
    ",  вигот": 4882,
    ",  вигото": 4883,
    ". ка": 4884,
    ". про": 4885,
    ". \n\nс": 4886,
    ".  2.  перем.  ": 4887,
    ";  ~ь": 4888,
    ";  ко": 4889,
    "XIX  ст": 4890,
    "].  Ст": 4891,
    "Англі": 4892,
    "АТОР": 4893,
    "ВО,  -а,  с": 4894,
    "УЛІ": 4895,
    "атра": 4896,
    "ає  ": 4897,
    "бка": 4898,
    "боротьб": 4899,
    "вника": 4900,
    "ги,  ": 4901,
    "грес": 4902,
    "давання": 4903,
    "ебільш": 4904,
    "евий  ": 4905,
    "ека": 4906,
    "ерша  частина  складних  слів": 4907,
    "им  ": 4908,
    "ина  ": 4909,
    "ичні": 4910,
    "йний": 4911,
    "кин": 4912,
    "ла, ": 4913,
    "лаго": 4914,
    "ли, ": 4915,
    "майстер": 4916,
    "мірюва": 4917,
    "н,  ": 4918,
    "нки ": 4919,
    "нувати": 4920,
    "нформа": 4921,
    "на  людина": 4922,
    "нед": 4923,
    "ни, ": 4924,
    "никає": 4925,
    "нських": 4926,
    "ні п": 4927,
    "рму  ": 4928,
    "роблений  ": 4929,
    "спільно": 4930,
    "свідч": 4931,
    "слідовник": 4932,
    "стар": 4933,
    "створю": 4934,
    "сько-": 4935,
    "сяг": 4936,
    "та  ін": 4937,
    "тропі": 4938,
    "ублі": 4939,
    "уроч": 4940,
    "фізич": 4941,
    "філософі": 4942,
    "цьому": 4943,
    "цілк": 4944,
    "і т .  ін.": 4945,
    "\nперех": 4946,
    " \nго  ": 4947,
    "  ка": 4948,
    "  гор": 4949,
    "  доро": 4950,
    "  звуків": 4951,
    "  коро": 4952,
    "  кого  —": 4953,
    "  спів": 4954,
    "  якої-н.  ": 4955,
    " лиш": 4956,
    " хлібозаготівель": 4957,
    ",  -аєшся": 4958,
    ",  ви¬": 4959,
    ".  2.  Ві": 4960,
    ".  Спо": 4961,
    ". На ": 4962,
    ".,  заст": 4963,
    ".,  кл.  -о": 4964,
    "¬ \n\nД": 4965,
    "Єл": 4966,
    "ЕСТ": 4967,
    "ИК,  -а,  ч": 4968,
    "НИЙ": 4969,
    "ОЛІ": 4970,
    "Те  саме": 4971,
    "УШ": 4972,
    "анат": 4973,
    "ати,  ": 4974,
    "бать": 4975,
    "блис": 4976,
    "від ": 4977,
    "г  —  ": 4978,
    "два": 4979,
    "дав.,  м.  -с": 4980,
    "е  ви": 4981,
    "е  за": 4982,
    "езення": 4983,
    "ема": 4984,
    "звичайн": 4985,
    "и  при": 4986,
    "ивний  ": 4987,
    "нства": 4988,
    "на  на": 4989,
    "ній \n": 4990,
    "одо  ": 4991,
    "оміж": 4992,
    "очина": 4993,
    "орівн": 4994,
    "питання": 4995,
    "прич": 4996,
    "р,  -а,  ч.,  кл.  -е": 4997,
    "рушення": 4998,
    "разит": 4999,
    "риф": 5000,
    "роста": 5001,
    "розміщ": 5002,
    "рхіте": 5003,
    "рхітек": 5004,
    "різа": 5005,
    "селі": 5006,
    "становл": 5007,
    "стін": 5008,
    "ську": 5009,
    "ському": 5010,
    "ти,  -н": 5011,
    "фери": 5012,
    "хатися": 5013,
    "хи  ": 5014,
    "ціло": 5015,
    "ція ": 5016,
    "чу,  -": 5017,
    "чування": 5018,
    "шар": 5019,
    "ю;  ": 5020,
    "ють  на": 5021,
    "юрид": 5022,
    "являє": 5023,
    "європ": 5024,
    "ї  на": 5025,
    "ї  тканини": 5026,
    " воро": 5027,
    "  1)": 5028,
    "  діа": 5029,
    "  ел": 5030,
    "  запис": 5031,
    "  комах": 5032,
    "  кош": 5033,
    "  кут": 5034,
    "  механіз": 5035,
    "  організмів": 5036,
    "  перш": 5037,
    "  поверхн": 5038,
    "  прак": 5039,
    "  пункт": 5040,
    "  під¬": 5041,
    "  хво": 5042,
    "  хвороб": 5043,
    "  частина  ": 5044,
    "  і р о": 5045,
    "  інформа": 5046,
    " мілі": 5047,
    " неб": 5048,
    ", від": 5049,
    ",  ве": 5050,
    ",  кон": 5051,
    ",  фа": 5052,
    ",  яка ": 5053,
    ". ма": 5054,
    ".  1.  Від": 5055,
    ";  ~й": 5056,
    "].  У  ": 5057,
    "¬ або  ": 5058,
    "¬ ли": 5059,
    "І8  —  ": 5060,
    "АШ": 5061,
    "А,  -и,  ж.  [грец.  ": 5062,
    "И,  -у,  ч": 5063,
    "УЛЬ": 5064,
    "Форма": 5065,
    "а\n\n": 5066,
    "ації ": 5067,
    "багато  ": 5068,
    "вни": 5069,
    "ва¬ \n": 5070,
    "виш": 5071,
    "вий ": 5072,
    "внаслідок": 5073,
    "в’яниста  росли": 5074,
    "держави": 5075,
    "емля": 5076,
    "етн.  ": 5077,
    "е  <": 5078,
    "ереження": 5079,
    "жне": 5080,
    "жні": 5081,
    "жуватися": 5082,
    "зна¬ \n": 5083,
    "ивний": 5084,
    "исту  ": 5085,
    "йчний,  -а,  -е": 5086,
    "ку,  ч": 5087,
    "ки  ": 5088,
    "кий \n": 5089,
    "кольору": 5090,
    "лева": 5091,
    "лки": 5092,
    "люю": 5093,
    "метри": 5094,
    "мого  ": 5095,
    "му \n\n": 5096,
    "матеріалів": 5097,
    "нської": 5098,
    "на  в": 5099,
    "ний  у  ": 5100,
    "ник  ": 5101,
    "нико": 5102,
    "нням ": 5103,
    "ність ": 5104,
    "о8  —  ": 5105,
    "овня": 5106,
    "омати": 5107,
    "оп  —  ": 5108,
    "ой,  хто ": 5109,
    "онах": 5110,
    "по  ": 5111,
    "поміж": 5112,
    "п’я": 5113,
    "ративн": 5114,
    "розвитку  ": 5115,
    "свідом": 5116,
    "служить": 5117,
    "становлення": 5118,
    "стей": 5119,
    "ти  о": 5120,
    "у  про": 5121,
    "удна": 5122,
    "хідн": 5123,
    "частіш": 5124,
    "і  в": 5125,
    " \nмі": 5126,
    " бра": 5127,
    " гар": 5128,
    "  або \n\n": 5129,
    "  від ": 5130,
    "  нео": 5131,
    "  обм": 5132,
    "  об¬ ": 5133,
    "  порожни": 5134,
    "  прис": 5135,
    "  складі": 5136,
    "  служб": 5137,
    "  теп": 5138,
    "  тис": 5139,
    "  явища": 5140,
    "  і т.  і": 5141,
    "  інструмент": 5142,
    ",  бо": 5143,
    ",  щоб": 5144,
    ",  що  при": 5145,
    ",  яко": 5146,
    ",  який  ви": 5147,
    "-пест": 5148,
    ". <|EOS|> ": 5149,
    ". \n\nд": 5150,
    ".  Е": 5151,
    ".  1. Д": 5152,
    ".  [лат.  і": 5153,
    ";  -овий,  -а,  -е": 5154,
    "¬ \n\nС": 5155,
    "АТИ,  -аю,  -аєш": 5156,
    "ворів": 5157,
    "вплив": 5158,
    "виток": 5159,
    "відд": 5160,
    "дитися": 5161,
    "даль": 5162,
    "да¬ ": 5163,
    "з  —": 5164,
    "зувати": 5165,
    "йних": 5166,
    "йснюва": 5167,
    "ку;  ": 5168,
    "кіп": 5169,
    "л.  «": 5170,
    "ливи": 5171,
    "лис": 5172,
    "льної  ": 5173,
    "мних": 5174,
    "мінера": 5175,
    "нижн": 5176,
    "ний  к": 5177,
    "но  п": 5178,
    "ні. ": 5179,
    "ожа": 5180,
    "ован": 5181,
    "пини": 5182,
    "покій": 5183,
    "рет": 5184,
    "рі ": 5185,
    "ріга": 5186,
    "рії": 5187,
    "рівнова": 5188,
    "різно": 5189,
    "складається": 5190,
    "ставлення": 5191,
    "структ": 5192,
    "того  ": 5193,
    "тографі": 5194,
    "ти,  ви": 5195,
    "ти,  за": 5196,
    "у; \n\n": 5197,
    "фінанс": 5198,
    "х  (": 5199,
    "ходу  ": 5200,
    "цілко": 5201,
    "цілком": 5202,
    "щина": 5203,
    "явища": 5204,
    "ї  або  ": 5205,
    "\nві": 5206,
    "\nзнач": 5207,
    " \n(про": 5208,
    " \nра": 5209,
    " (про": 5210,
    " мене": 5211,
    " товари": 5212,
    "  еле": 5213,
    "  зм": 5214,
    "  заб": 5215,
    "  клас": 5216,
    "  колі": 5217,
    "  країни": 5218,
    "  мона": 5219,
    "  оз": 5220,
    "  пом": 5221,
    "  принц": 5222,
    "  пух": 5223,
    "  сполу": 5224,
    "  якого-н.  ": 5225,
    "  і  ви": 5226,
    "  і т .  ін.  ": 5227,
    "  із \n": 5228,
    ", \nви": 5229,
    ",  си": 5230,
    "-увати": 5231,
    ".\nНа": 5232,
    ".  (": 5233,
    ".  3. ": 5234,
    ".  [франц.  с": 5235,
    ".  [іс": 5236,
    ".  [ісп": 5237,
    ".  І.": 5238,
    ".  Ме": 5239,
    "08  —  ": 5240,
    "8Є": 5241,
    "].  Сп": 5242,
    "¬ ва": 5243,
    "¬ до  ": 5244,
    "¬ ка": 5245,
    "Землі": 5246,
    "Ьаг": 5247,
    "ально  ": 5248,
    "аря": 5249,
    "аліст": 5250,
    "багатьох": 5251,
    "бід": 5252,
    "більше": 5253,
    "воля": 5254,
    "вору  ": 5255,
    "вністю": 5256,
    "гляда": 5257,
    "доклад": 5258,
    "діяльність": 5259,
    "даних": 5260,
    "дано": 5261,
    "для  ": 5262,
    "ених  ": 5263,
    "илін": 5264,
    "ицині": 5265,
    "йняти": 5266,
    "ку.  2.  ": 5267,
    "казує": 5268,
    "кими ": 5269,
    "лада": 5270,
    "людин": 5271,
    "мід": 5272,
    "нне": 5273,
    "нного  ": 5274,
    "нталь": 5275,
    "ний  до  ": 5276,
    "но  за": 5277,
    "оби  ": 5278,
    "овних": 5279,
    "овувати": 5280,
    "олова": 5281,
    "олода": 5282,
    "ом. \n\n": 5283,
    "отрий  ": 5284,
    "рхня": 5285,
    "рхні": 5286,
    "ерхні": 5287,
    "рече": 5288,
    "рош": 5289,
    "робить": 5290,
    "у  і": 5291,
    "уся,  -": 5292,
    "ферен": 5293,
    "ч.,  кл.  -": 5294,
    "шкіри": 5295,
    "ється  в": 5296,
    "ійснюва": 5297,
    "’явля": 5298,
    " \nперех": 5299,
    " ла": 5300,
    "  . ": 5301,
    "  виробів": 5302,
    "  двома": 5303,
    "  діля": 5304,
    "  захо": 5305,
    "  захворювання": 5306,
    "  крові": 5307,
    "  коли": 5308,
    "  ле": 5309,
    "  п’": 5310,
    "  пев¬": 5311,
    "  певні": 5312,
    "  пиш": 5313,
    "  поняття": 5314,
    "  порід": 5315,
    "  правосла": 5316,
    "  під¬ ": 5317,
    "  син": 5318,
    "  система": 5319,
    "  тов": 5320,
    "  часів": 5321,
    "  який  ": 5322,
    "  якої  ": 5323,
    " велик": 5324,
    "#11": 5325,
    ",  -ає": 5326,
    ",  -а,  ч.,  кл.  -у,  ": 5327,
    ",  -уєщ": 5328,
    ",  -ї,  Ж": 5329,
    ",  ми": 5330,
    ",  мед": 5331,
    ",  мет": 5332,
    ",  пра": 5333,
    ",  чим": 5334,
    ",  чого-н.": 5335,
    "- \n\n\n\n1 ": 5336,
    ".  Людина": 5337,
    ".  з": 5338,
    ".  1.  Не": 5339,
    ".  2.  п": 5340,
    ".  3.  З": 5341,
    ".  [т": 5342,
    ".  Лі": 5343,
    ".  Части": 5344,
    ":  ": 5345,
    "].  А": 5346,
    "¬ \nпро": 5347,
    "¬ \n\nГ": 5348,
    "АНИЙ,  -а,  -е": 5349,
    "ЙСТ": 5350,
    "Україні": 5351,
    "Ц,  -у,  ч.  [франц.  ": 5352,
    "або  з": 5353,
    "бні": 5354,
    "брат": 5355,
    "влена": 5356,
    "воря": 5357,
    "вантажі": 5358,
    "відч": 5359,
    "відно": 5360,
    "голь": 5361,
    "готовлений  ": 5362,
    "гран": 5363,
    "гай": 5364,
    "гідро": 5365,
    "дка": 5366,
    "давати": 5367,
    "давніх": 5368,
    "давньому  ": 5369,
    "егли": 5370,
    "ерсь": 5371,
    "ерхня": 5372,
    "зи  ": 5373,
    "звичайно": 5374,
    "илі": 5375,
    "иста": 5376,
    "и,  що  ": 5377,
    "исьмен": 5378,
    "кви": 5379,
    "комуні": 5380,
    "корот": 5381,
    "ками  ": 5382,
    "кий,": 5383,
    "ким  ": 5384,
    "кінц": 5385,
    "ло,  ": 5386,
    "лах": 5387,
    "льну": 5388,
    "льно ": 5389,
    "ліп": 5390,
    "мні": 5391,
    "му;  ": 5392,
    "міну  ": 5393,
    "міра": 5394,
    "н. \n\n": 5395,
    "напі": 5396,
    "низь": 5397,
    "ний,  -а, ": 5398,
    "ний,  не": 5399,
    "ним \n": 5400,
    "ння. ": 5401,
    "няз": 5402,
    "ні в": 5403,
    "ній  Ро": 5404,
    "о,  на": 5405,
    "оволь": 5406,
    "одержа": 5407,
    "онка": 5408,
    "орму  ": 5409,
    "особа": 5410,
    "оцін": 5411,
    "перех.": 5412,
    "прий": 5413,
    "рства": 5414,
    "родини ": 5415,
    "сний  ": 5416,
    "стосування": 5417,
    "ступінь": 5418,
    "тації": 5419,
    "томобі": 5420,
    "ти  ч": 5421,
    "триму": 5422,
    "у ви": 5423,
    "цтва": 5424,
    "чну  ": 5425,
    "ь  за": 5426,
    "я,  ": 5427,
    "і,  ж": 5428,
    "івніч": 5429,
    "’,  ~": 5430,
    "•  1 ": 5431,
    "\nність": 5432,
    " \nПрикм.  до  ": 5433,
    " кра": 5434,
    " \n\nо": 5435,
    "  (напр.,  ": 5436,
    "  анти": 5437,
    "  бор": 5438,
    "  де¬": 5439,
    "  зі  ": 5440,
    "  клітин": 5441,
    "  книж": 5442,
    "  монет": 5443,
    "  пам’ят": 5444,
    "  погляд": 5445,
    "  пох": 5446,
    "  почат": 5447,
    "  принци": 5448,
    "  п’є": 5449,
    "  собі": 5450,
    "  спе": 5451,
    "  та  ін.)": 5452,
    "  у  т": 5453,
    "  черв": 5454,
    "  і з": 5455,
    "  інт": 5456,
    " прис": 5457,
    ",  -а,  -": 5458,
    ",  зв": 5459,
    ",  пл": 5460,
    ",  под": 5461,
    ",  спец": 5462,
    "-  ": 5463,
    "-и,  ж.,  дав.,  м.  -ці": 5464,
    ". \n\nп": 5465,
    ".  Який ": 5466,
    ".  1.  заст": 5467,
    ".  2.  перен. ": 5468,
    ".  Су": 5469,
    ".  Сукупність": 5470,
    ".  і ": 5471,
    ".,  іст": 5472,
    "100": 5473,
    "7  •  ": 5474,
    ";  -ат": 5475,
    "].  1.  Г": 5476,
    "¬ \nабо  ": 5477,
    "¬ \n\nК": 5478,
    "РАФ": 5479,
    "УХ": 5480,
    "Ужив": 5481,
    "а  в": 5482,
    "ака": 5483,
    "були": 5484,
    "бак": 5485,
    "ву,  ": 5486,
    "вам": 5487,
    "вищення": 5488,
    "го-н.;  ": 5489,
    "грама": 5490,
    "дав.,  м. ": 5491,
    "дорог": 5492,
    "е  не": 5493,
    "етрі": 5494,
    "еякі": 5495,
    "женні": 5496,
    "жінка": 5497,
    "живоп": 5498,
    "ит  —": 5499,
    "кліт": 5500,
    "кладі": 5501,
    "критий  ": 5502,
    "ленні": 5503,
    "лучення": 5504,
    "ла  ": 5505,
    "лася ": 5506,
    "лінгв.  ": 5507,
    "механіз": 5508,
    "ма¬ \n": 5509,
    "нтерес": 5510,
    "нювати": 5511,
    "нів.": 5512,
    "ній  о": 5513,
    "ність,": 5514,
    "о від": 5515,
    "оги  ": 5516,
    "олови": 5517,
    "остро": 5518,
    "от.  ": 5519,
    "охід": 5520,
    "оцвіт": 5521,
    "пога": 5522,
    "пу  ": 5523,
    "підприєм": 5524,
    "перев.  мн.  ": 5525,
    "пром": 5526,
    "промін": 5527,
    "рного  ": 5528,
    "рас": 5529,
    "ративно": 5530,
    "рити": 5531,
    "роботи": 5532,
    "розви": 5533,
    "рос¬ ": 5534,
    "річки": 5535,
    "соці": 5536,
    "ство ": 5537,
    "стово": 5538,
    "тільки  док": 5539,
    "удови": 5540,
    "ультат": 5541,
    "філь": 5542,
    "х,  ": 5543,
    "характеризується": 5544,
    "хвороба": 5545,
    "ця,  ч.,  кл.  -": 5546,
    "ційн": 5547,
    "чений  ": 5548,
    "членів": 5549,
    "чна ": 5550,
    "частини": 5551,
    "ю  на": 5552,
    "якогось": 5553,
    "і  —  ": 5554,
    "ієприк": 5555,
    "їхні": 5556,
    "\n  ": 5557,
    "\n   ": 5558,
    " \nці": 5559,
    " \n\nТ": 5560,
    " \n\nк": 5561,
    "  різ": 5562,
    "  або  д": 5563,
    "  велич": 5564,
    "  запах": 5565,
    "  коле": 5566,
    "  людин": 5567,
    "  окреми": 5568,
    "  отр": 5569,
    "  отру": 5570,
    "  поб": 5571,
    "  пото": 5572,
    "  сер": 5573,
    "  судн": 5574,
    "  ут": 5575,
    " народ": 5576,
    " наших": 5577,
    " прий": 5578,
    " проти ": 5579,
    ",  -з^єш": 5580,
    ",  -ого,  ч": 5581,
    ",  -уюся,  -уєшся": 5582,
    ",  буд": 5583,
    ",  напр.: \n": 5584,
    ",  оп": 5585,
    ",  що  ї": 5586,
    "-аєш": 5587,
    ".  д": 5588,
    ".  2.  м": 5589,
    ".  2.  пе": 5590,
    ".,  кл.  -о,  дав.,  м.  -ці": 5591,
    ";  -ти": 5592,
    "].  Мі": 5593,
    "ЇЦ": 5594,
    "А||": 5595,
    "АНС": 5596,
    "ЕБ": 5597,
    "ННЯ,  -я,  с": 5598,
    "Над": 5599,
    "О,  невідм.,  с": 5600,
    "агаторі": 5601,
    "б  —": 5602,
    "бГ": 5603,
    "баз": 5604,
    "валют": 5605,
    "геол.  ": 5606,
    "гадує": 5607,
    "доволь": 5608,
    "дав.,  м.  -сі": 5609,
    "давньому  Римі": 5610,
    "еталь": 5611,
    "етро": 5612,
    "живу": 5613,
    "звича": 5614,
    "йтися": 5615,
    "к.  с": 5616,
    "дк.  с": 5617,
    "кусь": 5618,
    "ких \n": 5619,
    "лець": 5620,
    "л.  до  ": 5621,
    "логія": 5622,
    "льно-": 5623,
    "має  ф": 5624,
    "міститься": 5625,
    "н\n\n": 5626,
    "нкці": 5627,
    "ногра": 5628,
    "нується": 5629,
    "ней": 5630,
    "нити": 5631,
    "ньовічч": 5632,
    "обряд": 5633,
    "ог  —": 5634,
    "ою  або  ": 5635,
    "оманіт": 5636,
    "омів": 5637,
    "пані": 5638,
    "піва": 5639,
    "рського  ": 5640,
    "релігі": 5641,
    "скраво": 5642,
    "сталі": 5643,
    "сторон": 5644,
    "стрим": 5645,
    "ською": 5646,
    "татися": 5647,
    "торо": 5648,
    "тися.": 5649,
    "удк.  с": 5650,
    "укова": 5651,
    "у  вигляді": 5652,
    "фера": 5653,
    "х;  -": 5654,
    "хиля": 5655,
    "хлі": 5656,
    "хворювання": 5657,
    "цієї  рослини": 5658,
    "шан": 5659,
    "щини": 5660,
    "ьо  ": 5661,
    "якусь": 5662,
    "єднання": 5663,
    "ілення": 5664,
    "інформа": 5665,
    "ії  ": 5666,
    "ї  та  ": 5667,
    "’яз": 5668,
    " \nда": 5669,
    " \nність": 5670,
    " ного  ": 5671,
    "  (за": 5672,
    "  (про ": 5673,
    "  (про  ": 5674,
    "  в  од": 5675,
    "  виконання": 5676,
    "  вог": 5677,
    "  дерев’я": 5678,
    "  коль": 5679,
    "  освіт": 5680,
    "  проз": 5681,
    "  пев¬ ": 5682,
    "  приб": 5683,
    "  птах": 5684,
    "  само": 5685,
    "  спи": 5686,
    "  техні": 5687,
    "  хар": 5688,
    "  яког": 5689,
    "  інщ": 5690,
    " більше": 5691,
    " май": 5692,
    " не в": 5693,
    ",  за¬": 5694,
    ",  че": 5695,
    ",  що  є": 5696,
    ". мі": 5697,
    ". \n\nГ": 5698,
    ". \n\nТ": 5699,
    ".  1.  іст": 5700,
    ".  2.  Не": 5701,
    ".  І. ": 5702,
    ".  і  ж": 5703,
    "191": 5704,
    "3  •  ": 5705,
    ";  ~ія,  -ї,  ж": 5706,
    "Єле": 5707,
    "А,  -": 5708,
    "Афри": 5709,
    "А,  -и.  Ж": 5710,
    "ИГ": 5711,
    "КОР": 5712,
    "Серед": 5713,
    "Ц,  -а,  ч.,  кл.  -е  [": 5714,
    "Щось": 5715,
    "Я,  -ї,  ж": 5716,
    "ама": 5717,
    "ах  ": 5718,
    "аці": 5719,
    "аііо  —": 5720,
    "бний": 5721,
    "барвлення": 5722,
    "блиск": 5723,
    "бій": 5724,
    "ве  ": 5725,
    "вому  ": 5726,
    "вро": 5727,
    "ван¬": 5728,
    "віст": 5729,
    "д.  -": 5730,
    "джу,  -": 5731,
    "доба": 5732,
    "дав ": 5733,
    "еви": 5734,
    "есь ": 5735,
    "енергії": 5736,
    "жат": 5737,
    "жаю": 5738,
    "жерел": 5739,
    "живи": 5740,
    "живопи": 5741,
    "и\n\n": 5742,
    "ив  —": 5743,
    "кину": 5744,
    "лума": 5745,
    "ла¬ ": 5746,
    "лиця": 5747,
    "лінія": 5748,
    "мель": 5749,
    "морсь": 5750,
    "ми  то": 5751,
    "міння": 5752,
    "місцевості": 5753,
    "нт  (": 5754,
    "ент  (": 5755,
    "ньо  ": 5756,
    "нах  ": 5757,
    "нею": 5758,
    "нський  ": 5759,
    "ні¬": 5760,
    "ніс": 5761,
    "овувати  ": 5762,
    "ого,  ч": 5763,
    "ого-н.;  ": 5764,
    "олів": 5765,
    "онця": 5766,
    "оопера": 5767,
    "коопера": 5768,
    "освід": 5769,
    "повне": 5770,
    "пома": 5771,
    "представ": 5772,
    "перер": 5773,
    "прис": 5774,
    "ркві": 5775,
    "рми  ": 5776,
    "рець": 5777,
    "род.": 5778,
    "ропі": 5779,
    "ряді": 5780,
    "сити  ": 5781,
    "ст,  -а,  ч.,  кл.  -е": 5782,
    "стосовую": 5783,
    "ські": 5784,
    "техніч": 5785,
    "у¬ \n\n": 5786,
    "х  і": 5787,
    "чна  тра": 5788,
    "щодо  ": 5789,
    "ю  і": 5790,
    "івля": 5791,
    "інтерес": 5792,
    "ї  особ": 5793,
    "\nрозм.  ": 5794,
    " вій": 5795,
    " лення": 5796,
    " через ": 5797,
    " чогось": 5798,
    "  глиб": 5799,
    "  до  о": 5800,
    "  комусь": 5801,
    "  ме¬": 5802,
    "  наук": 5803,
    "  нес": 5804,
    "  представ": 5805,
    "  поперед": 5806,
    "  приг": 5807,
    "  споруда": 5808,
    "  способ": 5809,
    "  тощо. \n": 5810,
    "  труб": 5811,
    "  чого-н.;  ": 5812,
    "  і  т": 5813,
    " наз": 5814,
    " над ": 5815,
    " нашог": 5816,
    "(про  ": 5817,
    ",  хо": 5818,
    ",  яка  ": 5819,
    "-н.  2.  ": 5820,
    "-я,  с": 5821,
    ". \nне": 5822,
    ". При": 5823,
    ". ли": 5824,
    ".  1.  Зм": 5825,
    ".  1.  Зме": 5826,
    ".  1.  Змен": 5827,
    ".  2.  перен.  В": 5828,
    ".  Який  стос,": 5829,
    "08  —  вчення": 5830,
    "1  •  ": 5831,
    "9  •  ": 5832,
    ";  -увати,": 5833,
    ";  -увати,  -ую,  -уєш": 5834,
    "].  Ві": 5835,
    "ВЕР": 5836,
    "ИД": 5837,
    "ИСТ": 5838,
    "Й,  -ю,  ч": 5839,
    "Ь,  -я,  ч": 5840,
    "аймається": 5841,
    "али ": 5842,
    "асто": 5843,
    "або  с": 5844,
    "бот.  ": 5845,
    "броб": 5846,
    "вга": 5847,
    "верхні": 5848,
    "викона": 5849,
    "влят": 5850,
    "га¬ ": 5851,
    "граф": 5852,
    "деся": 5853,
    "дний  ": 5854,
    "джу,  -д": 5855,
    "до  ч": 5856,
    "емлю": 5857,
    "ену  ": 5858,
    "ені  ": 5859,
    "еркві": 5860,
    "ечовина": 5861,
    "ж.,  дав.,  м.  -ці": 5862,
    "жній  ": 5863,
    "жай": 5864,
    "ке  ": 5865,
    "крізь": 5866,
    "камінь": 5867,
    "кара": 5868,
    "ками.": 5869,
    "корист": 5870,
    "кіно": 5871,
    "леного  ": 5872,
    "лу,  ": 5873,
    "ла \n": 5874,
    "ливий  ": 5875,
    "лікува": 5876,
    "ми  з": 5877,
    "ми,  з": 5878,
    "міри": 5879,
    "н.;  -": 5880,
    "нува": 5881,
    "ника ": 5882,
    "ній  Рос": 5883,
    "ній  Росі": 5884,
    "облення": 5885,
    "овного  ": 5886,
    "озба": 5887,
    "оїсь": 5888,
    "коїсь": 5889,
    "ова ": 5890,
    "пиня": 5891,
    "перех.,  ": 5892,
    "р.  —": 5893,
    "разок": 5894,
    "ранспорт": 5895,
    "рощ": 5896,
    "робляє": 5897,
    "розвито": 5898,
    "рослина": 5899,
    "рят": 5900,
    "ріст": 5901,
    "селення": 5902,
    "стичн": 5903,
    "стосу": 5904,
    "тати  ": 5905,
    "у  ч": 5906,
    "у  та": 5907,
    "увато": 5908,
    "феода": 5909,
    "ходити  ": 5910,
    "хідно": 5911,
    "церкві": 5912,
    "ця ": 5913,
    "ційно": 5914,
    "чати  ": 5915,
    "ь  у": 5916,
    "є  з": 5917,
    "і;  ": 5918,
    "імі": 5919,
    " \nного  ": 5920,
    " добре": 5921,
    " має ": 5922,
    " рос": 5923,
    " який": 5924,
    "  акт": 5925,
    "  де¬ ": 5926,
    "  для  роз": 5927,
    "  до \n": 5928,
    "  до  с": 5929,
    "  до¬ \n": 5930,
    "  довги": 5931,
    "  засобів": 5932,
    "  здійсн": 5933,
    "  здійснюється": 5934,
    "  клі": 5935,
    "  куп": 5936,
    "  меж": 5937,
    "  метод": 5938,
    "  на \n\n": 5939,
    "  обме": 5940,
    "  ознак": 5941,
    "  пред¬ ": 5942,
    "  пит": 5943,
    "  пору": 5944,
    "  протя": 5945,
    "  під ": 5946,
    "  складних  слів": 5947,
    "  тво": 5948,
    "  у  м": 5949,
    "  хви": 5950,
    "  час¬": 5951,
    "  черво": 5952,
    "  якого": 5953,
    "  інтерес": 5954,
    " пласт": 5955,
    " пром": 5956,
    " сказав": 5957,
    ", роз": 5958,
    ",  -аюся,  -аєшся": 5959,
    ",  -ується": 5960,
    ",  вис": 5961,
    ",  мн.,  ": 5962,
    ",  який  за": 5963,
    "-ості,  ж": 5964,
    ". до  ": 5965,
    ".  8": 5966,
    ".  1.  Ді": 5967,
    ".  2.  Від": 5968,
    ".  [голл.  ": 5969,
    ".  Во": 5970,
    "5  •  ": 5971,
    ";  -ч": 5972,
    ";  ~е": 5973,
    "].  Перша": 5974,
    "ІІІ": 5975,
    "ЇТ": 5976,
    "АЛЬНИЙ,  -а,  -е": 5977,
    "Коли ": 5978,
    "Франції": 5979,
    "Ьаі": 5980,
    "ЮР": 5981,
    "ал.  ": 5982,
    "асник": 5983,
    "бстр.  ім.  ": 5984,
    "бувают": 5985,
    "в  у": 5986,
    "важл": 5987,
    "вале": 5988,
    "вини": 5989,
    "ві.": 5990,
    "відповід": 5991,
    "віть ": 5992,
    "добро": 5993,
    "дослід": 5994,
    "е \n\n": 5995,
    "е ви": 5996,
    "естра": 5997,
    "жності": 5998,
    "жарт": 5999,
    "зали": 6000,
    "здат": 6001,
    "зм.  ": 6002,
    "зновид": 6003,
    "ивід": 6004,
    "ижи": 6005,
    "итель": 6006,
    "кулі": 6007,
    "карто": 6008,
    "католиць": 6009,
    "кріплення": 6010,
    "кінце": 6011,
    "лого  ": 6012,
    "лока": 6013,
    "ливих": 6014,
    "личч": 6015,
    "льній  ": 6016,
    "м  —": 6017,
    "мент  (": 6018,
    "м.  3.  ": 6019,
    "ндрі": 6020,
    "ню  ": 6021,
    "на т": 6022,
    "ньовіччя": 6023,
    "о, \n\n": 6024,
    "оки": 6025,
    "осся": 6026,
    "лосся": 6027,
    "ознав": 6028,
    "ркви": 6029,
    "ружи": 6030,
    "рези": 6031,
    "розвиток": 6032,
    "сі  —": 6033,
    "сприя": 6034,
    "сти  ": 6035,
    "ста¬ \n": 6036,
    "стеб": 6037,
    "страж": 6038,
    "ська ": 6039,
    "ській  ": 6040,
    "тне": 6041,
    "ти,  с": 6042,
    "утися": 6043,
    "у  (": 6044,
    "у  на": 6045,
    "у  тощ": 6046,
    "чений": 6047,
    "чному  ": 6048,
    "шат": 6049,
    "швидк": 6050,
    "що-н.,  ": 6051,
    "ь  про": 6052,
    "якоїсь": 6053,
    "якій  ": 6054,
    "істю": 6055,
    "ієприкм": 6056,
    " \nНа": 6057,
    " \nтися": 6058,
    " -у,  ч": 6059,
    " ОБ": 6060,
    " Про": 6061,
    " важ": 6062,
    " зага": 6063,
    " кри": 6064,
    " обі": 6065,
    " систе": 6066,
    " слід": 6067,
    " ти  ": 6068,
    "  його  ": 6069,
    "  різних": 6070,
    "  [франц.  ": 6071,
    "  або  на": 6072,
    "  або  т": 6073,
    "  або  і": 6074,
    "  або  за": 6075,
    "  воро": 6076,
    "  гео": 6077,
    "  господар": 6078,
    "  електри": 6079,
    "  зг": 6080,
    "  зл": 6081,
    "  зо¬": 6082,
    "  квіт": 6083,
    "  кораб": 6084,
    "  мас": 6085,
    "  мис": 6086,
    "  поп": 6087,
    "  себе": 6088,
    "  такої": 6089,
    "  точ": 6090,
    "  у  во": 6091,
    "  чино": 6092,
    "  іно": 6093,
    " маю": 6094,
    " між ": 6095,
    " на т": 6096,
    " прави": 6097,
    ",  н": 6098,
    ",  -ог": 6099,
    ",  -ую,": 6100,
    ",  організ": 6101,
    ". ва": 6102,
    ".  а": 6103,
    ".  1.  Дія  зі  знач": 6104,
    ".  2.  У  ": 6105,
    ".  [лат.  а": 6106,
    ".  Прилад": 6107,
    ".  Який  має": 6108,
    ".,  що  ": 6109,
    "5.  ": 6110,
    "8-": 6111,
    "].  1.  У": 6112,
    "].  Не": 6113,
    "¬ \nли": 6114,
    "¬ \nся": 6115,
    "¬ ся": 6116,
    "БУР": 6117,
    "ОВІ": 6118,
    "ПОЛ": 6119,
    "ЧЕР": 6120,
    "Ьап": 6121,
    "а \n\n": 6122,
    "аба": 6123,
    "альна": 6124,
    "альних": 6125,
    "бБ": 6126,
    "бД": 6127,
    "бран": 6128,
    "бажання": 6129,
    "виражає": 6130,
    "вираз": 6131,
    "витку": 6132,
    "ві  —": 6133,
    "відт": 6134,
    "віру": 6135,
    "геро": 6136,
    "газо": 6137,
    "глибо": 6138,
    "демі": 6139,
    "дє": 6140,
    "діва": 6141,
    "дійснюва": 6142,
    "жені": 6143,
    "зброє": 6144,
    "иції": 6145,
    "коне": 6146,
    "казує  на": 6147,
    "кінець": 6148,
    "лашт": 6149,
    "льном": 6150,
    "лі¬ \n": 6151,
    "мки": 6152,
    "мостій": 6153,
    "мал": 6154,
    "маган": 6155,
    "ншого  ": 6156,
    "ником": 6157,
    "ничи": 6158,
    "о.  3.  ": 6159,
    "од.  -": 6160,
    " од.  -": 6161,
    "оперед": 6162,
    "орати": 6163,
    "оскона": 6164,
    "ої  тканини": 6165,
    "овий,": 6166,
    "ологія,  -ї,  ж": 6167,
    "організм": 6168,
    "орія": 6169,
    "остей  ": 6170,
    "порядк": 6171,
    "р од.  -": 6172,
    "ртика": 6173,
    "руда": 6174,
    "ре¬ \n": 6175,
    "роль": 6176,
    "ріп": 6177,
    "рівно": 6178,
    "сіння": 6179,
    "становище": 6180,
    "стве": 6181,
    "стий  ": 6182,
    "стовп": 6183,
    "стосовуют": 6184,
    "ський,  -а,  -е.  Прикм.  до  ": 6185,
    "техні": 6186,
    "ти,  -і": 6187,
    "тні": 6188,
    "тяга": 6189,
    "таровин": 6190,
    "утворюється": 6191,
    "уляр": 6192,
    "х  рослин": 6193,
    "чний  е": 6194,
    "і  на": 6195,
    "ільно  ": 6196,
    " господар": 6197,
    " уваг": 6198,
    "  #": 6199,
    "  життя": 6200,
    "  влад": 6201,
    "  вия": 6202,
    "  віднос": 6203,
    "  дерева": 6204,
    "  дис": 6205,
    "  допомогою  ": 6206,
    "  коп": 6207,
    "  кулі": 6208,
    "  культу": 6209,
    "  людину": 6210,
    "  ме¬ ": 6211,
    "  обличч": 6212,
    "  пля": 6213,
    "  пород": 6214,
    "  поверхню": 6215,
    "  прив": 6216,
    "  принцип": 6217,
    "  проміж": 6218,
    "  промисловості": 6219,
    "  склада": 6220,
    "  сим": 6221,
    "  соло": 6222,
    "  спіль": 6223,
    "  сух": 6224,
    "  тя": 6225,
    "  тканина": 6226,
    "  товарів": 6227,
    "  хол": 6228,
    " вид": 6229,
    " нашого": 6230,
    " нес": 6231,
    " року ": 6232,
    " собі ": 6233,
    "',  який  ": 6234,
    ",  -а,  -Є": 6235,
    ",  -а,  ч., \n": 6236,
    ",  над": 6237,
    ",  образ": 6238,
    ",  ци": 6239,
    ",  що  його  ": 6240,
    ". \nпро": 6241,
    ". що  ": 6242,
    ".  1.  Прикм.  до ": 6243,
    ".  2.  Б": 6244,
    ".  6.  ": 6245,
    ".  [лат. \n": 6246,
    ".  Див.  в": 6247,
    ".  Дія": 6248,
    ".  Жін.  до  ": 6249,
    ".,  п": 6250,
    "2,  ": 6251,
    "8І8  —": 6252,
    ";  і": 6253,
    ";  -б": 6254,
    ";  ду": 6255,
    "].  1.  При": 6256,
    "¬ \n3.  ": 6257,
    "АРІ": 6258,
    "АРТ": 6259,
    "Люд": 6260,
    "НЦИЙ,  -а,  -е": 6261,
    "Пласту": 6262,
    "ЦЬ,  -": 6263,
    "Якого  ": 6264,
    "акінч": 6265,
    "без  додатка": 6266,
    "блю": 6267,
    "барв": 6268,
    "біблі": 6269,
    "в  на": 6270,
    "водиться": 6271,
    "втомобі": 6272,
    "вивчає": 6273,
    "виготовля": 6274,
    "викону": 6275,
    "від  пріз": 6276,
    "війська": 6277,
    "дин  із": 6278,
    "дицині": 6279,
    "дає ": 6280,
    "дна  з": 6281,
    "ертика": 6282,
    "еться": 6283,
    "жених": 6284,
    "женість": 6285,
    "займається": 6286,
    "зроби": 6287,
    "истий": 6288,
    "й \n\n": 6289,
    "ково  ": 6290,
    "кредит": 6291,
    "ката": 6292,
    "киш": 6293,
    "ки. \n": 6294,
    "користо¬ ": 6295,
    "криває": 6296,
    "ків,": 6297,
    "лагод": 6298,
    "ламент": 6299,
    "ливим": 6300,
    "м  у": 6301,
    "ми \n\n": 6302,
    "машина": 6303,
    "на,  ": 6304,
    "о,  з": 6305,
    "одина": 6306,
    "ок,  -": 6307,
    "орна": 6308,
    "ою,  ": 6309,
    "окрема": 6310,
    "пре": 6311,
    "періо": 6312,
    "плав": 6313,
    "повітря": 6314,
    "правд": 6315,
    "проп": 6316,
    "розвитк": 6317,
    "су,  ": 6318,
    "становит": 6319,
    "ством": 6320,
    "стично": 6321,
    "термін": 6322,
    "тиска": 6323,
    "тільки  од": 6324,
    "удись": 6325,
    "ужит": 6326,
    "упровод": 6327,
    "фігу": 6328,
    "хреб": 6329,
    "царсь": 6330,
    "цилін": 6331,
    "часник": 6332,
    "чні  ": 6333,
    "чення ": 6334,
    "ь  із": 6335,
    "і  знач": 6336,
    "ізна": 6337,
    "\nгі": 6338,
    "\nчи  ": 6339,
    "\nчогось": 6340,
    " полі": 6341,
    " род": 6342,
    " яка": 6343,
    " \n\nМ": 6344,
    " \n\nм": 6345,
    "  буди": 6346,
    "  гот": 6347,
    "  дз": 6348,
    "  дек": 6349,
    "  дося": 6350,
    "  докум": 6351,
    "  докуме": 6352,
    "  дією": 6353,
    "  заклад": 6354,
    "  зам": 6355,
    "  збу": 6356,
    "  зброї": 6357,
    "  олі": 6358,
    "  одержа": 6359,
    "  опт": 6360,
    "  особли": 6361,
    "  пс": 6362,
    "  па¬": 6363,
    "  послідо": 6364,
    "  поведі": 6365,
    "  поведінки": 6366,
    "  права": 6367,
    "  практ": 6368,
    "  препарат": 6369,
    "  приміщення": 6370,
    "  проп": 6371,
    "  піс": 6372,
    "  півд": 6373,
    "  підс": 6374,
    "  справ": 6375,
    "  сеч": 6376,
    "  сме": 6377,
    "  соці": 6378,
    "  спад": 6379,
    "  тощо;  -": 6380,
    "  тощо).": 6381,
    "  трь": 6382,
    "  чи ": 6383,
    "  чогось.": 6384,
    "  якій": 6385,
    "  •  4": 6386,
    "  •  6": 6387,
    " напр.:": 6388,
    " скав": 6389,
    ", ні": 6390,
    ",  -у, ": 6391,
    ",  що  пере": 6392,
    "-уєш,  перех": 6393,
    ".  2.  спец.  ": 6394,
    ";  ~т": 6395,
    ";  ~ї": 6396,
    "XVIII  ст": 6397,
    "[нім.  ": 6398,
    "].  1.  Т": 6399,
    "§гар": 6400,
    "¬ \nпере": 6401,
    "А,  -и,  ж.,  дав.,  м.  -зі": 6402,
    "АНІ": 6403,
    "Велик": 6404,
    "Гре": 6405,
    "ЕТР": 6406,
    "ЙЗМ": 6407,
    "ЙНА,  -и,  ж": 6408,
    "К,  -у,  ч": 6409,
    "КОМ": 6410,
    "Назва": 6411,
    "Особа": 6412,
    "ПРИ": 6413,
    "ЦКА,  -и,  ж.,  дав.,  м.  -ці": 6414,
    "Швид": 6415,
    "авців": 6416,
    "ам’ят": 6417,
    "ашова": 6418,
    "брі": 6419,
    "бути  ": 6420,
    "б’єднання": 6421,
    "вгий  ": 6422,
    "вних ": 6423,
    "вода": 6424,
    "вою  ": 6425,
    "ван¬ ": 6426,
    "ви ": 6427,
    "витель": 6428,
    "вій  ": 6429,
    "війни": 6430,
    "дніє": 6431,
    "доскона": 6432,
    "е\n\n": 6433,
    "евного  ": 6434,
    "еними  ": 6435,
    "ених ": 6436,
    "енні ": 6437,
    "етних": 6438,
    "зволя": 6439,
    "ичне": 6440,
    "йснюється": 6441,
    "к  з": 6442,
    "ко8  —": 6443,
    "комі": 6444,
    "корі": 6445,
    "казав": 6446,
    "капітал": 6447,
    "кида": 6448,
    "ки п": 6449,
    "колиш": 6450,
    "культур": 6451,
    "кій  міфології  —": 6452,
    "лина": 6453,
    "лизь": 6454,
    "льє": 6455,
    "мне": 6456,
    "мав": 6457,
    "музичний  інструмент": 6458,
    "мікро": 6459,
    "мірів": 6460,
    "м’яс": 6461,
    "нося": 6462,
    "ної \n\n": 6463,
    "не  від": 6464,
    "неш": 6465,
    "ник ": 6466,
    "ник,  -а,  ч.,  кл.  -у": 6467,
    "овлений": 6468,
    "одини": 6469,
    "одитися": 6470,
    "одіва": 6471,
    "ок  із": 6472,
    "ом.  2.  ": 6473,
    "отреб": 6474,
    "очий  ": 6475,
    "ошире": 6476,
    "обач": 6477,
    "ований,  -а,  -е": 6478,
    "подіва": 6479,
    "перен.  П": 6480,
    "період": 6481,
    "природ": 6482,
    "рст": 6483,
    "рт.  ": 6484,
    "рати ": 6485,
    "регу": 6486,
    "риш": 6487,
    "рику": 6488,
    "риса": 6489,
    "род.  -у.  ": 6490,
    "розі": 6491,
    "рхітект": 6492,
    "рібля": 6493,
    "рідин": 6494,
    "різняється": 6495,
    "са  ": 6496,
    "савців": 6497,
    "собли": 6498,
    "сіда": 6499,
    "стад": 6500,
    "стопа": 6501,
    "ських ": 6502,
    "тивних": 6503,
    "тня": 6504,
    "трів": 6505,
    "тися. ": 6506,
    "удар": 6507,
    "упа  ": 6508,
    "утворе": 6509,
    "ухів": 6510,
    "уша": 6511,
    "у  д": 6512,
    "у  зма": 6513,
    "францу": 6514,
    "цини": 6515,
    "цінних": 6516,
    "ча  ": 6517,
    "чи  з": 6518,
    "широк": 6519,
    "шли ": 6520,
    "юються": 6521,
    "яким": 6522,
    "ібні": 6523,
    "іе  —": 6524,
    "ійснюється": 6525,
    "іста": 6526,
    "ієприкм.  п": 6527,
    " вона ": 6528,
    " говори": 6529,
    " доклад": 6530,
    " політи": 6531,
    " разом": 6532,
    " сього": 6533,
    " \n\nі": 6534,
    "  (т": 6535,
    "  1,  ": 6536,
    "  вч": 6537,
    "  век": 6538,
    "  виготовлення": 6539,
    "  випа": 6540,
    "  відт": 6541,
    "  докумен": 6542,
    "  залоз": 6543,
    "  зберігання": 6544,
    "  здійсню": 6545,
    "  корис": 6546,
    "  кошт": 6547,
    "  країн": 6548,
    "  металів": 6549,
    "  нерво": 6550,
    "  обов’яз": 6551,
    "  одним": 6552,
    "  пе¬ \n": 6553,
    "  потреб": 6554,
    "  правил": 6555,
    "  предмета": 6556,
    "  птах  ": 6557,
    "  складі)": 6558,
    "  суч": 6559,
    "  суча": 6560,
    "  творів": 6561,
    "  тварини": 6562,
    "  тор": 6563,
    "  час¬ ": 6564,
    "  чо¬": 6565,
    "  якійсь": 6566,
    " на з": 6567,
    " нашої": 6568,
    " неп": 6569,
    " сільського господарства": 6570,
    ", пере": 6571,
    ",  -5Ш,  -уєш,  перех": 6572,
    ",  -а,  ч.,  кл.  -у  ": 6573,
    ",  ви¬ ": 6574,
    ",  ди": 6575,
    ",  перех. ": 6576,
    ",  сх": 6577,
    ",  що  ви¬": 6578,
    ",  яку": 6579,
    ". \nли": 6580,
    "., \n\n": 6581,
    ". \n\nМ": 6582,
    ". \n\nР": 6583,
    ".  1.  Зменш": 6584,
    ".  1.  Роз": 6585,
    ".  2.  ч": 6586,
    ".  2.  Роз": 6587,
    ".  2.  Ст": 6588,
    ".  2.  перен.  П": 6589,
    ".  Ка": 6590,
    ".  Який  стос, ": 6591,
    ".,  розм": 6592,
    "].  1.  Д": 6593,
    "].  Лі": 6594,
    "¬ \n\nМ": 6595,
    "ІСТЬ": 6596,
    "ЕНД": 6597,
    "НАР": 6598,
    "Центра": 6599,
    "блік": 6600,
    "вна ": 6601,
    "востя": 6602,
    "в.  —": 6603,
    "виступ": 6604,
    "ві¬ \n": 6605,
    "відді": 6606,
    "гаю": 6607,
    "дний": 6608,
    "дібні": 6609,
    "е  на": 6610,
    "ежність": 6611,
    "енник": 6612,
    "ебільшого  ": 6613,
    "и,  -ів": 6614,
    "инення": 6615,
    "исті": 6616,
    "й  за": 6617,
    "крів": 6618,
    "ку  з": 6619,
    "ки т": 6620,
    "кл.  -о,  ": 6621,
    "кла¬ \n": 6622,
    "лука": 6623,
    "ла.": 6624,
    "ливого  ": 6625,
    "лити": 6626,
    "льний ": 6627,
    "люно": 6628,
    "лім": 6629,
    "м, \n\n": 6630,
    "мості": 6631,
    "ми  на": 6632,
    "ми,  п": 6633,
    "міна": 6634,
    "нує  ": 6635,
    "не¬ \n": 6636,
    "ний  (про": 6637,
    "ний  а": 6638,
    "ний,  -а,  -е.  Прикм.  до  ": 6639,
    "ні¬ ": 6640,
    "нім.": 6641,
    "овки": 6642,
    "овування": 6643,
    "ом  або  ": 6644,
    "ому  по": 6645,
    "орми  ": 6646,
    "ої  особ": 6647,
    "ована": 6648,
    "ов’язаний  із": 6649,
    "ологічн": 6650,
    "онет": 6651,
    "пира": 6652,
    "почина": 6653,
    "пусти": 6654,
    "прилад": 6655,
    "р,  ": 6656,
    "рахуно": 6657,
    "рахунок": 6658,
    "ритм": 6659,
    "розділ": 6660,
    "рослина  родини  ": 6661,
    "рядк": 6662,
    "складі": 6663,
    "ство,": 6664,
    "стосовують": 6665,
    "строю": 6666,
    "тами  ": 6667,
    "танець": 6668,
    "ташова": 6669,
    "тичний": 6670,
    "ункції": 6671,
    "унів": 6672,
    "утро": 6673,
    "француз": 6674,
    "ції. ": 6675,
    "ч.,  кл.  -е": 6676,
    "чого-н.,  ": 6677,
    "ши  ": 6678,
    "ь,  ": 6679,
    "ю,  -і": 6680,
    "юро": 6681,
    "яка ": 6682,
    "яку  ": 6683,
    "ів;  -": 6684,
    "ґрунтується  на": 6685,
    "\nвели": 6686,
    "\n\nт": 6687,
    " \nві": 6688,
    " \nзнач": 6689,
    " -а,  ч.,  кл.  -": 6690,
    " II": 6691,
    " Ль": 6692,
    " У  ": 6693,
    " вати  ": 6694,
    " влас": 6695,
    " віт": 6696,
    " газет": 6697,
    " жа": 6698,
    " завда": 6699,
    " когось": 6700,
    " люд": 6701,
    " раз": 6702,
    " сла": 6703,
    "  або  о": 6704,
    "  бр": 6705,
    "  будь-як": 6706,
    "  видо": 6707,
    "  для  пере": 6708,
    "  дослідження": 6709,
    "  зло": 6710,
    "  зміни": 6711,
    "  знан": 6712,
    "  зображ": 6713,
    "  кур": 6714,
    "  моря": 6715,
    "  м’яс": 6716,
    "  нервов": 6717,
    "  ор¬": 6718,
    "  посад": 6719,
    "  прибу": 6720,
    "  роз¬": 6721,
    "  споруд": 6722,
    "  сук": 6723,
    "  умовах": 6724,
    "  участь": 6725,
    "  і с": 6726,
    "  і д ": 6727,
    " висо": 6728,
    " на д": 6729,
    " скавт": 6730,
    "(одн.  ": 6731,
    ", \n2.  ": 6732,
    ",  -п": 6733,
    ",  -а,  ч.,  м": 6734,
    ",  -и,  ж.,": 6735,
    ",  де  ": 6736,
    ",  зо": 6737,
    ",  за¬ ": 6738,
    ",  котри": 6739,
    ",  спор": 6740,
    ",  шо": 6741,
    ",  що  використовується": 6742,
    ",  явищ": 6743,
    ",  який \n": 6744,
    ". ПР": 6745,
    ". роз": 6746,
    ". \n\nЗ": 6747,
    ".  7": 6748,
    ".  1.  То": 6749,
    ".  2.  Те  саме,  що  ": 6750,
    ".  3.  С": 6751,
    ".  [грец.  т": 6752,
    ".  Га": 6753,
    ".  Прикм. \n": 6754,
    ".)\n": 6755,
    ";  до": 6756,
    "].  1.  Ви": 6757,
    "].  1.  За": 6758,
    "].  Пі": 6759,
    "¬ \nдля": 6760,
    "Іга": 6761,
    "А,  -і,  ж": 6762,
    "АНГ": 6763,
    "ЕЦЬ,  -": 6764,
    "И,  -ів,  мн.  ": 6765,
    "НАД": 6766,
    "СТВО,  -а,  с": 6767,
    "а;  -": 6768,
    "ажи": 6769,
    "алева": 6770,
    "армі": 6771,
    "або  т": 6772,
    "бна": 6773,
    "бувати": 6774,
    "близь": 6775,
    "вовня": 6776,
    "вора": 6777,
    "велико": 6778,
    "вихо": 6779,
    "вія": 6780,
    "відокрем": 6781,
    "додат": 6782,
    "е не ": 6783,
    "емперат": 6784,
    "еності": 6785,
    "ером": 6786,
    "есвіт": 6787,
    "жно  ": 6788,
    "жній": 6789,
    "журна": 6790,
    "зація,  -ї,  ж": 6791,
    "збира": 6792,
    "зі  с": 6793,
    "ивна": 6794,
    "ить  до  ": 6795,
    "к  для": 6796,
    "кав": 6797,
    "ка¬ \n": 6798,
    "казів": 6799,
    "кий, ": 6800,
    "край": 6801,
    "льної ": 6802,
    "м,  напр.:": 6803,
    "метрі": 6804,
    "му-н.  ": 6805,
    "мати ": 6806,
    "машини": 6807,
    "мистецтві": 6808,
    "мірювання": 6809,
    "норід": 6810,
    "нтова": 6811,
    "нту  ": 6812,
    "на з": 6813,
    "овується": 6814,
    "одібні": 6815,
    "ому \n\n": 6816,
    "ому,  ": 6817,
    "оходження": 6818,
    "ображ": 6819,
    "перем": 6820,
    "перен.  С": 6821,
    "проц": 6822,
    "проце": 6823,
    "рдина": 6824,
    "рстат": 6825,
    "рю,  -": 6826,
    "раж": 6827,
    "разів": 6828,
    "реп": 6829,
    "речі": 6830,
    "розм.  В": 6831,
    "роко": 6832,
    "ставати  ": 6833,
    "стих": 6834,
    "страв": 6835,
    "ступи": 6836,
    "тарі": 6837,
    "ти  по": 6838,
    "ти на ": 6839,
    "то8  —": 6840,
    "ть  за": 6841,
    "тільки  м": 6842,
    "уження": 6843,
    "упереч": 6844,
    "ува-": 6845,
    "уван¬ \n": 6846,
    "ування \n": 6847,
    "християн": 6848,
    "цям": 6849,
    "цят": 6850,
    "чної  ": 6851,
    "чний  ел": 6852,
    "чний  еле": 6853,
    "чного  т": 6854,
    "ютера": 6855,
    "явність": 6856,
    "яки": 6857,
    "європейсь": 6858,
    "і  т.  ін.": 6859,
    "ірон.  ": 6860,
    "ї  систе": 6861,
    "ої  систе": 6862,
    "’ютера": 6863,
    "……": 6864,
    "\nгось": 6865,
    "\nлі": 6866,
    "\nним": 6867,
    " \nчогось": 6868,
    " бла": 6869,
    " можна ": 6870,
    " них ": 6871,
    " о\n\n": 6872,
    " поста": 6873,
    " т.  і": 6874,
    "  В": 6875,
    "  ґ": 6876,
    "  вив": 6877,
    "  вогне": 6878,
    "  водою": 6879,
    "  вузь": 6880,
    "  відо": 6881,
    "  громадя": 6882,
    "  дерево  ": 6883,
    "  дит": 6884,
    "  дог": 6885,
    "  довжи": 6886,
    "  землю": 6887,
    "  мор": 6888,
    "  мот": 6889,
    "  мусуль": 6890,
    "  напр": 6891,
    "  напі": 6892,
    "  не¬ \n": 6893,
    "  неза": 6894,
    "  окре": 6895,
    "  окремих": 6896,
    "  ор¬ ": 6897,
    "  пов’яза": 6898,
    "  позначення": 6899,
    "  порушення": 6900,
    "  право": 6901,
    "  соба": 6902,
    "  смер": 6903,
    "  тропі": 6904,
    "  таким": 6905,
    "  температ": 6906,
    "  у  вигляді  ": 6907,
    "  частино": 6908,
    "  чи  і": 6909,
    "  чут": 6910,
    "  шлях": 6911,
    "  який": 6912,
    "  інші": 6913,
    "  —  на": 6914,
    "  •  9": 6915,
    " дал": 6916,
    " мас": 6917,
    " міся": 6918,
    " пластун": 6919,
    " працю": 6920,
    "+  .": 6921,
    ", 1.  ": 6922,
    ",  -у,  ч.  [франц.  с": 6923,
    ",  -і,  ж.,  кл.  -е": 6924,
    ",  зб": 6925,
    ",  зах": 6926,
    ",  ком": 6927,
    ",  механіз": 6928,
    ",  оз": 6929,
    ",  пос": 6930,
    ",  признач": 6931,
    ",  присудк.  с": 6932,
    ",  ч.  1.  ": 6933,
    ",  якою": 6934,
    ". \n\nД": 6935,
    ".  Властивість": 6936,
    ".  Пра": 6937,
    ".  Пов": 6938,
    ".,  му": 6939,
    ".,  муз": 6940,
    "...  +  грец.  ": 6941,
    ";  у  знач.  ім.  ": 6942,
    ";  -ний,  -а,  -е.": 6943,
    ";  бе": 6944,
    "].  Невели": 6945,
    "].  Ч": 6946,
    "].  Пе": 6947,
    "].  Розд": 6948,
    "¬ від": 6949,
    "¬ \n\nР": 6950,
    "І^^": 6951,
    "АНЦ": 6952,
    "Лені": 6953,
    "Най": 6954,
    "ОХ": 6955,
    "СРСР": 6956,
    "Стародав": 6957,
    "ЬаІ": 6958,
    "а  — \n": 6959,
    "айма": 6960,
    "аючись": 6961,
    "була": 6962,
    "в на": 6963,
    "вну  ": 6964,
    "валі": 6965,
    "ваго": 6966,
    "вано": 6967,
    "виго": 6968,
    "віш": 6969,
    "го ви": 6970,
    "гів": 6971,
    "гіт": 6972,
    "гіпе": 6973,
    "дні ": 6974,
    "дак": 6975,
    "дає  ": 6976,
    "ений \n": 6977,
    "ерев’я": 6978,
    "ерії": 6979,
    "жних": 6980,
    "зображення": 6981,
    "ивання": 6982,
    "ився": 6983,
    "ить  ": 6984,
    "ифі": 6985,
    "к;  -": 6986,
    "ки з": 6987,
    "кріпл": 6988,
    "кіш": 6989,
    "лових": 6990,
    "ловний  ": 6991,
    "лось ": 6992,
    "ли.": 6993,
    "лише": 6994,
    "льним": 6995,
    "льот": 6996,
    "літака": 6997,
    "мені ": 6998,
    "му  з": 6999,
    "манд": 7000,
    "ми  в": 7001,
    "ми  для": 7002,
    "ми  с": 7003,
    "містить  ": 7004,
    "нули": 7005,
    "на  від": 7006,
    "на  щ": 7007,
    "ний;": 7008,
    "ний  для": 7009,
    "ний  із  ": 7010,
    "нках": 7011,
    "но  д": 7012,
    "ність, ": 7013,
    "обити  ": 7014,
    "ов’я": 7015,
    "одав": 7016,
    "ом  для": 7017,
    "омлення": 7018,
    "омість": 7019,
    "орії": 7020,
    "оцвіті": 7021,
    "п  — ": 7022,
    "подібні": 7023,
    "пошире": 7024,
    "публі": 7025,
    "порядження": 7026,
    "рсто": 7027,
    "орсто": 7028,
    "рапт": 7029,
    "росте": 7030,
    "рія": 7031,
    "скла": 7032,
    "сона": 7033,
    "справи": 7034,
    "сува": 7035,
    "судна": 7036,
    "старі": 7037,
    "стий,  -а,  -е": 7038,
    "стир": 7039,
    "строїв": 7040,
    "текст": 7041,
    "тось": 7042,
    "ти  або  ": 7043,
    "тися  в": 7044,
    "тися)": 7045,
    "у  знач,": 7046,
    "ува¬ \n": 7047,
    "увати \n": 7048,
    "увати,  з": 7049,
    "цеві": 7050,
    "цій  ": 7051,
    "ціо": 7052,
    "чий,  -а,  -е": 7053,
    "чу,  -ч": 7054,
    "шука": 7055,
    "ю  (": 7056,
    "ягне": 7057,
    "єння": 7058,
    "і про": 7059,
    "ім.  ": 7060,
    "іні": 7061,
    "ї  (": 7062,
    "їх  ": 7063,
    "\nяка": 7064,
    " \nрозм.  ": 7065,
    " а\n\n": 7066,
    " и  ": 7067,
    " карб": 7068,
    " ним": 7069,
    " остан": 7070,
    " потріб": 7071,
    " стос": 7072,
    " сті": 7073,
    " українсь": 7074,
    " фі": 7075,
    " части": 7076,
    " \n\nЗ": 7077,
    " \nнапр.:": 7078,
    "  <  ": 7079,
    "  (у  З  знач.)": 7080,
    "  бут": 7081,
    "  видів": 7082,
    "  води  ": 7083,
    "  впливо": 7084,
    "  деяких ": 7085,
    "  дійсності": 7086,
    "  зо¬ ": 7087,
    "  кліт": 7088,
    "  коз": 7089,
    "  мо¬": 7090,
    "  обличчя": 7091,
    "  одна": 7092,
    "  паперів": 7093,
    "  папі": 7094,
    "  пере¬ \n": 7095,
    "  показ": 7096,
    "  походження": 7097,
    "  поза": 7098,
    "  положення": 7099,
    "  православ": 7100,
    "  працю": 7101,
    "  приго": 7102,
    "  процесів": 7103,
    "  синт": 7104,
    "  суміш": 7105,
    "  тер": 7106,
    "  теч": 7107,
    "  тканин": 7108,
    "  уз": 7109,
    "  у  ч": 7110,
    "  форма": 7111,
    "  якості": 7112,
    "  •  1 0": 7113,
    "  •  1 3": 7114,
    " бід": 7115,
    " мал": 7116,
    " нам ": 7117,
    " нез": 7118,
    " перев": 7119,
    "'їзд ": 7120,
    "(.": 7121,
    "(..": 7122,
    "(прот.  ": 7123,
    "),  напр.:": 7124,
    ",  ка": 7125,
    ",  -в": 7126,
    ",  -є": 7127,
    ",  -а, \n\n": 7128,
    ",  -их,  мн.  ": 7129,
    ",  -ює": 7130,
    ",  -я,  с.": 7131,
    ",  виготов": 7132,
    ",  зу": 7133,
    ",  при¬": 7134,
    ",  що-н.  ": 7135,
    ",  що  вик": 7136,
    ",  що  до": 7137,
    "-а,  с": 7138,
    ". \nщо  ": 7139,
    ". або  ": 7140,
    ".  до  ": 7141,
    ".  1.  Те  саме,  що  ": 7142,
    ".  2.  заст": 7143,
    ".  Го": 7144,
    ".  Пов’яза": 7145,
    ".  Ру": 7146,
    ".  Роб": 7147,
    ".  Со": 7148,
    ";  у  ": 7149,
    ";  х": 7150,
    "].  Розді": 7151,
    "|[": 7152,
    "¬ \nга": 7153,
    "¬ \nні": 7154,
    "¬ роз": 7155,
    "Андрі": 7156,
    "АКТ": 7157,
    "И,  -а,  ч.,  кл.  -е  [": 7158,
    "КА,  -и,  Ж": 7159,
    "Північ": 7160,
    "С,  -у,  ч": 7161,
    "УЦ": 7162,
    "ЦЯ,  -і,  ж": 7163,
    "ЬНИЙ,  -а,  -е": 7164,
    "а  (": 7165,
    "агар": 7166,
    "ального  ": 7167,
    "бЦ": 7168,
    "б’єдна": 7169,
    "ближ": 7170,
    "бірн.  ": 7171,
    "в  — ": 7172,
    "внова": 7173,
    "вні ": 7174,
    "вони": 7175,
    "вап": 7176,
    "ведення ": 7177,
    "вина": 7178,
    "вугілля": 7179,
    "відповідає": 7180,
    "гу,  ": 7181,
    "готовлений  і": 7182,
    "готовлений  із": 7183,
    "дить  до  ": 7184,
    "дкрес": 7185,
    "е.  Який  стос": 7186,
    "е¬ \n\n": 7187,
    "ег  —  ": 7188,
    "емель": 7189,
    "ень  ": 7190,
    "живопис": 7191,
    "зовніш": 7192,
    "зпосеред": 7193,
    "и; \n\n": 7194,
    "иба": 7195,
    "ивати  ": 7196,
    "ивності": 7197,
    "ишся": 7198,
    "й  з": 7199,
    "йш,  перех": 7200,
    "кові ": 7201,
    "коман": 7202,
    "комах": 7203,
    "користову¬": 7204,
    "користовуються": 7205,
    "кімнат": 7206,
    "лени": 7207,
    "льного ": 7208,
    "льному": 7209,
    "льєф": 7210,
    "літ.  ": 7211,
    "літератури": 7212,
    "мн.,  ": 7213,
    "моря": 7214,
    "мства": 7215,
    "ми  або  ": 7216,
    "міром": 7217,
    "мі¬ \n": 7218,
    "між ": 7219,
    "між  ": 7220,
    "нйй,  -а,  -е": 7221,
    "ного,  ": 7222,
    "ну;  -": 7223,
    "наси": 7224,
    "ни \n": 7225,
    "ний  ч": 7226,
    "ницю": 7227,
    "нка,": 7228,
    "нська ": 7229,
    "огне": 7230,
    "одніє": 7231,
    "орт.  ": 7232,
    "отографі": 7233,
    "охоро": 7234,
    "ою  на": 7235,
    "ою  та": 7236,
    "ограф": 7237,
    "ол.  на  ": 7238,
    "оман": 7239,
    "ориз": 7240,
    "ороб": 7241,
    "прит": 7242,
    "рупа  ": 7243,
    "раї": 7244,
    "райо": 7245,
    "реш": 7246,
    "роз¬ \n": 7247,
    "ріж": 7248,
    "рідина": 7249,
    "сни": 7250,
    "старш": 7251,
    "стату": 7252,
    "стиль": 7253,
    "стор": 7254,
    "страсть": 7255,
    "ся, \n": 7256,
    "т\n\n": 7257,
    "т  —  ": 7258,
    "ти,  в": 7259,
    "трачати  ": 7260,
    "трох": 7261,
    "уна": 7262,
    "у  знач,  прик": 7263,
    "ходиться": 7264,
    "характери": 7265,
    "хрещ": 7266,
    "хім": 7267,
    "ців ": 7268,
    "чена": 7269,
    "ь  з": 7270,
    "ють \n\n": 7271,
    "юєш": 7272,
    "явищ": 7273,
    "якого-н.  ": 7274,
    "і  без  додатка": 7275,
    "ідкрес": 7276,
    "ін.)": 7277,
    " гра": 7278,
    " дере": 7279,
    " кар": 7280,
    " роб": 7281,
    " ряд": 7282,
    " і  ": 7283,
    "  /": 7284,
    "  2": 7285,
    "  (і": 7286,
    "  арт": 7287,
    "  вивчення": 7288,
    "  вимір": 7289,
    "  дощ": 7290,
    "  замі": 7291,
    "  за \n": 7292,
    "  загально": 7293,
    "  захворюван": 7294,
    "  знань": 7295,
    "  зуб": 7296,
    "  кого-н.  ": 7297,
    "  ко¬ \n": 7298,
    "  мо¬ ": 7299,
    "  неп": 7300,
    "  одног": 7301,
    "  організмі": 7302,
    "  пр": 7303,
    "  пал": 7304,
    "  партії": 7305,
    "  певному  ": 7306,
    "  поля": 7307,
    "  повт": 7308,
    "  прикрас": 7309,
    "  проте": 7310,
    "  підг": 7311,
    "  слиз": 7312,
    "  сукупність": 7313,
    "  тверди": 7314,
    "  тел": 7315,
    "  товари": 7316,
    "  трьо": 7317,
    "  тіло": 7318,
    "  форм": 7319,
    "  хреб": 7320,
    "  част": 7321,
    "  чогось. ": 7322,
    "  якому": 7323,
    " бат": 7324,
    " багато ": 7325,
    " відбу": 7326,
    "+  ..": 7327,
    "+  ...": 7328,
    ", мі": 7329,
    ", у  ": 7330,
    ",  \"": 7331,
    ",  -т": 7332,
    ",  -а,  ч.,  спец": 7333,
    ",  -злю,  -з^єш": 7334,
    ",  -ої,  ж": 7335,
    ",  -у,  ч.  [лат.  с": 7336,
    ",  зав": 7337,
    ",  най": 7338,
    ",  призначений  для": 7339,
    ",  со": 7340,
    ",  ту": 7341,
    ",  у  я": 7342,
    ",  у  якому  ": 7343,
    ",  що  роз": 7344,
    ",  що  вико": 7345,
    ",  які  ": 7346,
    ". \nня": 7347,
    ".  к": 7348,
    ".  1.  Який ": 7349,
    ".  [грец.  8": 7350,
    ".  Той": 7351,
    ";  -ування,  -я,  с": 7352,
    ";  бу": 7353,
    "IV": 7354,
    "].  Най": 7355,
    "¬ \nний": 7356,
    "¬ \nнапр.:": 7357,
    "¬ напр.:": 7358,
    "І  —": 7359,
    "ІЗМ": 7360,
    "ІЯ,  -ї,  Ж": 7361,
    "АТР": 7362,
    "ЕШ": 7363,
    "ЙГ": 7364,
    "НЕВ": 7365,
    "Нап": 7366,
    "Поль": 7367,
    "Стародавньому  Римі": 7368,
    "ЦА,  -и,  Ж": 7369,
    "аля": 7370,
    "ане": 7371,
    "асно  ": 7372,
    "ацією": 7373,
    "альні": 7374,
    "астя": 7375,
    "бмін": 7376,
    "болі": 7377,
    "бас": 7378,
    "бачи": 7379,
    "бстр.  ім.  до  ": 7380,
    "біло": 7381,
    "в  —  ": 7382,
    "вйй,  -а,  -е": 7383,
    "винт": 7384,
    "випа": 7385,
    "ві. ": 7386,
    "віле": 7387,
    "гій": 7388,
    "дача": 7389,
    "десят": 7390,
    "дміністра": 7391,
    "до  с": 7392,
    "дєд": 7393,
    "евних": 7394,
    "едицині": 7395,
    "езпосеред": 7396,
    "ен  ": 7397,
    "еханіч": 7398,
    "еріо": 7399,
    "ести  ": 7400,
    "з  за": 7401,
    "зичного  ": 7402,
    "звичайно  ": 7403,
    "и ви": 7404,
    "идат": 7405,
    "ині ": 7406,
    "ити.  2.  ": 7407,
    "й  (": 7408,
    "к.  —": 7409,
    "кувати  ": 7410,
    "каме": 7411,
    "ки,  ": 7412,
    "ки в": 7413,
    "кова  ": 7414,
    "країни": 7415,
    "легли": 7416,
    "лов’я": 7417,
    "лоні": 7418,
    "лаз": 7419,
    "м  та": 7420,
    "міся": 7421,
    "місць": 7422,
    "місцях": 7423,
    "нька": 7424,
    "нар": 7425,
    "наго": 7426,
    "напр.: ": 7427,
    "нення ": 7428,
    "нік": 7429,
    "оброб": 7430,
    "одне": 7431,
    "озм.  ": 7432,
    " озм.  ": 7433,
    "оплення": 7434,
    "осподарсь": 7435,
    "господарсь": 7436,
    "отвір": 7437,
    "ої  на": 7438,
    "о  з": 7439,
    "поперед": 7440,
    "пряж": 7441,
    "р  —": 7442,
    "р озм.  ": 7443,
    "рдження": 7444,
    "ртання": 7445,
    "рургі": 7446,
    "ргівлі": 7447,
    "риста": 7448,
    "розмн": 7449,
    "роск": 7450,
    "різновид": 7451,
    "різні": 7452,
    "сові": 7453,
    "спеціаль": 7454,
    "сувати": 7455,
    "ст ": 7456,
    "ставка": 7457,
    "статисти": 7458,
    "стика": 7459,
    "стим": 7460,
    "ститу": 7461,
    "тими  ": 7462,
    "тини": 7463,
    "ті  ": 7464,
    "ти  що-н.  ": 7465,
    "ти  (в": 7466,
    "узикан": 7467,
    "узикант": 7468,
    "хній  ": 7469,
    "характеру": 7470,
    "хожий  ": 7471,
    "цієї ": 7472,
    "чально": 7473,
    "часто": 7474,
    "чене": 7475,
    "чого-н.;  ": 7476,
    "чува": 7477,
    "шувати": 7478,
    "ь  і": 7479,
    "ю,  -ієш": 7480,
    "я,  -ї,  ж.  [": 7481,
    "ів  (": 7482,
    "і т .  ін. ": 7483,
    "ість,  -ості,  ж": 7484,
    "їст,  -а,  ч.,  кл.  -е": 7485,
    "\nба": 7486,
    "\nжа": 7487,
    " \nгось": 7488,
    " \nгі": 7489,
    " 4.  ": 7490,
    " [лат.  ": 7491,
    " Іван": 7492,
    " дня": 7493,
    " помі": 7494,
    " рат": 7495,
    " \n\nПР": 7496,
    "  (а": 7497,
    "  < ": 7498,
    "  армі": 7499,
    "  авто": 7500,
    "  атм": 7501,
    "  атмо": 7502,
    "  атмос": 7503,
    "  бру": 7504,
    "  виго": 7505,
    "  викон": 7506,
    "  волосся": 7507,
    "  друг": 7508,
    "  зна¬": 7509,
    "  когось,  щось": 7510,
    "  лег": 7511,
    "  межа": 7512,
    "  медицині": 7513,
    "  між  ": 7514,
    "  м’яз": 7515,
    "  навколо  ": 7516,
    "  однак": 7517,
    "  подіб": 7518,
    "  порода": 7519,
    "  посл": 7520,
    "  праці": 7521,
    "  прибут": 7522,
    "  програм": 7523,
    "  прос": 7524,
    "  птахів": 7525,
    "  сму": 7526,
    "  тіль": 7527,
    "  теле": 7528,
    "  той,  ": 7529,
    "  у ": 7530,
    "  і  т.  ін.;  ": 7531,
    "  іноз": 7532,
    "  інозе": 7533,
    " мают": 7534,
    " мають": 7535,
    " райо": 7536,
    " стар": 7537,
    ");  ~": 7538,
    ", ка": 7539,
    ", \n\nВ": 7540,
    ",  -)": 7541,
    ",  -і,  ж.": 7542,
    ",  -і,  ж.,  ор.  -ллю": 7543,
    ",  поч": 7544,
    ",  при¬ ": 7545,
    ",  ск": 7546,
    ",  у  як": 7547,
    ",  що  відповідає": 7548,
    "-е.  Який  стос": 7549,
    "-н.;  -": 7550,
    ". для": 7551,
    ". \n\n2.  ": 7552,
    ". \n\nв": 7553,
    ".  в": 7554,
    ".  [грец.  І": 7555,
    ".  Си": 7556,
    "...  +  грец. ": 7557,
    ";  -у": 7558,
    ";  од": 7559,
    "II.  ": 7560,
    "].  1.  м": 7561,
    "¬ \nка": 7562,
    "¬ \nроз": 7563,
    "А,  -и,  ж.  [франц.  ": 7564,
    "Держа": 7565,
    "ИХ": 7566,
    "К,  -а,  ч.,  кл.  -у": 7567,
    "НАВ": 7568,
    "О...  П": 7569,
    "ОЛЬ": 7570,
    "Робити  ": 7571,
    "ХУЛІ": 7572,
    "ЮВАТИ,  -юю,  -юєш": 7573,
    "агато": 7574,
    "аки": 7575,
    "алан": 7576,
    "амостій": 7577,
    "арба": 7578,
    "архі": 7579,
    "бо \n\n": 7580,
    "бов’яза": 7581,
    "ба¬": 7582,
    "вона": 7583,
    "ва.": 7584,
    "вало": 7585,
    "вартості": 7586,
    "витку  ": 7587,
    "вих ": 7588,
    "волюційній  Росі": 7589,
    "відділ": 7590,
    "гання": 7591,
    "гармат": 7592,
    "глибина": 7593,
    "глядів": 7594,
    "гіпер": 7595,
    "дини  ": 7596,
    "дміністративно": 7597,
    "додатка": 7598,
    "евий": 7599,
    "ерка": 7600,
    "ерні": 7601,
    "жним": 7602,
    "знає": 7603,
    "значає  ": 7604,
    "и  під": 7605,
    "и на": 7606,
    "ижа": 7607,
    "ирюва": 7608,
    "исла": 7609,
    "итий  ": 7610,
    "к  на": 7611,
    "к,  що  ": 7612,
    "ки;": 7613,
    "клик": 7614,
    "кова ": 7615,
    "крив": 7616,
    "кір": 7617,
    "кінчення": 7618,
    "левий  ": 7619,
    "лежність": 7620,
    "лена  ": 7621,
    "лас¬": 7622,
    "лись": 7623,
    "лиц": 7624,
    "льних ": 7625,
    "людей  ": 7626,
    "літе": 7627,
    "м  не": 7628,
    "му  за": 7629,
    "ностей": 7630,
    "ночий  ": 7631,
    "ної  в": 7632,
    "нстру": 7633,
    "нської ": 7634,
    "напа": 7635,
    "ник,": 7636,
    "ників.": 7637,
    "ні д": 7638,
    "ні т": 7639,
    "одних": 7640,
    "ом \n\n": 7641,
    "ом  у  ": 7642,
    "ом;  -": 7643,
    "ону  ": 7644,
    "орка": 7645,
    "осити  ": 7646,
    "овано": 7647,
    "ологічно": 7648,
    "онат": 7649,
    "орода": 7650,
    "пка": 7651,
    "погляд": 7652,
    "потреб": 7653,
    "походження": 7654,
    "пшення": 7655,
    "пере¬": 7656,
    "проду": 7657,
    "рно  ": 7658,
    "ру;  ": 7659,
    "роблений": 7660,
    "розчин": 7661,
    "рідко  ": 7662,
    "різноманіт": 7663,
    "спеці": 7664,
    "співа": 7665,
    "стань": 7666,
    "стати": 7667,
    "стол": 7668,
    "стопад": 7669,
    "страк": 7670,
    "т,  -у,  ч": 7671,
    "талева": 7672,
    "теля": 7673,
    "ти  за": 7674,
    "тивний  ": 7675,
    "тичні": 7676,
    "трача": 7677,
    "ункці": 7678,
    "усуль": 7679,
    "у  сп": 7680,
    "урою": 7681,
    "форми  ": 7682,
    "функції": 7683,
    "фігур": 7684,
    "хма": 7685,
    "хвороб": 7686,
    "ції,": 7687,
    "чній  ": 7688,
    "чність": 7689,
    "частина  складних  слів": 7690,
    "частіше": 7691,
    "шати": 7692,
    "шкід": 7693,
    "ь  як": 7694,
    "ю  метою": 7695,
    "ява": 7696,
    "яка  ": 7697,
    "яться": 7698,
    "іри": 7699,
    "ієприкм.": 7700,
    "ї  частини": 7701,
    "\nлення": 7702,
    "\nпра": 7703,
    "\nі  ": 7704,
    "\n\nн": 7705,
    " \nвели": 7706,
    " \nчи  ": 7707,
    " \nяка": 7708,
    " бере": 7709,
    " були ": 7710,
    " вважа": 7711,
    " вся": 7712,
    " гось": 7713,
    " держав": 7714,
    " кам": 7715,
    " мені ": 7716,
    " н  ": 7717,
    " ність": 7718,
    " орґаніз": 7719,
    " поро": 7720,
    " сель": 7721,
    " став": 7722,
    " україн": 7723,
    " уряд": 7724,
    " \n\nч": 7725,
    " \n\nпо": 7726,
    "  військ": 7727,
    "  або  м": 7728,
    "  будь-яко": 7729,
    "  вт": 7730,
    "  ве¬": 7731,
    "  взаємо": 7732,
    "  вих": 7733,
    "  дет": 7734,
    "  для  виготовлення": 7735,
    "  до  когось": 7736,
    "  документ": 7737,
    "  за  допомогою  ": 7738,
    "  зад": 7739,
    "  круг": 7740,
    "  молод": 7741,
    "  наг": 7742,
    "  назви": 7743,
    "  напів": 7744,
    "  оболонки": 7745,
    "  основних": 7746,
    "  особливо": 7747,
    "  очі": 7748,
    "  па¬ ": 7749,
    "  папір": 7750,
    "  пог": 7751,
    "  поез": 7752,
    "  полови": 7753,
    "  пра¬": 7754,
    "  про ": 7755,
    "  протяг": 7756,
    "  підго": 7757,
    "  сут": 7758,
    "  судно": 7759,
    "  тає": 7760,
    "  точки": 7761,
    "  тош": 7762,
    "  у  св": 7763,
    "  у  сво": 7764,
    "  утв": 7765,
    "  части¬": 7766,
    "  чо¬ ": 7767,
    "  чого-н. \n": 7768,
    "  інфін.  ": 7769,
    "  іншим": 7770,
    " бач": 7771,
    " велико": 7772,
    " наді": 7773,
    " не бул": 7774,
    " не за": 7775,
    " шах": 7776,
    "),  -": 7777,
    ",  ре": 7778,
    ",  -ую,  -уєщ": 7779,
    ",  -я,  с. ": 7780,
    ",  нед": 7781,
    ",  пе-": 7782,
    ",  пошире": 7783,
    ",  пове": 7784,
    ",  поді": 7785,
    ",  прот": 7786,
    ",  се": 7787,
    ",  сл": 7788,
    ",  см": 7789,
    ",  спі": 7790,
    ",  утворе": 7791,
    ",  фор": 7792,
    ",  що  ви¬ ": 7793,
    ",  що  означає": 7794,
    ",  яка \n": 7795,
    ",  яке  ": 7796,
    ",  із": 7797,
    "-юєш": 7798,
    ". розм.  ": 7799,
    ".  Який \n": 7800,
    ".  1.  Який": 7801,
    ".  1.  Прикм. ": 7802,
    ".  2.  Ч": 7803,
    ".  Зменш.": 7804,
    ".  Мо": 7805,
    ".  При¬": 7806,
    ".  Приміщення": 7807,
    ".  Робити  ": 7808,
    ".  Частина": 7809,
    ".).": 7810,
    ".,  к": 7811,
    "05  —": 7812,
    "000": 7813,
    "1,  2  знач.)": 7814,
    ";  -увати, ": 7815,
    ";  над": 7816,
    ";  спо": 7817,
    "]  ": 7818,
    "]. \n\n": 7819,
    "^ьний,  -а,  -е": 7820,
    "¬ вання": 7821,
    "¬ ві": 7822,
    "¬ \n\nФ": 7823,
    "Ііо  —": 7824,
    "Зага": 7825,
    "Н,  -у,  ч": 7826,
    "ПЕТ": 7827,
    "РАМ": 7828,
    "Сталі": 7829,
    "авець": 7830,
    "аків": 7831,
    "аналіз": 7832,
    "безпосеред": 7833,
    "бі ": 7834,
    "в. \n\n": 7835,
    "вний ": 7836,
    "вома": 7837,
    "вага": 7838,
    "ва \n": 7839,
    "вантажів": 7840,
    "віри": 7841,
    "відб": 7842,
    "відомості": 7843,
    "деякі": 7844,
    "джується": 7845,
    "дити,  ": 7846,
    "доблення": 7847,
    "дяки": 7848,
    "дянсь": 7849,
    "дійснюється": 7850,
    "е8  —": 7851,
    "еатра": 7852,
    "ей,  ": 7853,
    "екрет": 7854,
    "ердження": 7855,
    "еркви": 7856,
    "ерця": 7857,
    "займа": 7858,
    "замі": 7859,
    "зда": 7860,
    "землю": 7861,
    "зка": 7862,
    "зрі": 7863,
    "зі  знач": 7864,
    "ивного  ": 7865,
    "иків": 7866,
    "ифіка": 7867,
    "ично  ": 7868,
    "и,  п": 7869,
    "ймає": 7870,
    "йні": 7871,
    "к,  -а,  ч.,  кл.  -у": 7872,
    "кансь": 7873,
    "ка п": 7874,
    "ка,  -и,  ж.": 7875,
    "корис¬": 7876,
    "кульп": 7877,
    "лері": 7878,
    "лошення": 7879,
    "ланд": 7880,
    "ланц": 7881,
    "лізм": 7882,
    "міста": 7883,
    "норі": 7884,
    "на  ф": 7885,
    "на, \n": 7886,
    "ний,  -а, \n": 7887,
    "них  ф": 7888,
    "ности ": 7889,
    "ніх  ": 7890,
    "о він ": 7891,
    "обри": 7892,
    "овнова": 7893,
    "ого ви": 7894,
    "оди,  ": 7895,
    "одат": 7896,
    "ості,": 7897,
    "пост": 7898,
    "ру;  -": 7899,
    "рукова": 7900,
    "рхній  ": 7901,
    "ерхній  ": 7902,
    "рами": 7903,
    "ратор": 7904,
    "ресу": 7905,
    "роблен": 7906,
    "роду  ": 7907,
    "род. ": 7908,
    "руках": 7909,
    "рядок": 7910,
    "рів ": 7911,
    "савець": 7912,
    "свя": 7913,
    "сели": 7914,
    "снування": 7915,
    "сність": 7916,
    "середині": 7917,
    "системі": 7918,
    "справі": 7919,
    "стану": 7920,
    "степ": 7921,
    "стовб": 7922,
    "стріль": 7923,
    "тані": 7924,
    "товки": 7925,
    "т.  —": 7926,
    "ти,  о": 7927,
    "тканини": 7928,
    "у  з  ": 7929,
    "управління": 7930,
    "ухатися": 7931,
    "уці": 7932,
    "у.  4.  ": 7933,
    "увати  щось": 7934,
    "х \n\n": 7935,
    "хилення": 7936,
    "ці з": 7937,
    "шось": 7938,
    "ю  для": 7939,
    "ів  у  ": 7940,
    "ігі": 7941,
    "іоп  —": 7942,
    "ї  діяльності": 7943,
    "ї  з": 7944,
    "ї  сили": 7945,
    "\nвати  ": 7946,
    "\nсвіт": 7947,
    "\nчення": 7948,
    "\nщось": 7949,
    "\nякий": 7950,
    "\n\nо": 7951,
    " \nлі": 7952,
    " -е.  Прикм.  до  ": 7953,
    " ПЛ": 7954,
    " а  ": 7955,
    " зва": 7956,
    " зроби": 7957,
    " квіт": 7958,
    " керів": 7959,
    " слова": 7960,
    " цьому": 7961,
    " яка ": 7962,
    " \n\nб": 7963,
    "  (звич.  ": 7964,
    "  боротьб": 7965,
    "  до  по": 7966,
    "  еп": 7967,
    "  екс": 7968,
    "  захисту  ": 7969,
    "  корі": 7970,
    "  кого-н": 7971,
    "  культур": 7972,
    "  мова": 7973,
    "  мод": 7974,
    "  морсь": 7975,
    "  насіння": 7976,
    "  неперех": 7977,
    "  охоро": 7978,
    "  органи": 7979,
    "  переп": 7980,
    "  плод": 7981,
    "  пояс": 7982,
    "  прич": 7983,
    "  півде": 7984,
    "  п’єс": 7985,
    "  роз¬ ": 7986,
    "  світл": 7987,
    "  трав": 7988,
    "  уда": 7989,
    "  у  вод": 7990,
    "  частина ": 7991,
    "  якихось": 7992,
    "  ін¬": 7993,
    "  інте": 7994,
    "  існ": 7995,
    "  —  1": 7996,
    "  •  1 4": 7997,
    " -а,  -е.  Прикм.  до  ": 7998,
    " бан": 7999,
    " вас": 8000,
    " дале": 8001,
    " листопад": 8002,
    " мене ": 8003,
    " нед": 8004,
    " небе": 8005,
    " прод": 8006,
    " про т": 8007,
    ")  на": 8008,
    ", \nне": 8009,
    ", ня": 8010,
    ",  л": 8011,
    ",  ї": 8012,
    ",  -аєщ": 8013,
    ",  в  якому  ": 8014,
    ",  вз": 8015,
    ",  власти": 8016,
    ",  зне": 8017,
    ",  зас": 8018,
    ",  кол": 8019,
    ",  му": 8020,
    ",  по¬ \n": 8021,
    ",  присл.,  розм.  ": 8022,
    ",  склад": 8023,
    ",  част": 8024,
    ",  чого-н.  ": 8025,
    ",  ід": 8026,
    "-пестл.  до  ": 8027,
    ". \nре": 8028,
    ". ро": 8029,
    ".  Фахівець": 8030,
    ".  1.  Ста": 8031,
    ".  2.  збірн.  ": 8032,
    ".  2.  іст": 8033,
    ".  2.  Сукупність": 8034,
    ".  Бе": 8035,
    ".  Д.  ": 8036,
    ".  Зменш,  до  ": 8037,
    ".  При¬ ": 8038,
    ".  Розд": 8039,
    ".  Те,  що  ": 8040,
    "5  —  ": 8041,
    ";  -то": 8042,
    ";  без": 8043,
    ";  використовується": 8044,
    "[англ.  ": 8045,
    "].  Ко": 8046,
    "].  Спо": 8047,
    "§гар1": 8048,
    "¬ для": 8049,
    "¬ ро": 8050,
    "Бога": 8051,
    "ВАЛ": 8052,
    "ЕНЦ": 8053,
    "ОШ": 8054,
    "ПАН": 8055,
    "СЕР": 8056,
    "Т,  -у,  ч": 8057,
    "а  допомогою": 8058,
    "а  за": 8059,
    "акі ": 8060,
    "ати,  -аю,  -аєш": 8061,
    "ас.  д": 8062,
    "ба,": 8063,
    "батьків": 8064,
    "блиску": 8065,
    "бірж": 8066,
    "в  о": 8067,
    "в  та": 8068,
    "вердження": 8069,
    "важк": 8070,
    "вами": 8071,
    "вартість": 8072,
    "вати \n": 8073,
    "велич": 8074,
    "г  — ": 8075,
    "гування": 8076,
    "днорід": 8077,
    "дування": 8078,
    "далі": 8079,
    "давньоє": 8080,
    "данч": 8081,
    "елів": 8082,
    "еться ": 8083,
    "еріод": 8084,
    "жливо": 8085,
    "жінки": 8086,
    "и.  4.  ": 8087,
    "ивіз": 8088,
    "иція": 8089,
    "ищення": 8090,
    "истий,  -а,  -е": 8091,
    "йного  ": 8092,
    "йсько": 8093,
    "йського  ": 8094,
    "й  д": 8095,
    "кодження": 8096,
    "ку. \n\n": 8097,
    "ка з": 8098,
    "ка,  -и,  ж.,  дав., ": 8099,
    "като": 8100,
    "кати ": 8101,
    "колір": 8102,
    "кри¬": 8103,
    "ків, ": 8104,
    "кій  Р": 8105,
    "лужит": 8106,
    "ладу": 8107,
    "мора": 8108,
    "маг": 8109,
    "маса": 8110,
    "ми  тощ": 8111,
    "му  т": 8112,
    "міно": 8113,
    "нагол.  на  ": 8114,
    "напи": 8115,
    "напів": 8116,
    "не  ви": 8117,
    "небе": 8118,
    "ний  до": 8119,
    "ний,  -а,  -е.  Який  ": 8120,
    "ний. \n": 8121,
    "ник.": 8122,
    "о-н.  2.  ": 8123,
    "о8  — ": 8124,
    "о;  ~": 8125,
    "оворот": 8126,
    "одить  до  ": 8127,
    "оловний  ": 8128,
    "олосся": 8129,
    "ом  на": 8130,
    "ому-н.  ": 8131,
    "онтро": 8132,
    "оніз": 8133,
    "очки": 8134,
    "ощо  ": 8135,
    "овий, ": 8136,
    "овий,  -а,  -е.": 8137,
    "органів": 8138,
    "організації": 8139,
    "ород": 8140,
    "п  — \n": 8141,
    "пли": 8142,
    "повіді": 8143,
    "рда": 8144,
    "рності": 8145,
    "ру.  2.  ": 8146,
    "рада": 8147,
    "ра¬ \n": 8148,
    "рахо": 8149,
    "розм.,  ": 8150,
    "розпо": 8151,
    "розташова": 8152,
    "роско": 8153,
    "роскоп": 8154,
    "рішу": 8155,
    "скоро": 8156,
    "скри": 8157,
    "сним": 8158,
    "сного  ": 8159,
    "спрямова": 8160,
    "станція": 8161,
    "становить": 8162,
    "стин": 8163,
    "стою": 8164,
    "ступає": 8165,
    "ський ": 8166,
    "т .  ін.  ": 8167,
    " т .  ін.  ": 8168,
    "тист": 8169,
    "ти  ког": 8170,
    "трапля": 8171,
    "у про": 8172,
    "устрі": 8173,
    "ухва": 8174,
    "ушувати  ": 8175,
    "ує  на": 8176,
    "фекцій": 8177,
    "фері": 8178,
    "функці": 8179,
    "філосо": 8180,
    "хильність": 8181,
    "часно  ": 8182,
    "чи на ": 8183,
    "чуватися": 8184,
    "шись": 8185,
    "щова": 8186,
    "щіль": 8187,
    "ю  з": 8188,
    "ю,  -уєш": 8189,
    "ючи  з": 8190,
    "я  —": 8191,
    "єць": 8192,
    "і  та": 8193,
    "і на": 8194,
    "ілю": 8195,
    "іння ": 8196,
    "ї-н.  ": 8197,
    "\n4.  ": 8198,
    "\nхто  ": 8199,
    " \nПри": 8200,
    " \nжа": 8201,
    " АН": 8202,
    " боротьб": 8203,
    " вмі": 8204,
    " його  ": 8205,
    " особливо": 8206,
    " участь": 8207,
    " членів": 8208,
    " і ви": 8209,
    " \n\n(": 8210,
    " \n\nІ": 8211,
    "       ": 8212,
    "                        ": 8213,
    "  (у  1": 8214,
    "  бок": 8215,
    "  будо": 8216,
    "  будівель": 8217,
    "  в  о": 8218,
    "  водой": 8219,
    "  відб": 8220,
    "  від¬ \n": 8221,
    "  групи  ": 8222,
    "  для \n\n": 8223,
    "  до  к": 8224,
    "  елем": 8225,
    "  елеме": 8226,
    "  елемен": 8227,
    "  зат": 8228,
    "  запобі": 8229,
    "  звучання": 8230,
    "  знаряддя": 8231,
    "  золота": 8232,
    "  криста": 8233,
    "  маш": 8234,
    "  механіч": 8235,
    "  мон": 8236,
    "  м’яч": 8237,
    "  населення": 8238,
    "  нев": 8239,
    "  небез": 8240,
    "  обч": 8241,
    "  обчи": 8242,
    "  однорід": 8243,
    "  питання": 8244,
    "  пита": 8245,
    "  плос": 8246,
    "  побу": 8247,
    "  поезі": 8248,
    "  послу": 8249,
    "  публі": 8250,
    "  пісня": 8251,
    "  скоро": 8252,
    "  середньовіччя": 8253,
    "  скл": 8254,
    "  спо¬": 8255,
    "  суп": 8256,
    "  тим": 8257,
    "  тог": 8258,
    "  тощо. \n\n": 8259,
    "  тощо). ": 8260,
    "  тілі": 8261,
    "  уг": 8262,
    "  утво": 8263,
    "  холо": 8264,
    "  цер": 8265,
    "  чином": 8266,
    "  швид": 8267,
    "  ши": 8268,
    "  ще": 8269,
    "  яб": 8270,
    "  яскра": 8271,
    "  ім’я": 8272,
    "  із  за": 8273,
    "  ісп": 8274,
    "  •  3": 8275,
    "  •  8": 8276,
    " ваш": 8277,
    " вистав": 8278,
    " кап": 8279,
    " пластово": 8280,
    " проц": 8281,
    ")  для": 8282,
    ")  у  ": 8283,
    ", \n1.  ": 8284,
    ", \nщо  ": 8285,
    ", ре": 8286,
    ",  перев.  ": 8287,
    ",  род": 8288,
    ",  -а,  ч.  [голл.  ": 8289,
    ",  -и,  ж., ": 8290,
    ",  -но": 8291,
    ",  -ого": 8292,
    ",  зі": 8293,
    ",  книжн": 8294,
    ",  тех": 8295,
    ",  у  знач": 8296,
    ",  фот": 8297,
    ",  що-": 8298,
    ",  що  об": 8299,
    ",  який  о": 8300,
    "-5Ш": 8301,
    "-і,  ж": 8302,
    ". 3.  ": 8303,
    ".  1.  Мі": 8304,
    ".  1.  Пере": 8305,
    ".  [ан": 8306,
    ".  [лат.  у": 8307,
    ".  Міс": 8308,
    "08  — ": 8309,
    "4  знач.)": 8310,
    ";  роз": 8311,
    ";  -л": 8312,
    ";  -ський,  -а,  -е": 8313,
    "========": 8314,
    "].  Вели": 8315,
    "¬ \nний  ": 8316,
    "¬ ні": 8317,
    "¬ \n\nЗ": 8318,
    "ІІ8": 8319,
    "Андрій": 8320,
    "ВАЦ": 8321,
    "ИТИ": 8322,
    "КУЛ": 8323,
    "МАН": 8324,
    "НИК,  -а,  ч": 8325,
    "НЙЙ,  -а,  -е": 8326,
    "Після": 8327,
    "Робітник": 8328,
    "Ь,  -н": 8329,
    "або \n\n": 8330,
    "аві": 8331,
    "акі": 8332,
    "акий,  як": 8333,
    "бога": 8334,
    "ба¬ ": 8335,
    "бале": 8336,
    "бача": 8337,
    "біж": 8338,
    "вова": 8339,
    "впорядкова": 8340,
    "вай": 8341,
    "ваю": 8342,
    "вадрат": 8343,
    "вия": 8344,
    "виділя": 8345,
    "всьо": 8346,
    "відс": 8347,
    "відм.,  с": 8348,
    "г  ": 8349,
    "гою  ": 8350,
    "гада": 8351,
    "гатив": 8352,
    "говір": 8353,
    "громадя": 8354,
    "гірських": 8355,
    "дінки": 8356,
    "до  п": 8357,
    "евого  ": 8358,
    "еки": 8359,
    "ести ": 8360,
    "електрич": 8361,
    "жува": 8362,
    "жарг": 8363,
    "зації": 8364,
    "зберіга": 8365,
    "зрозумі": 8366,
    "зі  сл.  «": 8367,
    "илері": 8368,
    "йний  ": 8369,
    "йня": 8370,
    "йому  ": 8371,
    "йськ": 8372,
    "й  тварин": 8373,
    "ки \n": 8374,
    "ки д": 8375,
    "ки і": 8376,
    "ким-н": 8377,
    "країн": 8378,
    "крім": 8379,
    "лений ": 8380,
    "ланцю": 8381,
    "лежат": 8382,
    "ли з": 8383,
    "лю¬ \n": 8384,
    "люнок": 8385,
    "лян": 8386,
    "лізації": 8387,
    "літак": 8388,
    "мена": 8389,
    "ми.  3.  ": 8390,
    "матичн": 8391,
    "мі ": 8392,
    "міще": 8393,
    "н  з": 8394,
    "н.  3.  ": 8395,
    "наз": 8396,
    "на  ш": 8397,
    "несе": 8398,
    "ний  сп": 8399,
    "никає  в": 8400,
    "ним.": 8401,
    "ними \n": 8402,
    "них з": 8403,
    "ництво  ": 8404,
    "нка.": 8405,
    "ну  с": 8406,
    "овлена": 8407,
    "огля": 8408,
    "ожник": 8409,
    "олошення": 8410,
    "ом;  ~": 8411,
    "ору,  ": 8412,
    "орушення": 8413,
    "овністю": 8414,
    "ого  с": 8415,
    "огів": 8416,
    "ом.  3.  ": 8417,
    "органа": 8418,
    "організація": 8419,
    "оризо": 8420,
    "пала": 8421,
    "пе  —": 8422,
    "перо": 8423,
    "пори": 8424,
    "предметі": 8425,
    "приз": 8426,
    "рна  ": 8427,
    "ртатися": 8428,
    "руки": 8429,
    "ран¬": 8430,
    "рганіч": 8431,
    "резе": 8432,
    "рова": 8433,
    "рож": 8434,
    "робоч": 8435,
    "роботі": 8436,
    "розм.  П": 8437,
    "ря¬": 8438,
    "самі": 8439,
    "середовища": 8440,
    "ства ": 8441,
    "ство, ": 8442,
    "стил": 8443,
    "ську ": 8444,
    "т  — ": 8445,
    "тари": 8446,
    "телі": 8447,
    "тира": 8448,
    "тичного  ": 8449,
    "тових": 8450,
    "ть  у": 8451,
    "ть  як": 8452,
    "ти  не": 8453,
    "ти  щ": 8454,
    "ти  кого": 8455,
    "ти  кого-": 8456,
    "ти,  по": 8457,
    "у,  яка": 8458,
    "у;  с": 8459,
    "учне": 8460,
    "увань": 8461,
    "увати.": 8462,
    "фіо": 8463,
    "фізіол.  ": 8464,
    "х  ви": 8465,
    "хгал": 8466,
    "ховий  ": 8467,
    "хоплення": 8468,
    "хлібо": 8469,
    "церкви": 8470,
    "цюва": 8471,
    "чках": 8472,
    "щастя": 8473,
    "щий  ": 8474,
    "що ви": 8475,
    "що на": 8476,
    "ь  від": 8477,
    "ь  по": 8478,
    "ю. \n\n": 8479,
    "як  ": 8480,
    "ється  на": 8481,
    "і т.  і": 8482,
    "і;  -": 8483,
    "ійма": 8484,
    "іншого  ": 8485,
    "ї  ви": 8486,
    "ївсь": 8487,
    "’яви": 8488,
    "\n-а,  ч.,  кл.  -": 8489,
    "\nроб": 8490,
    "\nсклад": 8491,
    "\nста": 8492,
    " \n4.  ": 8493,
    " \nба": 8494,
    " \nним": 8495,
    " Пра": 8496,
    " була ": 8497,
    " вати": 8498,
    " дося": 8499,
    " дєд": 8500,
    " ми  ": 8501,
    " цього ": 8502,
    " шлях": 8503,
    " який ": 8504,
    " \n\nФ": 8505,
    "  Г": 8506,
    "  риба": 8507,
    "  ша": 8508,
    "  (або  ": 8509,
    "  бого": 8510,
    "  ве¬ ": 8511,
    "  взу": 8512,
    "  взут": 8513,
    "  взутт": 8514,
    "  вит": 8515,
    "  всіх": 8516,
    "  дер": 8517,
    "  дерево": 8518,
    "  до  і": 8519,
    "  духо": 8520,
    "  діяльність": 8521,
    "  земл": 8522,
    "  кер": 8523,
    "  коня": 8524,
    "  маю": 8525,
    "  на  ф": 8526,
    "  напо": 8527,
    "  небезп": 8528,
    "  од¬": 8529,
    "  осо¬": 8530,
    "  план": 8531,
    "  п’я": 8532,
    "  пат": 8533,
    "  папери": 8534,
    "  пишу": 8535,
    "  простір": 8536,
    "  прямо": 8537,
    "  піз": 8538,
    "  свого  ": 8539,
    "  ссавців": 8540,
    "  ст.  —": 8541,
    "  сучас": 8542,
    "  твор": 8543,
    "  удар": 8544,
    "  умови": 8545,
    "  церк": 8546,
    "  части¬ ": 8547,
    "  чот": 8548,
    "  чого-н.;": 8549,
    "  ябл": 8550,
    "  якусь": 8551,
    "  і т .  ін.).": 8552,
    "  інструменті": 8553,
    "  інфекцій": 8554,
    "  іншої": 8555,
    "  їхні": 8556,
    " на по": 8557,
    " на селі": 8558,
    " не по": 8559,
    " нічо": 8560,
    " проми": 8561,
    " справі ": 8562,
    ")  в": 8563,
    ").  4.  ": 8564,
    ",\n\n": 8565,
    ", \n\nт": 8566,
    ",  -б": 8567,
    ",  -а,  ч.,  кл. \n": 8568,
    ",  -а,  ч.,  кл.  -е  [англ.  ": 8569,
    ",  -у,  ч.  [а": 8570,
    ",  -ую,  -уєш,  перех": 8571,
    ",  -уєш,": 8572,
    ",  нас": 8573,
    ",  неп": 8574,
    ",  образ.  —": 8575,
    ",  осн": 8576,
    ",  пер": 8577,
    ",  сприч": 8578,
    ",  що  ут": 8579,
    ",  що  утв": 8580,
    ",  що  утво": 8581,
    "-а,  -е.  Прикм.  до  ": 8582,
    ". \nпри": 8583,
    ". \nу  ": 8584,
    ". \n\nо": 8585,
    ". \n\n\n\n9": 8586,
    ".  1. \n": 8587,
    ".  1.  А": 8588,
    ".  1.  Ш": 8589,
    ".  1.  Об": 8590,
    ".  1.  Пі": 8591,
    ".  2.  Який": 8592,
    ".  2.  Те  саме": 8593,
    ".  3.  П": 8594,
    ".  3.  м": 8595,
    ".  [араб": 8596,
    ".  [від  пріз": 8597,
    ".  [лат.  іп": 8598,
    ".  [тю": 8599,
    ".  [тюр": 8600,
    ".  Ва": 8601,
    ".  Роби": 8602,
    ". напр.:": 8603,
    ".,  т": 8604,
    ".,  кл.  -о  ": 8605,
    "0§": 8606,
    "1,  2": 8607,
    ";  ш": 8608,
    ";  що  ": 8609,
    ";  -он": 8610,
    ";  -ів": 8611,
    ";  го": 8612,
    ";  призначений  для": 8613,
    ";  те": 8614,
    "III": 8615,
    "XVI  ст": 8616,
    "].  Ж": 8617,
    "].  1.  Б": 8618,
    "].  1.  По": 8619,
    "].  Пер": 8620,
    "].  Розділ": 8621,
    "].  Ста": 8622,
    "¬ \nється": 8623,
    "¬ \n\nШ": 8624,
    "Іо  —": 8625,
    "Італі": 8626,
    "ІСТЬ,  -ості,  ж": 8627,
    "ЕНЬ": 8628,
    "И,  -ів,  мн": 8629,
    "ЙБ": 8630,
    "КОЛ": 8631,
    "ОЖ": 8632,
    "ПРЙ": 8633,
    "Польщ": 8634,
    "ТУР": 8635,
    "УЄ": 8636,
    "ЦЕНИЙ,  -а,  -е": 8637,
    "Ш8  —": 8638,
    "аду  ": 8639,
    "адянсь": 8640,
    "Радянсь": 8641,
    "алів": 8642,
    "амери": 8643,
    "анні": 8644,
    "астосовується": 8645,
    "алізм": 8646,
    "блів": 8647,
    "бне": 8648,
    "бова": 8649,
    "ба, ": 8650,
    "бувають": 8651,
    "білого  ": 8652,
    "в\n\n": 8653,
    "вних  ": 8654,
    "вові": 8655,
    "вчання": 8656,
    "вих  ": 8657,
    "виявля": 8658,
    "винувач": 8659,
    "вищи": 8660,
    "влять": 8661,
    "відношення": 8662,
    "вічн": 8663,
    "г  — \n": 8664,
    "гова": 8665,
    "голошення": 8666,
    "га ": 8667,
    "дба": 8668,
    "дера": 8669,
    "дивід": 8670,
    "дерев’я": 8671,
    "для \n": 8672,
    "е.  1.  Прикм.  до  ": 8673,
    "еалі": 8674,
    "деалі": 8675,
    "ебі": 8676,
    "евих": 8677,
    "еволю": 8678,
    "екції": 8679,
    "ешка": 8680,
    "жний ": 8681,
    "жування": 8682,
    "живається": 8683,
    "зація": 8684,
    "зики": 8685,
    "зова": 8686,
    "зібра": 8687,
    "и не ": 8688,
    "ирати": 8689,
    "кне": 8690,
    "кас": 8691,
    "ка,  -и,  ж.,": 8692,
    "ками,": 8693,
    "ками. ": 8694,
    "ки¬": 8695,
    "кладання": 8696,
    "корис¬ ": 8697,
    "користову¬ ": 8698,
    "критий": 8699,
    "ку  (": 8700,
    "кій  кількості": 8701,
    "кіль¬": 8702,
    "кількістю": 8703,
    "кінців": 8704,
    "ла. ": 8705,
    "либ": 8706,
    "лиша": 8707,
    "льністю": 8708,
    "людини  ": 8709,
    "люют": 8710,
    "ліній": 8711,
    "м  по": 8712,
    "медицині": 8713,
    "мина": 8714,
    "м.  П": 8715,
    "математи": 8716,
    "має  форму  ": 8717,
    "нових": 8718,
    "нові ": 8719,
    "носити  ": 8720,
    "нського ": 8721,
    "нула": 8722,
    "належить": 8723,
    "напис": 8724,
    "неперех.,  ": 8725,
    "нерал": 8726,
    "ний)": 8727,
    "ний,  -а,  -е. \n": 8728,
    "ників. ": 8729,
    "нка, ": 8730,
    "но  в": 8731,
    "нять": 8732,
    "ніх ": 8733,
    "о,  -а,  с": 8734,
    "ове  ": 8735,
    "оголь": 8736,
    "коголь": 8737,
    "одіння": 8738,
    "ополі": 8739,
    "орний  ": 8740,
    "очення": 8741,
    "ою  і": 8742,
    "ою;  -": 8743,
    "ої  або  ": 8744,
    "ої  діяльності": 8745,
    "обладна": 8746,
    "овий \n": 8747,
    "окреми": 8748,
    "пам’ят": 8749,
    "повнова": 8750,
    "проз": 8751,
    "підкрес": 8752,
    "працю": 8753,
    "предмета": 8754,
    "прим": 8755,
    "прия": 8756,
    "ртати  ": 8757,
    "ручення": 8758,
    "рцій": 8759,
    "ран¬ ": 8760,
    "речо": 8761,
    "рої": 8762,
    "робота": 8763,
    "родів": 8764,
    "розум": 8765,
    "рік": 8766,
    "ріве": 8767,
    "рівен": 8768,
    "різ¬": 8769,
    "різних  ": 8770,
    "свій ": 8771,
    "сесвіт": 8772,
    "скраво-": 8773,
    "собів": 8774,
    "сприч": 8775,
    "ста  ": 8776,
    "ставл": 8777,
    "стаді": 8778,
    "створення": 8779,
    "ське ": 8780,
    "твору  ": 8781,
    "тж": 8782,
    "тови": 8783,
    "ти  до  ": 8784,
    "тися  на": 8785,
    "тися \n": 8786,
    "трив": 8787,
    "у не": 8788,
    "угли": 8789,
    "установ": 8790,
    "уху  ": 8791,
    "у  к": 8792,
    "уються ": 8793,
    "фіц": 8794,
    "фізіо": 8795,
    "х  за": 8796,
    "хірургі": 8797,
    "цей  ": 8798,
    "цьког": 8799,
    "цького": 8800,
    "цями": 8801,
    "чості": 8802,
    "частину  ": 8803,
    "шлю": 8804,
    "ька ": 8805,
    "ю  в": 8806,
    "ю  —": 8807,
    "я  (": 8808,
    "я  в": 8809,
    "яскра": 8810,
    "є  від": 8811,
    "іночий  ": 8812,
    "ійській  ": 8813,
    "ієприкм. ": 8814,
    "їй  ": 8815,
    "\nвласти": 8816,
    "\nзна": 8817,
    "\nст": 8818,
    " \nроб": 8819,
    " \nсклад": 8820,
    " \nякий": 8821,
    " Коли ": 8822,
    " Сталі": 8823,
    " н\n\n": 8824,
    " після": 8825,
    " яких": 8826,
    " яких ": 8827,
    " \n\n2.  ": 8828,
    "  цього  ": 8829,
    "  (к": 8830,
    "  (у ": 8831,
    "  ам": 8832,
    "  апарат": 8833,
    "  або  ін": 8834,
    "  бере": 8835,
    "  безпосеред": 8836,
    "  бол": 8837,
    "  велико": 8838,
    "  величи": 8839,
    "  верш": 8840,
    "  взуття": 8841,
    "  вим": 8842,
    "  властив": 8843,
    "  груд": 8844,
    "  доре": 8845,
    "  до  д": 8846,
    "  електро": 8847,
    "  звання": 8848,
    "  зворот": 8849,
    "  захв": 8850,
    "  збира": 8851,
    "  земля": 8852,
    "  зме": 8853,
    "  зна¬ ": 8854,
    "  зі \n": 8855,
    "  кни": 8856,
    "  кого-,  чого-н.": 8857,
    "  має  ": 8858,
    "  офіцій": 8859,
    "  об¬ \n": 8860,
    "  певними  ": 8861,
    "  перебуває": 8862,
    "  перес": 8863,
    "  перевезення": 8864,
    "  пил": 8865,
    "  плода": 8866,
    "  подраз": 8867,
    "  події": 8868,
    "  поті": 8869,
    "  пропо": 8870,
    "  протил": 8871,
    "  протиле": 8872,
    "  протяго": 8873,
    "  свяще": 8874,
    "  селя": 8875,
    "  сигна": 8876,
    "  спо¬ ": 8877,
    "  схо": 8878,
    "  темн": 8879,
    "  темно": 8880,
    "  тощо;": 8881,
    "  установ": 8882,
    "  утворе": 8883,
    "  утворення": 8884,
    "  уявлення": 8885,
    "  у  ви": 8886,
    "  числ": 8887,
    "  чому-": 8888,
    "  чому-н": 8889,
    "  чоти": 8890,
    "  як  ": 8891,
    "  і к": 8892,
    "  інозем": 8893,
    "  ґр": 8894,
    "  ґру": 8895,
    " вам": 8896,
    " вар": 8897,
    " міц": 8898,
    " не було": 8899,
    " пластунів ": 8900,
    " револю": 8901,
    " рік": 8902,
    " старш": 8903,
    " шахт": 8904,
    ", \nва": 8905,
    ", яка ": 8906,
    ",  -^": 8907,
    ",  -а,  */.,  кл.  -": 8908,
    ",  -а,  ч.  [т": 8909,
    ",  -аю,": 8910,
    ",  -ов": 8911,
    ",  -я,  с.  Дія  зі  знач": 8912,
    ",  ав": 8913,
    ",  гол": 8914,
    ",  за  допомогою": 8915,
    ",  на¬": 8916,
    ",  не¬": 8917,
    ",  призначе": 8918,
    ",  ти": 8919,
    ",  фото": 8920,
    ". \nвід": 8921,
    ". пере": 8922,
    ". \n\nШ": 8923,
    ".  1.  перех": 8924,
    ".  1.  Дія": 8925,
    ".  2.  Який  стос": 8926,
    ".  2.  пе¬": 8927,
    ".  2.  перем": 8928,
    ".  [франц": 8929,
    ".  [грец.  а": 8930,
    ".  І.  -": 8931,
    ".  Без": 8932,
    ".  Особа": 8933,
    ".  Пристрій  для": 8934,
    ".  Той,  хто ": 8935,
    ".  сп": 8936,
    "1о§08  —  вчення": 8937,
    "; \n\n\n\n": 8938,
    ";  -п": 8939,
    ";  -с": 8940,
    ";  ~ція,  -ї,  ж": 8941,
    "].  1.  Ро": 8942,
    "].  Рід": 8943,
    "§гар1і": 8944,
    "¬ \nв  ": 8945,
    "¬ ПР": 8946,
    "¬ га": 8947,
    "¬ ри": 8948,
    "ІЙ,  -ю,  ч": 8949,
    "ЇД": 8950,
    "ЇЗМ": 8951,
    "ВАТ": 8952,
    "ЕРЦ": 8953,
    "К||": 8954,
    "КАТ": 8955,
    "КЕР": 8956,
    "КА,  -и,  Ж.,  дав.,  м.  -ці": 8957,
    "ОГО": 8958,
    "ОРТ": 8959,
    "УЖ": 8960,
    "УСТ": 8961,
    "Христа": 8962,
    "ЦЬ,  -н": 8963,
    "ЕЦЬ,  -н": 8964,
    "а не": 8965,
    "айстер": 8966,
    "анів": 8967,
    "аються": 8968,
    "бливості": 8969,
    "борі": 8970,
    "бюро": 8971,
    "влене": 8972,
    "вне ": 8973,
    "вний,  -а,  -е": 8974,
    "вре": 8975,
    "ва. ": 8976,
    "велике": 8977,
    "виконання": 8978,
    "виробництва": 8979,
    "висок": 8980,
    "ворих": 8981,
    "візе": 8982,
    "вітря": 8983,
    "го на": 8984,
    "гуля": 8985,
    "га  —": 8986,
    "города": 8987,
    "грає": 8988,
    "двома": 8989,
    "джувати  ": 8990,
    "дидат": 8991,
    "дума": 8992,
    "діль": 8993,
    "дань": 8994,
    "екла": 8995,
    "ерма": 8996,
    "ертатися": 8997,
    "етра": 8998,
    "еш,  перех": 8999,
    "жнарод": 9000,
    "житті": 9001,
    "закінч": 9002,
    "и про": 9003,
    "ильно": 9004,
    "ин  ": 9005,
    "ин.  ": 9006,
    "ицій": 9007,
    "и,  з": 9008,
    "йснення": 9009,
    "й  та": 9010,
    "к  у  ": 9011,
    "к  і": 9012,
    "кудись": 9013,
    "ки  з": 9014,
    "кладач": 9015,
    "користання": 9016,
    "кри¬ ": 9017,
    "ку  то": 9018,
    "кінь": 9019,
    "л.,  ": 9020,
    "леним": 9021,
    "ладна": 9022,
    "лад  для": 9023,
    "ль ": 9024,
    "льод": 9025,
    "ліри": 9026,
    "м  за": 9027,
    "м,  що  ": 9028,
    "мий  ": 9029,
    "мсь": 9030,
    "магань": 9031,
    "майб": 9032,
    "має \n": 9033,
    "містить ": 9034,
    "м’яз": 9035,
    "нна ": 9036,
    "новий": 9037,
    "ношення": 9038,
    "нського  ": 9039,
    "ншення": 9040,
    "напо": 9041,
    "не  по": 9042,
    "не,": 9043,
    "необхід": 9044,
    "не  місце": 9045,
    "непо": 9046,
    "ний т": 9047,
    "ник. ": 9048,
    "них  на": 9049,
    "ння з": 9050,
    "но  до  ": 9051,
    "нська": 9052,
    "нятк": 9053,
    "ні  на": 9054,
    "нів. ": 9055,
    "о,  напр.:": 9056,
    "овга": 9057,
    "овжи": 9058,
    "овяз": 9059,
    "огу  ": 9060,
    "ом  (": 9061,
    "омісі": 9062,
    "онувати  ": 9063,
    "опові": 9064,
    "остри": 9065,
    "о...  +": 9066,
    "обіт": 9067,
    "онії": 9068,
    "орож": 9069,
    "орівню": 9070,
    "пада": 9071,
    "побач": 9072,
    "позба": 9073,
    "показ": 9074,
    "пчення": 9075,
    "перев.": 9076,
    "перен.  Ви": 9077,
    "пласт": 9078,
    "пласту": 9079,
    "прийма": 9080,
    "проб": 9081,
    "процес": 9082,
    "руга": 9083,
    "ра ": 9084,
    "роблено": 9085,
    "розс": 9086,
    "ряду": 9087,
    "рядів": 9088,
    "рівень": 9089,
    "сина": 9090,
    "ску  ": 9091,
    "слення": 9092,
    "сувач": 9093,
    "сі  ": 9094,
    "скав": 9095,
    "стй": 9096,
    "ста ": 9097,
    "ставі": 9098,
    "становле": 9099,
    "стоїт": 9100,
    "стриж": 9101,
    "стріл": 9102,
    "суспільства": 9103,
    "т. \n\n": 9104,
    "тання ": 9105,
    "терат": 9106,
    "тивна": 9107,
    "тичних": 9108,
    "товлений": 9109,
    "ту;  -": 9110,
    "ть  про": 9111,
    "тя  ": 9112,
    "тість": 9113,
    "тварини": 9114,
    "терап": 9115,
    "тися,  -": 9116,
    "товар": 9117,
    "трак": 9118,
    "тримується": 9119,
    "у нас ": 9120,
    "убір": 9121,
    "узичного  ": 9122,
    "уків": 9123,
    "упчення": 9124,
    "учний  ": 9125,
    "ущення": 9126,
    "ую,  -уєш": 9127,
    "уючись": 9128,
    "у  спо": 9129,
    "у,  -неш": 9130,
    "увався": 9131,
    "ува- ": 9132,
    "увато-": 9133,
    "український ": 9134,
    "філософ": 9135,
    "філософії": 9136,
    "х  —  ": 9137,
    "хані": 9138,
    "хлібоз": 9139,
    "хлібоза": 9140,
    "хлібозаг": 9141,
    "хлібозаго": 9142,
    "хлібозагот": 9143,
    "хожий  на": 9144,
    "чені": 9145,
    "чими  ": 9146,
    "чний \n": 9147,
    "ччині": 9148,
    "щений  ": 9149,
    "ють  як": 9150,
    "ями  ": 9151,
    "я,  -ї,  ж.": 9152,
    "єму  ": 9153,
    "і на ": 9154,
    "ів  —": 9155,
    "ійснення": 9156,
    "іко8  —": 9157,
    "іл  ": 9158,
    "ірка": 9159,
    "імічний  еле": 9160,
    "їзм,  -у,  ч": 9161,
    "\n-ці": 9162,
    "\n-ї,  ж": 9163,
    "\nйого  ": 9164,
    "\nкогось": 9165,
    " \nвати  ": 9166,
    " \nпра": 9167,
    " \nчення": 9168,
    " -ї,  ж": 9169,
    " Який  ": 9170,
    " вони": 9171,
    " добро": 9172,
    " живе": 9173,
    " людей": 9174,
    " ник": 9175,
    " них  ": 9176,
    " ні ": 9177,
    " плян": 9178,
    " та  ": 9179,
    " чи  ": 9180,
    "  Д": 9181,
    "  ро": 9182,
    "  (по": 9183,
    "  ас": 9184,
    "  англі": 9185,
    "  без ": 9186,
    "  будин": 9187,
    "  вх": 9188,
    "  виготовля": 9189,
    "  висок": 9190,
    "  вихо": 9191,
    "  волок": 9192,
    "  відті": 9193,
    "  гля": 9194,
    "  горі": 9195,
    "  дові": 9196,
    "  до  т": 9197,
    "  до  ч": 9198,
    "  дорог": 9199,
    "  друкар": 9200,
    "  думки": 9201,
    "  економі": 9202,
    "  знах": 9203,
    "  запо": 9204,
    "  засоби  ": 9205,
    "  захво": 9206,
    "  здоро": 9207,
    "  йо": 9208,
    "  коре": 9209,
    "  когось,  чогось": 9210,
    "  кому": 9211,
    "  май": 9212,
    "  межі": 9213,
    "  на  щ": 9214,
    "  органіч": 9215,
    "  основа": 9216,
    "  осо¬ ": 9217,
    "  особа,  яка": 9218,
    "  паразит": 9219,
    "  переш": 9220,
    "  перешк": 9221,
    "  подій": 9222,
    "  пра¬ ": 9223,
    "  правила": 9224,
    "  пров": 9225,
    "  продаж": 9226,
    "  прох": 9227,
    "  продукції": 9228,
    "  протягом": 9229,
    "  пізнання": 9230,
    "  спра": 9231,
    "  своїм": 9232,
    "  своїх": 9233,
    "  світло": 9234,
    "  смерт": 9235,
    "  техніч": 9236,
    "  тепл": 9237,
    "  того": 9238,
    "  тошо": 9239,
    "  трьох": 9240,
    "  у  формі": 9241,
    "  уча": 9242,
    "  харч": 9243,
    "  характе": 9244,
    "  честь": 9245,
    "  через  ": 9246,
    "  яко¬": 9247,
    "  якомусь": 9248,
    "  істот": 9249,
    "  і в": 9250,
    "  і п ": 9251,
    "  і р і": 9252,
    "  і т ": 9253,
    "  інформації": 9254,
    "  ґрун": 9255,
    " вих": 9256,
    " громадя": 9257,
    " знай": 9258,
    " знач.)": 9259,
    " неза": 9260,
    " роботі": 9261,
    "',  ": 9262,
    "(...) ": 9263,
    "(про ": 9264,
    "),  -аю,  -аєш": 9265,
    ", \nпри": 9266,
    ", \n\nП": 9267,
    ",  розм. ": 9268,
    ",  ста": 9269,
    ",  ю": 9270,
    ",  -ості,": 9271,
    ",  -я,": 9272,
    ",  -і,  Ж": 9273,
    ",  -ї, \n": 9274,
    ",  вч": 9275,
    ",  напр.,  ": 9276,
    ",  нео": 9277,
    ",  об’єдна": 9278,
    ",  спрямова": 9279,
    ",  це": 9280,
    ",  чер": 9281,
    ",  що  поля": 9282,
    ". \nабо  ": 9283,
    ". \nва": 9284,
    ".  1.  Про": 9285,
    ".  3.  Р": 9286,
    ".  [грец. \n": 9287,
    ".  [тюрк": 9288,
    ".  Вис": 9289,
    ".  Мет": 9290,
    ".  Ос": 9291,
    ".  Прикм.  до  п": 9292,
    ".  Ре": 9293,
    ".  Са": 9294,
    ".  ім": 9295,
    ";  -уватися": 9296,
    ";  ~к": 9297,
    ";  ~ся": 9298,
    ";  пов’яза": 9299,
    ";  су": 9300,
    ";  той,  хто  ": 9301,
    "].  1. \n": 9302,
    "¬ \nма": 9303,
    "¬ го  ": 9304,
    "¬ да": 9305,
    "¬ пере": 9306,
    "¬ \n\nТ": 9307,
    "І0§": 9308,
    "АРД": 9309,
    "Брит": 9310,
    "Бути  ": 9311,
    "ВАН": 9312,
    "ВИЙ,  -а,  -е": 9313,
    "Греції": 9314,
    "ЙВНИЙ,  -а,  -е": 9315,
    "КУР": 9316,
    "Коро": 9317,
    "Одна": 9318,
    "РАД": 9319,
    "Свят": 9320,
    "Який  не": 9321,
    "а  або  ": 9322,
    "астр": 9323,
    "альний  ": 9324,
    "арак¬": 9325,
    "бних": 9326,
    "бовяз": 9327,
    "бові": 9328,
    "брон": 9329,
    "більщ": 9330,
    "вести": 9331,
    "весь ": 9332,
    "ва,": 9333,
    "важко": 9334,
    "виконує": 9335,
    "виробництві": 9336,
    "вить": 9337,
    "вищу": 9338,
    "віа": 9339,
    "візер": 9340,
    "візеру": 9341,
    "вій¬": 9342,
    "вічно": 9343,
    "гнал": 9344,
    "горя": 9345,
    "гля¬": 9346,
    "го  —": 9347,
    "грец. \n": 9348,
    "дена": 9349,
    "дко  ": 9350,
    "досвід": 9351,
    "ду,  ч": 9352,
    "ді  ": 9353,
    "ділення": 9354,
    "данчи": 9355,
    "даюч": 9356,
    "державі": 9357,
    "дміністративно-": 9358,
    "до  чо": 9359,
    "е при": 9360,
    "ечення": 9361,
    "жджа": 9362,
    "змісту": 9363,
    "значи": 9364,
    "ивне": 9365,
    "ивність": 9366,
    "ижня": 9367,
    "ика ": 9368,
    "исувач": 9369,
    "ити  з": 9370,
    "и  (": 9371,
    "и,  о": 9372,
    "йської": 9373,
    "йти,  -": 9374,
    "ко,  ": 9375,
    "колю": 9376,
    "коня": 9377,
    "ку.  ": 9378,
    "категорі": 9379,
    "ки.\n": 9380,
    "кладе": 9381,
    "кладає": 9382,
    "ковим": 9383,
    "крові": 9384,
    "кіль¬ ": 9385,
    "лель": 9386,
    "ла з": 9387,
    "лежать": 9388,
    "ли в": 9389,
    "лиск": 9390,
    "льш": 9391,
    "льному  ": 9392,
    "лід  ": 9393,
    "механіч": 9394,
    "мовлю": 9395,
    "му.  2.  ": 9396,
    "музичного  ": 9397,
    "майбу": 9398,
    "ми  о": 9399,
    "ми,  по": 9400,
    "н  у  ": 9401,
    "н¬ \n\n": 9402,
    "ндрів": 9403,
    "ноцвіті": 9404,
    "ну;  ": 9405,
    "нферен": 9406,
    "на  або  ": 9407,
    "на д": 9408,
    "нагол": 9409,
    "неї": 9410,
    "не  має": 9411,
    "ний  на  ": 9412,
    "ник,  -а,  ч.,  кл.  -у.  ": 9413,
    "них \n\n": 9414,
    "ничо": 9415,
    "но  с": 9416,
    "ної  влад": 9417,
    "нський": 9418,
    "ні за": 9419,
    "нім ": 9420,
    "о¬ \nна": 9421,
    "овним": 9422,
    "овому  ": 9423,
    "ого на": 9424,
    "ожний": 9425,
    "оній": 9426,
    "опере": 9427,
    "ор  ": 9428,
    "орст": 9429,
    "отрі": 9430,
    "ої  сили": 9431,
    "ої  та": 9432,
    "ої  частини": 9433,
    "орош": 9434,
    "печення": 9435,
    "пере¬ ": 9436,
    "перед ": 9437,
    "предметів": 9438,
    "рним": 9439,
    "рухатися": 9440,
    "рці": 9441,
    "рав’яниста": 9442,
    "раке": 9443,
    "рахов": 9444,
    "рельєф": 9445,
    "резид": 9446,
    "рива": 9447,
    "рико": 9448,
    "роботу": 9449,
    "рово": 9450,
    "родини": 9451,
    "рос¬ \n": 9452,
    "рям": 9453,
    "ря¬ ": 9454,
    "ріг": 9455,
    "рім": 9456,
    "слов’я": 9457,
    "сово  ": 9458,
    "солю": 9459,
    "система": 9460,
    "спричиня": 9461,
    "створює": 9462,
    "стоїть": 9463,
    "стракт": 9464,
    "т,  -а,  ч.,  кл.  -е": 9465,
    "тавати  ": 9466,
    "те  —": 9467,
    "терна": 9468,
    "тива": 9469,
    "тиви": 9470,
    "тичний  ": 9471,
    "тника": 9472,
    "тів  ": 9473,
    "ти  св": 9474,
    "ти  сво": 9475,
    "тися  від": 9476,
    "тільки  одн.  ": 9477,
    "у  під": 9478,
    "у при": 9479,
    "у,  який  ": 9480,
    "ука ": 9481,
    "укових": 9482,
    "устріч": 9483,
    "учний": 9484,
    "у”": 9485,
    "у  або  ": 9486,
    "у  знач,  прикм": 9487,
    "ульс": 9488,
    "фізичних": 9489,
    "хати  ": 9490,
    "хили": 9491,
    "х  р": 9492,
    "цї": 9493,
    "ця,  ч": 9494,
    "ціа": 9495,
    "цілог": 9496,
    "цінних  паперів": 9497,
    "ції, ": 9498,
    "чих  ": 9499,
    "школи": 9500,
    "швидко  ": 9501,
    "щати  ": 9502,
    "щось ": 9503,
    "ю,  -юєш": 9504,
    "юю,  -юєш": 9505,
    "ю,  -ни": 9506,
    "юриди": 9507,
    "ється  на  ": 9508,
    "і. \n\n": 9509,
    "іа  —  ": 9510,
    "ідні": 9511,
    "ілля": 9512,
    "ієприкм.  па": 9513,
    "ієприкм.  пас": 9514,
    "ї  с": 9515,
    "\nред": 9516,
    "\nстос": 9517,
    "\nтра": 9518,
    "\nяких": 9519,
    " \n-ї,  ж": 9520,
    " \nред": 9521,
    " ,  ": 9522,
    " -и,  ж": 9523,
    " 1  •  ": 9524,
    " [грец.  ": 9525,
    " Лені": 9526,
    " влад": 9527,
    " е\n\n": 9528,
    " кий  ": 9529,
    " люб": 9530,
    " лік": 9531,
    " ліс": 9532,
    " м.  -ці": 9533,
    " почина": 9534,
    " ред": 9535,
    " рослин": 9536,
    " рів": 9537,
    " хви": 9538,
    " цій": 9539,
    " цін": 9540,
    " чення": 9541,
    " \n\n~": 9542,
    " \n\nЛ": 9543,
    "  К": 9544,
    "  ві": 9545,
    "  (о": 9546,
    "  (я": 9547,
    "  або  к": 9548,
    "  але": 9549,
    "  близь": 9550,
    "  будь-якого  ": 9551,
    "  вн": 9552,
    "  в  І": 9553,
    "  великих": 9554,
    "  вимірюва": 9555,
    "  вибу": 9556,
    "  виробництва": 9557,
    "  вуг": 9558,
    "  відповідає": 9559,
    "  два": 9560,
    "  джерел": 9561,
    "  дета": 9562,
    "  до  чогось": 9563,
    "  досягнення": 9564,
    "  же": 9565,
    "  з  не": 9566,
    "  змагання": 9567,
    "  з  кимось": 9568,
    "  зброя": 9569,
    "  земле": 9570,
    "  зобов’яз": 9571,
    "  кос": 9572,
    "  когось,": 9573,
    "  країнах  ": 9574,
    "  культури": 9575,
    "  музич": 9576,
    "  музичних": 9577,
    "  норма": 9578,
    "  напрям": 9579,
    "  необхід": 9580,
    "  ов": 9581,
    "  оф": 9582,
    "  організму  ": 9583,
    "  питан": 9584,
    "  посі": 9585,
    "  початку  ": 9586,
    "  про  ": 9587,
    "  проти  ": 9588,
    "  підвищення": 9589,
    "  розч": 9590,
    "  світла": 9591,
    "  серц": 9592,
    "  сило": 9593,
    "  спост": 9594,
    "  способо": 9595,
    "  су¬": 9596,
    "  сум": 9597,
    "  сухо": 9598,
    "  сільського": 9599,
    "  тю": 9600,
    "  таких": 9601,
    "  управління": 9602,
    "  фар": 9603,
    "  християн": 9604,
    "  чогось;  ": 9605,
    "  як ": 9606,
    "  істори": 9607,
    "  і т .  ін. \n": 9608,
    "  існування": 9609,
    "  •  2": 9610,
    " вип": 9611,
    " лих": 9612,
    " праці ": 9613,
    " промис": 9614,
    " разом ": 9615,
    " розт": 9616,
    "),  присл.  ": 9617,
    ", ва": 9618,
    ",  -а,  ч.  [а": 9619,
    ",  -а,  ч.,  КЛ.  -Є": 9620,
    ",  -у,  ч.  [лат.  а": 9621,
    ",  на ": 9622,
    ",  обм": 9623,
    ",  предмет": 9624,
    ",  у  яко": 9625,
    ",  ч.  і  ж": 9626,
    ",  ча": 9627,
    ",  чу": 9628,
    ".\n\n ": 9629,
    ". ри": 9630,
    ". \n\n\n\n8": 9631,
    ".  1.  Ж": 9632,
    ".  1.  Ч": 9633,
    ".  2. \n": 9634,
    ".  2.  перен.  Н": 9635,
    ".  2.  перен.  С": 9636,
    ".  2.  перен.  Т": 9637,
    ".  3.  Ви": 9638,
    ".  [грец.  р": 9639,
    ".  [нім.  К": 9640,
    ".  Бути  ": 9641,
    ".  К.  ": 9642,
    ".  Ку": 9643,
    ".  Місц": 9644,
    ".  Прикм.": 9645,
    ".). ": 9646,
    "6-": 9647,
    "7  р": 9648,
    ";  ~ка,  -и,  ж.,  дав.,  м.  -ці": 9649,
    ";  дуж": 9650,
    ";  який  стос": 9651,
    "].  Ш": 9652,
    "].  Під": 9653,
    "{мн.  ": 9654,
    "¬ \nро": 9655,
    "¬ ний  ": 9656,
    "¬ них": 9657,
    "І,  невідм.,  ч": 9658,
    "А,  -и,  ж.,  дав.,  м.  -сі": 9659,
    "АМБ": 9660,
    "ДІІ": 9661,
    "ДЕР": 9662,
    "ЕХ": 9663,
    "И,  -а,  ч": 9664,
    "Й,  -я": 9665,
    "ЛАД": 9666,
    "ПЛІ": 9667,
    "Пласт": 9668,
    "Родина": 9669,
    "Т,  -у,  ч.,  мед": 9670,
    "ТАР": 9671,
    "ЦЕР": 9672,
    "а  на": 9673,
    "а на ": 9674,
    "а. \n\n": 9675,
    "адає": 9676,
    "акого  ": 9677,
    "англі": 9678,
    "атку  ": 9679,
    "аючи  ": 9680,
    "бовець": 9681,
    "балет": 9682,
    "банків": 9683,
    "береж": 9684,
    "білиз": 9685,
    "вертика": 9686,
    "внюва": 9687,
    "водних": 9688,
    "вра": 9689,
    "вчаль": 9690,
    "вши  ": 9691,
    "вади": 9692,
    "вдач": 9693,
    "виклад": 9694,
    "влю,  -": 9695,
    "віда": 9696,
    "відбувається": 9697,
    "віко": 9698,
    "віта": 9699,
    "гко  ": 9700,
    "гаряч": 9701,
    "газі": 9702,
    "гают": 9703,
    "гають": 9704,
    "глиблення": 9705,
    "гля¬ ": 9706,
    "гіе": 9707,
    "гіл": 9708,
    "гілля": 9709,
    "гіпо": 9710,
    "два ": 9711,
    "достат": 9712,
    "дяться": 9713,
    "дійснення": 9714,
    "датний  ": 9715,
    "дорож": 9716,
    "егко  ": 9717,
    "ела": 9718,
    "елене": 9719,
    "еному  ": 9720,
    "ертання": 9721,
    "еччині": 9722,
    "женим": 9723,
    "жки": 9724,
    "жливість": 9725,
    "ження  ": 9726,
    "жим": 9727,
    "зви": 9728,
    "зпечення": 9729,
    "езпечення": 9730,
    "зробити": 9731,
    "звичай  ": 9732,
    "и',  -": 9733,
    "и,  -яю,  -яєш": 9734,
    "инків": 9735,
    "инник": 9736,
    "иплі": 9737,
    "ислі": 9738,
    "ирек": 9739,
    "исьмо": 9740,
    "й;  -": 9741,
    "йка": 9742,
    "йний,  -а,  -е": 9743,
    "к  (": 9744,
    "ку \n\n": 9745,
    "кцію": 9746,
    "ка  порода": 9747,
    "кал": 9748,
    "каль": 9749,
    "карти": 9750,
    "кликає ": 9751,
    "ковит": 9752,
    "ковість": 9753,
    "кого  —": 9754,
    "кращи": 9755,
    "криваю": 9756,
    "кіл": 9757,
    "кілька ": 9758,
    "лей  ": 9759,
    "лен  ": 9760,
    "лобі": 9761,
    "лості": 9762,
    "лави": 9763,
    "лас¬ ": 9764,
    "люс": 9765,
    "люч": 9766,
    "лює  ": 9767,
    "люють": 9768,
    "меччині": 9769,
    "мпері": 9770,
    "м  «": 9771,
    "магає": 9772,
    "майна": 9773,
    "майбут": 9774,
    "ми  тощо": 9775,
    "містя": 9776,
    "міню": 9777,
    "міти": 9778,
    "міщен": 9779,
    "нна  ": 9780,
    "нних  ": 9781,
    "но \n\n": 9782,
    "нської  ": 9783,
    "нтри": 9784,
    "на п": 9785,
    "неперех.": 9786,
    "ний з": 9787,
    "ний  г": 9788,
    "нито": 9789,
    "ного  в": 9790,
    "ного  ти": 9791,
    "ня,": 9792,
    "ня,  -і,  ж": 9793,
    "ній,": 9794,
    "нім. ": 9795,
    "нішим": 9796,
    "оверхні": 9797,
    "оет.  ": 9798,
    "ожливо": 9799,
    "оложення": 9800,
    "онферен": 9801,
    "оп  — ": 9802,
    "орне": 9803,
    "оша": 9804,
    "овищі": 9805,
    "ологічної": 9806,
    "ольо": 9807,
    "органіч": 9808,
    "орівнює  ": 9809,
    "пання": 9810,
    "писувач": 9811,
    "пока": 9812,
    "посте": 9813,
    "п’ютера": 9814,
    "мп’ютера": 9815,
    "перен.  З": 9816,
    "перех. ": 9817,
    "план": 9818,
    "прик": 9819,
    "рбі": 9820,
    "рний,  -а,  -е": 9821,
    "рника": 9822,
    "рського ": 9823,
    "ру,  ч": 9824,
    "рюються": 9825,
    "раг": 9826,
    "радіоа": 9827,
    "радіоак": 9828,
    "ргае": 9829,
    "результат": 9830,
    "робів": 9831,
    "рого": 9832,
    "рящ": 9833,
    "ріє": 9834,
    "різ¬ ": 9835,
    "с\n\n": 9836,
    "свіч": 9837,
    "ситься": 9838,
    "слюва": 9839,
    "супереч": 9840,
    "середн": 9841,
    "справж": 9842,
    "спричи": 9843,
    "стання": 9844,
    "стант": 9845,
    "стис": 9846,
    "стихі": 9847,
    "сто ": 9848,
    "т,  ": 9849,
    "тах  ": 9850,
    "тається": 9851,
    "тивний": 9852,
    "тивного  ": 9853,
    "тий,  -а,  -е": 9854,
    "тором": 9855,
    "ть  по": 9856,
    "тіння": 9857,
    "тже": 9858,
    "ти  від": 9859,
    "ти  г": 9860,
    "ти  чи": 9861,
    "тріщ": 9862,
    "у  при": 9863,
    "у на": 9864,
    "убі": 9865,
    "увся ": 9866,
    "удина": 9867,
    "ужіння": 9868,
    "уч.  ": 9869,
    "луч.  ": 9870,
    "учання": 9871,
    "уючи,  ": 9872,
    "у  знач, ": 9873,
    "увати. ": 9874,
    "уміш": 9875,
    "фарба": 9876,
    "фотографі": 9877,
    "французь": 9878,
    "філак": 9879,
    "х. \n\n": 9880,
    "хається": 9881,
    "характеризу": 9882,
    "ці,  ": 9883,
    "чатку  ": 9884,
    "чне ": 9885,
    "чої  ": 9886,
    "чний,  -а,  -е.": 9887,
    "шахт": 9888,
    "щування": 9889,
    "ю.  2.  ": 9890,
    "ю.  3.  ": 9891,
    "якій": 9892,
    "іра": 9893,
    "історі": 9894,
    "і  т.  ін.;  ": 9895,
    "ї  —  ": 9896,
    "їжа": 9897,
    "їсті": 9898,
    "їіо  —": 9899,
    "\n <|EOS|> ": 9900,
    "\nмає": 9901,
    "\nності": 9902,
    "\nтри": 9903,
    "\n\nт ": 9904,
    " \n-ці": 9905,
    " \nвласти": 9906,
    " \nлення": 9907,
    " \nста": 9908,
    " Єле": 9909,
    " внутріш": 9910,
    " вір": 9911,
    " и\n\n": 9912,
    " низ": 9913,
    " пові": 9914,
    " ран": 9915,
    " частин": 9916,
    " що ви": 9917,
    " \n\nна": 9918,
    "  бой": 9919,
    "  вода": 9920,
    "  вули": 9921,
    "  вес": 9922,
    "  вин": 9923,
    "  вироби": 9924,
    "  вивч": 9925,
    "  висот": 9926,
    "  води": 9927,
    "  водойм": 9928,
    "  відп": 9929,
    "  група": 9930,
    "  дем": 9931,
    "  деко": 9932,
    "  демо": 9933,
    "  для  по": 9934,
    "  до  з": 9935,
    "  довгим": 9936,
    "  дуже  ": 9937,
    "  ді¬": 9938,
    "  діт": 9939,
    "  експ": 9940,
    "  заход": 9941,
    "  здійснення": 9942,
    "  зов": 9943,
    "  керів": 9944,
    "  ков": 9945,
    "  корист": 9946,
    "  крово": 9947,
    "  куто": 9948,
    "  мают": 9949,
    "  мають": 9950,
    "  медицини": 9951,
    "  монета": 9952,
    "  наб": 9953,
    "  націона": 9954,
    "  ней": 9955,
    "  образ": 9956,
    "  обс": 9957,
    "  одного": 9958,
    "  опо": 9959,
    "  плів": 9960,
    "  пасажи": 9961,
    "  пев¬ \n": 9962,
    "  перег": 9963,
    "  пис": 9964,
    "  потя": 9965,
    "  пру": 9966,
    "  при ": 9967,
    "  прохо": 9968,
    "  сріб": 9969,
    "  своєї": 9970,
    "  сис": 9971,
    "  синте": 9972,
    "  скуль": 9973,
    "  спосте": 9974,
    "  спорти": 9975,
    "  способом": 9976,
    "  суде": 9977,
    "  та  в": 9978,
    "  та¬": 9979,
    "  таєм": 9980,
    "  течі": 9981,
    "  тип": 9982,
    "  тільки": 9983,
    "  украї": 9984,
    "  установи": 9985,
    "  фе": 9986,
    "  феода": 9987,
    "  хром": 9988,
    "  часто": 9989,
    "  череп": 9990,
    "  чиє": 9991,
    "  чи  ін": 9992,
    "  історі": 9993,
    "  і  т.  ін. ": 9994,
    "  і  т.  ін.;": 9995,
    "  ін¬ ": 9996,
    "  •  5": 9997,
    " бад": 9998,
    " більше ": 9999,
    " вий": 10000,
    " вит": 10001,
    " зміц": 10002,
    " не м": 10003,
    " ріж": 10004,
    "(ся": 10005,
    "(у  З  знач.)": 10006,
    "+  а": 10007,
    ", га": 10008,
    ", ли": 10009,
    ", який ": 10010,
    ", \nнапр.:": 10011,
    ",  -а,  */.,  кл.  -е": 10012,
    ",  -а,  ч.  [англ.  Ь": 10013,
    ",  -а,  ч.,  кл.  -е  [франц.  ": 10014,
    ",  -и, \n": 10015,
    ",  -ую, ": 10016,
    ",  -уєщ,  перех": 10017,
    ",  -юється": 10018,
    ",  -юєщ": 10019,
    ",  -яєшся": 10020,
    ",  вод": 10021,
    ",  дія": 10022,
    ",  знач": 10023,
    ",  мн.  {одн.  ": 10024,
    ",  на  як": 10025,
    ",  неза": 10026,
    ",  пи": 10027,
    ",  пе¬": 10028,
    ",  пло": 10029,
    ",  пош": 10030,
    ",  почу": 10031,
    ",  почут": 10032,
    ",  спору": 10033,
    ",  части": 10034,
    ",  що  має  ": 10035,
    "- на": 10036,
    "-ую,  -уєш": 10037,
    "-юю,  -юєш": 10038,
    ". Коли ": 10039,
    ". Сталі": 10040,
    ". \n\n\n\n2": 10041,
    ".  ч": 10042,
    ".  1.  Л": 10043,
    ".  1.  Х": 10044,
    ".  1.  Міс": 10045,
    ".  2.  Су": 10046,
    ".  2.  ме": 10047,
    ".  2.  перен. \n": 10048,
    ".  3.  За": 10049,
    ".  [грец.": 10050,
    ".  [франц. ": 10051,
    ".  [грец.  к": 10052,
    ".  [лат.  Ь": 10053,
    ".  Ба": 10054,
    ".  В.  ": 10055,
    ".  Великий  ": 10056,
    ".  Гал": 10057,
    ".  Назва": 10058,
    ".  Пос": 10059,
    ".  Стан": 10060,
    ".  Такий": 10061,
    ".,  мо": 10062,
    "00 ": 10063,
    "1Є": 10064,
    "1І8  —": 10065,
    "2.  2.  ": 10066,
    "; на": 10067,
    ";  щ": 10068,
    ";  -ний, ": 10069,
    ";  -ний,  -а,  -е. ": 10070,
    ";  -тй": 10071,
    ";  ~ація,  -ї,  ж": 10072,
    ";  зап": 10073,
    "].  Е": 10074,
    "].  1.  іст": 10075,
    "].  1.  Ві": 10076,
    "].  Пере": 10077,
    "¬ 3.  ": 10078,
    "¬ в  ": 10079,
    "Європі": 10080,
    "Іва": 10081,
    "АНТР": 10082,
    "Англії": 10083,
    "Великий  ": 10084,
    "Велико": 10085,
    "Дріб": 10086,
    "ИЦЯ,  -і,  ж": 10087,
    "Люди": 10088,
    "Невеликий  ": 10089,
    "Ой": 10090,
    "Перша  частина  складних  слів": 10091,
    "ПРО": 10092,
    "ФЕР": 10093,
    "Ц,  -а,  ч.,  кл.  -е": 10094,
    "Ц,  -у,  ч.  [англ.  ": 10095,
    "ЦІЯ,  -ї,  ж.  [лат.  ": 10096,
    "ЦНИЙ,  -а,  -е": 10097,
    "Шт  —": 10098,
    "аге  —": 10099,
    "ала ": 10100,
    "апро": 10101,
    "атро": 10102,
    "аць": 10103,
    "алиша": 10104,
    "берез": 10105,
    "бль": 10106,
    "вці": 10107,
    "вали": 10108,
    "важл.": 10109,
    "видо": 10110,
    "відкись": 10111,
    "вій¬ ": 10112,
    "вічноз": 10113,
    "генів": 10114,
[...]
