{
  "eos_token": "<|EOS|>",
  "unk_token": "<|UNK|>",
  "vocab": {
    "<|EOS|>": 0,
    "<|UNK|>": 1,
    "\t": 2,
    "\n": 3,
    " ": 4,
    "!": 5,
    "\"": 6,
    "#": 7,
    "$": 8,
    "%": 9,
    "&": 10,
    "'": 11,
    "(": 12,
    ")": 13,
    "*": 14,
    "+": 15,
    ",": 16,
    "-": 17,
    ".": 18,
    "/": 19,
    "0": 20,
    "1": 21,
    "2": 22,
    "3": 23,
    "4": 24,
    "5": 25,
    "6": 26,
    "7": 27,
    "8": 28,
    "9": 29,
    ":": 30,
    ";": 31,
    "<": 32,
    "=": 33,
    ">": 34,
    "?": 35,
    "@": 36,
    "A": 37,
    "B": 38,
    "C": 39,
    "D": 40,
    "E": 41,
    "F": 42,
    "G": 43,
    "H": 44,
    "I": 45,
    "J": 46,
    "K": 47,
    "L": 48,
    "M": 49,
    "N": 50,
    "O": 51,
    "P": 52,
    "Q": 53,
    "R": 54,
    "S": 55,
    "T": 56,
    "U": 57,
    "V": 58,
    "W": 59,
    "X": 60,
    "Y": 61,
    "Z": 62,
    "[": 63,
    "\\": 64,
    "]": 65,
    "^": 66,
    "_": 67,
    "a": 68,
    "b": 69,
    "c": 70,
    "d": 71,
    "e": 72,
    "f": 73,
    "g": 74,
    "h": 75,
    "i": 76,
    "j": 77,
    "k": 78,
    "l": 79,
    "m": 80,
    "n": 81,
    "o": 82,
    "p": 83,
    "q": 84,
    "r": 85,
    "s": 86,
    "t": 87,
    "u": 88,
    "v": 89,
    "w": 90,
    "x": 91,
    "y": 92,
    "z": 93,
    "{": 94,
    "|": 95,
    "}": 96,
    "~": 97,
    "£": 98,
    "¥": 99,
    "§": 100,
    "©": 101,
    "«": 102,
    "¬": 103,
    "®": 104,
    "°": 105,
    "±": 106,
    "»": 107,
    "¼": 108,
    "½": 109,
    "¾": 110,
    "Â": 111,
    "Ä": 112,
    "É": 113,
    "Ë": 114,
    "Ï": 115,
    "Ö": 116,
    "Ü": 117,
    "ß": 118,
    "à": 119,
    "â": 120,
    "ä": 121,
    "ç": 122,
    "è": 123,
    "é": 124,
    "ê": 125,
    "ë": 126,
    "î": 127,
    "ï": 128,
    "ó": 129,
    "ô": 130,
    "ö": 131,
    "ù": 132,
    "û": 133,
    "ü": 134,
    "ą": 135,
    "ć": 136,
    "ę": 137,
    "Ł": 138,
    "ł": 139,
    "ń": 140,
    "Ś": 141,
    "ś": 142,
    "ź": 143,
    "Ż": 144,
    "ż": 145,
    "́": 146,
    "̂": 147,
    "γ": 148,
    "π": 149,
    "χ": 150,
    "Є": 151,
    "І": 152,
    "Ї": 153,
    "А": 154,
    "Б": 155,
    "В": 156,
    "Г": 157,
    "Д": 158,
    "Е": 159,
    "Ж": 160,
    "З": 161,
    "И": 162,
    "Й": 163,
    "К": 164,
    "Л": 165,
    "М": 166,
    "Н": 167,
    "О": 168,
    "П": 169,
    "Р": 170,
    "С": 171,
    "Т": 172,
    "У": 173,
    "Ф": 174,
    "Х": 175,
    "Ц": 176,
    "Ч": 177,
    "Ш": 178,
    "Щ": 179,
    "Ъ": 180,
    "Ы": 181,
    "Ь": 182,
    "Э": 183,
    "Ю": 184,
    "Я": 185,
    "а": 186,
    "б": 187,
    "в": 188,
    "г": 189,
    "д": 190,
    "е": 191,
    "ж": 192,
    "з": 193,
    "и": 194,
    "й": 195,
    "к": 196,
    "л": 197,
    "м": 198,
    "н": 199,
    "о": 200,
    "п": 201,
    "р": 202,
    "с": 203,
    "т": 204,
    "у": 205,
    "ф": 206,
    "х": 207,
    "ц": 208,
    "ч": 209,
    "ш": 210,
    "щ": 211,
    "ъ": 212,
    "ы": 213,
    "ь": 214,
    "э": 215,
    "ю": 216,
    "я": 217,
    "ё": 218,
    "є": 219,
    "і": 220,
    "ї": 221,
    "ѡ": 222,
    "Ѣ": 223,
    "ѣ": 224,
    "ѥ": 225,
    "ѧ": 226,
    "ѫ": 227,
    "ѳ": 228,
    "ѵ": 229,
    "Ґ": 230,
    "ґ": 231,
    "–": 232,
    "—": 233,
    "‘": 234,
    "’": 235,
    "“": 236,
    "”": 237,
    "„": 238,
    "•": 239,
    "…": 240,
    "€": 241,
    "№": 242,
    "™": 243,
    "√": 244,
    "■": 245,
    "﻿": 246,
    "  ": 247,
    "на": 248,
    ",  ": 249,
    "ро": 250,
    ".  ": 251,
    "ти": 252,
    "ко": 253,
    "по": 254,
    "го": 255,
    "ни": 256,
    "та": 257,
    "ва": 258,
    "ли": 259,
    "ра": 260,
    "не": 261,
    "но": 262,
    "ві": 263,
    "ки": 264,
    "то": 265,
    "за": 266,
    "ви": 267,
    "ні": 268,
    "ре": 269,
    "ка": 270,
    "во": 271,
    "ри": 272,
    "сь": 273,
    "до": 274,
    " на": 275,
    "ло": 276,
    "ть": 277,
    " по": 278,
    "ла": 279,
    "ся": 280,
    "що": 281,
    "ма": 282,
    "ль": 283,
    "да": 284,
    "мо": 285,
    " не": 286,
    "те": 287,
    "ми": 288,
    "пе": 289,
    "ня": 290,
    "рі": 291,
    "ля": 292,
    " за": 293,
    "чи": 294,
    ",  -": 295,
    "ди": 296,
    "лі": 297,
    "го ": 298,
    "ку": 299,
    "ті": 300,
    "бу": 301,
    "мі": 302,
    "ру": 303,
    "кі": 304,
    " що": 305,
    " до": 306,
    " та": 307,
    "ле": 308,
    "бо": 309,
    "ці": 310,
    "ме": 311,
    "ді": 312,
    "га": 313,
    "му": 314,
    "ве": 315,
    "про": 316,
    "пі": 317,
    "ння": 318,
    "ну": 319,
    "ча": 320,
    ", що": 321,
    "де": 322,
    "ти ": 323,
    "же": 324,
    "\n\n": 325,
    " на ": 326,
    "ту": 327,
    "ду": 328,
    "сі": 329,
    "ба": 330,
    " не ": 331,
    ";  ": 332,
    "па": 333,
    " ко": 334,
    " ві": 335,
    "че": 336,
    "й  ": 337,
    "ста": 338,
    "при": 339,
    "ли ": 340,
    "ся ": 341,
    "са": 342,
    "хо": 343,
    " \n\n": 344,
    "бі": 345,
    "пере": 346,
    "со": 347,
    "се": 348,
    " то": 349,
    "си": 350,
    "пи": 351,
    "лю": 352,
    " бу": 353,
    " ви": 354,
    "би": 355,
    "роз": 356,
    "ши": 357,
    "нь": 358,
    " мо": 359,
    "ть ": 360,
    "сто": 361,
    "сько": 362,
    "бе": 363,
    " про": 364,
    ", що ": 365,
    "ний": 366,
    "ць": 367,
    "  з": 368,
    "ки ": 369,
    "су": 370,
    "ха": 371,
    "ні ": 372,
    "чо": 373,
    "кий": 374,
    "це": 375,
    "ву": 376,
    " до ": 377,
    "них": 378,
    "на ": 379,
    "сти": 380,
    "на  ": 381,
    ".,  ": 382,
    " та ": 383,
    "жи": 384,
    ",  -а": 385,
    "пра": 386,
    "ше": 387,
    "ще": 388,
    "лу": 389,
    " пі": 390,
    "  і": 391,
    "  —": 392,
    "ми ": 393,
    "ого ": 394,
    "сво": 395,
    "кра": 396,
    ",  ч": 397,
    "ря": 398,
    "зна": 399,
    " при": 400,
    "жа": 401,
    "вати": 402,
    " во": 403,
    "тя": 404,
    "2.  ": 405,
    "гу": 406,
    "  о": 407,
    "ків": 408,
    "ла ": 409,
    "гі": 410,
    "сті": 411,
    "1.  ": 412,
    "ка ": 413,
    " те": 414,
    "же ": 415,
    "від": 416,
    "ться": 417,
    " він": 418,
    "ких": 419,
    "для": 420,
    "ке": 421,
    "му ": 422,
    "ло ": 423,
    "  с": 424,
    "ку ": 425,
    "або": 426,
    ";  -": 427,
    ".  2.  ": 428,
    "раз": 429,
    ".  1.  ": 430,
    "в  ": 431,
    "ця": 432,
    " ма": 433,
    "ння  ": 434,
    "  —  ": 435,
    "ний  ": 436,
    "сь ": 437,
    "ша": 438,
    "у  ": 439,
    "дав": 440,
    " бо": 441,
    "но ": 442,
    "вер": 443,
    ".  [": 444,
    "го  ": 445,
    "ге": 446,
    "ючи": 447,
    "’я": 448,
    "кла": 449,
    " пере": 450,
    "м.  ": 451,
    " го": 452,
    "ї  ": 453,
    ",  що": 454,
    " са": 455,
    "краї": 456,
    "ги": 457,
    " ме": 458,
    "пер": 459,
    " сво": 460,
    "тво": 461,
    " ро": 462,
    "фі": 463,
    "тра": 464,
    " де": 465,
    "сть": 466,
    ",  ж": 467,
    "  по": 468,
    " ду": 469,
    " коза": 470,
    "ші": 471,
    "кий ": 472,
    " за ": 473,
    " ні": 474,
    "бра": 475,
    "його ": 476,
    "м  ": 477,
    "кий  ": 478,
    " се": 479,
    "дно": 480,
    "н.  ": 481,
    "ого": 482,
    " ті": 483,
    "вав": 484,
    "т.  ": 485,
    "тро": 486,
    "л.  ": 487,
    "ска": 488,
    " чи": 489,
    " ба": 490,
    ". \n\n": 491,
    "вели": 492,
    "  ви": 493,
    " па": 494,
    "всі": 495,
    "спо": 496,
    ",  -у": 497,
    "Не": 498,
    "  за": 499,
    " роз": 500,
    "сте": 501,
    "Ва": 502,
    ", по": 503,
    " ста": 504,
    "ско": 505,
    ", то": 506,
    "ється": 507,
    "рож": 508,
    "є  ": 509,
    " мі": 510,
    "сло": 511,
    "нсь": 512,
    "].  ": 513,
    " під": 514,
    "чно": 515,
    "Та": 516,
    "ться ": 517,
    "трі": 518,
    " ка": 519,
    "  (": 520,
    " ти": 521,
    "сла": 522,
    "гра": 523,
    "вши": 524,
    ",  -е": 525,
    "сту": 526,
    "без": 527,
    "дру": 528,
    " від": 529,
    "льки ": 530,
    "яко": 531,
    ",  -а,  ч": 532,
    " ча": 533,
    "всь": 534,
    "мен": 535,
    "під": 536,
    "три": 537,
    "ник": 538,
    "ни ": 539,
    ", щоб": 540,
    " так": 541,
    "ва ": 542,
    "вання": 543,
    " запо": 544,
    "ним": 545,
    "йсь": 546,
    "ний ": 547,
    "фо": 548,
    "Ви": 549,
    "рез": 550,
    "льно": 551,
    ", бо": 552,
    ",  -а,  -е": 553,
    "вно": 554,
    "ще ": 555,
    "кри": 556,
    " ту": 557,
    "ти  ": 558,
    "йсько": 559,
    "ран": 560,
    "кі ": 561,
    "Ві": 562,
    "сві": 563,
    "ну ": 564,
    ",  я": 565,
    "Пе": 566,
    "х  ": 567,
    "писа": 568,
    "щи": 569,
    "ща": 570,
    " це": 571,
    "тися": 572,
    "18": 573,
    "При": 574,
    " хо": 575,
    "ють": 576,
    "але": 577,
    "вся": 578,
    "ві ": 579,
    "не ": 580,
    "  до": 581,
    ", ко": 582,
    "гля": 583,
    "ц.  ": 584,
    " ва": 585,
    " со": 586,
    "род": 587,
    "них ": 588,
    "ред": 589,
    "ки,": 590,
    "ю  ": 591,
    " бі": 592,
    "рів": 593,
    "чого": 594,
    " ру": 595,
    " лю": 596,
    "вий": 597,
    "ців": 598,
    "вля": 599,
    "ття": 600,
    "ти,": 601,
    " да": 602,
    "вати ": 603,
    "ким": 604,
    "II": 605,
    " че": 606,
    "бли": 607,
    ",  -и": 608,
    "них  ": 609,
    "тре": 610,
    " був": 611,
    "ком": 612,
    "оло": 613,
    "гре": 614,
    " Та": 615,
    "сно": 616,
    ",  -у,  ч": 617,
    "кл.  ": 618,
    "  на": 619,
    "кою": 620,
    "ці ": 621,
    "тів": 622,
    " га": 623,
    "кл.  -": 624,
    "ського ": 625,
    ", на": 626,
    "зно": 627,
    "вся ": 628,
    "ходи": 629,
    " ді": 630,
    " його ": 631,
    "сть ": 632,
    "3.  ": 633,
    "прав": 634,
    "з  ": 635,
    "або  ": 636,
    "в’я": 637,
    "ння ": 638,
    "тва": 639,
    "пла": 640,
    " запорож": 641,
    " рі": 642,
    " зна": 643,
    " ли": 644,
    " Ва": 645,
    "Сі": 646,
    "вже ": 647,
    "лися ": 648,
    "цько": 649,
    "  з  ": 650,
    " си": 651,
    " але": 652,
    " сто": 653,
    "украї": 654,
    "ми,": 655,
    "  зна": 656,
    "тру": 657,
    "ци": 658,
    "ува": 659,
    "ні  ": 660,
    "слі": 661,
    "ньо": 662,
    "рно": 663,
    "ній": 664,
    ",  що  ": 665,
    "ких ": 666,
    "то ": 667,
    " він ": 668,
    ",  на": 669,
    "нів": 670,
    ".)": 671,
    "спі": 672,
    ".,  кл.  -": 673,
    " свої": 674,
    ";  ~": 675,
    "ка  ": 676,
    " Не": 677,
    "ність": 678,
    "до  ": 679,
    " 18": 680,
    "ка,": 681,
    "зав": 682,
    "бро": 683,
    ",  -и,  ж": 684,
    "фе": 685,
    "все": 686,
    "вни": 687,
    "ми  ": 688,
    "льки": 689,
    "  і  ": 690,
    ",  с": 691,
    "тич": 692,
    "ля ": 693,
    "роби": 694,
    "лі ": 695,
    "ман": 696,
    "пові": 697,
    "фа": 698,
    "ною": 699,
    " наві": 700,
    "лися": 701,
    "фор": 702,
    " лі": 703,
    "рсь": 704,
    " су": 705,
    "ство": 706,
    ", але": 707,
    "час": 708,
    "біль": 709,
    "Те": 710,
    "гро": 711,
    "голо": 712,
    "Украї": 713,
    "¬ \n\n": 714,
    "дів": 715,
    "стрі": 716,
    "стя": 717,
    " було ": 718,
    "ють ": 719,
    "на,": 720,
    "Про": 721,
    "кій": 722,
    "вні": 723,
    "Ве": 724,
    "та  ": 725,
    " та й": 726,
    ", за": 727,
    "різ": 728,
    " ска": 729,
    "ської": 730,
    "Са": 731,
    "ти.": 732,
    " для": 733,
    "дин": 734,
    "Який  ": 735,
    "увати": 736,
    "кого": 737,
    " най": 738,
    "льни": 739,
    " ре": 740,
    "  на  ": 741,
    " жи": 742,
    "сли": 743,
    "апо": 744,
    "каз": 745,
    "м’я": 746,
    " чо": 747,
    "вла": 748,
    "  знач": 749,
    "лів": 750,
    ".:": 751,
    "дій": 752,
    "ків ": 753,
    ".  3.  ": 754,
    "ко ": 755,
    "].  1.  ": 756,
    "слу": 757,
    " пра": 758,
    "фран": 759,
    "р.:": 760,
    " но": 761,
    " над": 762,
    "  ін": 763,
    "між": 764,
    " поча": 765,
    "  у  ": 766,
    "вже": 767,
    "нув": 768,
    " дру": 769,
    "пр.:": 770,
    " ку": 771,
    "ні,": 772,
    " того ": 773,
    "не  ": 774,
    "!\n": 775,
    "дна": 776,
    "ку,": 777,
    "ому ": 778,
    "ється ": 779,
    " Ві": 780,
    "геть": 781,
    "вле": 782,
    "лося ": 783,
    "ми.": 784,
    " ха": 785,
    "вих": 786,
    "для  ": 787,
    "дер": 788,
    "го,": 789,
    "Запо": 790,
    "Січ": 791,
    "вича": 792,
    "обо": 793,
    "лат.  ": 794,
    "ти, ": 795,
    " там": 796,
    "дже": 797,
    "розь": 798,
    " би": 799,
    "кін": 800,
    " ці": 801,
    "нього ": 802,
    "рга": 803,
    "бере": 804,
    " ди": 805,
    "мер": 806,
    "вою": 807,
    "хто": 808,
    "ном": 809,
    " про ": 810,
    "лася ": 811,
    "ді ": 812,
    "к  ": 813,
    "усі": 814,
    ",  -а,  -е.  ": 815,
    "Пі": 816,
    "ниж": 817,
    "тка": 818,
    "бачи": 819,
    "всім": 820,
    " або": 821,
    "тощо": 822,
    "ного ": 823,
    "кіль": 824,
    " військо": 825,
    "перех": 826,
    "дні": 827,
    "ки, ": 828,
    "вари": 829,
    " Пе": 830,
    " вели": 831,
    "  в  ": 832,
    "ть,": 833,
    "ших": 834,
    " тільки ": 835,
    "його": 836,
    "ому": 837,
    "ван": 838,
    "треба": 839,
    "ди ": 840,
    "ли,": 841,
    "лях": 842,
    "мож": 843,
    ", то ": 844,
    "тор": 845,
    "вя": 846,
    "кого ": 847,
    "ву ": 848,
    "дини": 849,
    "стра": 850,
    "грец.  ": 851,
    " через": 852,
    ", де": 853,
    " по ": 854,
    "тися ": 855,
    " раз": 856,
    ". Та": 857,
    ", мо": 858,
    " голо": 859,
    "стро": 860,
    "сом": 861,
    "та ": 862,
    "дво": 863,
    ", не ": 864,
    "вид": 865,
    "рма": 866,
    "км.  ": 867,
    ",  -ї": 868,
    "дом": 869,
    " буде": 870,
    "кре": 871,
    " тепер": 872,
    "ції": 873,
    "йно": 874,
    "має": 875,
    ", коли ": 876,
    "логі": 877,
    " ра": 878,
    "міс": 879,
    "льо": 880,
    "пев": 881,
    "які": 882,
    "лося": 883,
    " Ви": 884,
    "сів": 885,
    "ром": 886,
    "тур": 887,
    "ція": 888,
    "части": 889,
    "том": 890,
    "тер": 891,
    "умі": 892,
    ",  о": 893,
    " ще ": 894,
    ",  -а,  ч.,  кл.  -": 895,
    "19": 896,
    "ки.": 897,
    "Де": 898,
    "ряд": 899,
    "ше ": 900,
    "й по": 901,
    "йте": 902,
    "•  ": 903,
    "льсь": 904,
    "Дні": 905,
    "ми, ": 906,
    "ках": 907,
    "пле": 908,
    " піс": 909,
    "і  ": 910,
    ", \n\n": 911,
    "стан": 912,
    "вали ": 913,
    "роб": 914,
    "одно": 915,
    "  і ": 916,
    ",  по": 917,
    "еле": 918,
    "річ": 919,
    " сло": 920,
    "ден": 921,
    "00": 922,
    " було": 923,
    ",  не": 924,
    " без": 925,
    "вчи": 926,
    "овсім": 927,
    "свої": 928,
    " доб": 929,
    ",  напр.:": 930,
    "тно": 931,
    "А,  -и,  ж": 932,
    "дрі": 933,
    ", ви": 934,
    "води": 935,
    "ду ": 936,
    "вір": 937,
    " хоч": 938,
    "ка.": 939,
    " тата": 940,
    "му  ": 941,
    "важ": 942,
    "зовсім": 943,
    "Ки": 944,
    " вже ": 945,
    " само": 946,
    " нас": 947,
    "ка, ": 948,
    ",  з": 949,
    "пря": 950,
    "Ми": 951,
    "ливо": 952,
    "аль": 953,
    "кори": 954,
    "кої": 955,
    " дуже ": 956,
    "дає": 957,
    " не по": 958,
    " ве": 959,
    "ється  ": 960,
    "бою": 961,
    "м.  -": 962,
    "кру": 963,
    " му": 964,
    " своє": 965,
    "здо": 966,
    ",  -у,  ч.  [": 967,
    ", бо ": 968,
    ",  при": 969,
    "кину": 970,
    " мож": 971,
    ",  -ї,  ж": 972,
    "лася": 973,
    " ми": 974,
    "кли": 975,
    "мови": 976,
    "ва  ": 977,
    ",  за": 978,
    "перен.  ": 979,
    "кро": 980,
    "пита": 981,
    "гру": 982,
    "дав.,  ": 983,
    "і по": 984,
    ",  -я": 985,
    "клад": 986,
    ", чи": 987,
    "чен": 988,
    "ства": 989,
    " ле": 990,
    "спе": 991,
    " навіть ": 992,
    " мене": 993,
    "зда": 994,
    "ті ": 995,
    "-н.  ": 996,
    "Прикм.  ": 997,
    ", щоб ": 998,
    "україн": 999,
    "вав ": 1000,
    " той": 1001,
    "Ту": 1002,
    "книж": 1003,
    "зві": 1004,
    "ючи ": 1005,
    "Вели": 1006,
    "вши ": 1007,
    "Ста": 1008,
    "вого ": 1009,
    "ке ": 1010,
    "блі": 1011,
    "ИЙ": 1012,
    " спо": 1013,
    "йда": 1014,
    " сі": 1015,
    "вої": 1016,
    ", на ": 1017,
    ", не": 1018,
    "на.": 1019,
    "пів": 1020,
    "Чи": 1021,
    "вати  ": 1022,
    "шко": 1023,
    "перед": 1024,
    "на, ": 1025,
    "ма ": 1026,
    " тут": 1027,
    "звича": 1028,
    ", ні": 1029,
    "вич": 1030,
    ",  -і": 1031,
    "дав.,  м.  -": 1032,
    "мін": 1033,
    " були ": 1034,
    " гу": 1035,
    "йому ": 1036,
    ",  ви": 1037,
    "воро": 1038,
    " собі": 1039,
    "  [": 1040,
    "вча": 1041,
    "віт": 1042,
    "ліз": 1043,
    "ками": 1044,
    "клада": 1045,
    " не бу": 1046,
    "вда": 1047,
    "  від": 1048,
    " все": 1049,
    " сві": 1050,
    " ще": 1051,
    " вони": 1052,
    "вання  ": 1053,
    "  •  ": 1054,
    "ського": 1055,
    "ш,  ": 1056,
    "дія": 1057,
    "українсь": 1058,
    "вали": 1059,
    "ти. ": 1060,
    "осо": 1061,
    "оро": 1062,
    "свя": 1063,
    "франц.  ": 1064,
    "гли": 1065,
    "слав": 1066,
    "  — ": 1067,
    ".  і": 1068,
    "Це": 1069,
    "вин": 1070,
    "смі": 1071,
    " зно": 1072,
    "  об": 1073,
    "дей": 1074,
    "ара": 1075,
    "ці,": 1076,
    "сійсь": 1077,
    "тері": 1078,
    " тим": 1079,
    "вто": 1080,
    "лко": 1081,
    "  та": 1082,
    "Ти": 1083,
    "АН": 1084,
    " мені ": 1085,
    " не з": 1086,
    "дра": 1087,
    " бра": 1088,
    "ку.": 1089,
    "сь  ": 1090,
    "т.  і": 1091,
    "Че": 1092,
    " всі": 1093,
    "мір": 1094,
    "вий  ": 1095,
    "ків,": 1096,
    " ла": 1097,
    " була ": 1098,
    "фіз": 1099,
    " пер": 1100,
    " усі": 1101,
    "гетьма": 1102,
    "бір": 1103,
    "яких": 1104,
    " себе": 1105,
    "про  ": 1106,
    "рець": 1107,
    "спра": 1108,
    "мага": 1109,
    "15": 1110,
    "ним ": 1111,
    "нок": 1112,
    "ніз": 1113,
    "їха": 1114,
    "ними ": 1115,
    " запорожців": 1116,
    "держа": 1117,
    "розм.  ": 1118,
    "йому": 1119,
    "пли": 1120,
    "рти": 1121,
    " сам": 1122,
    "АТ": 1123,
    "Січі": 1124,
    "важа": 1125,
    "Ді": 1126,
    "в по": 1127,
    " Са": 1128,
    "ються": 1129,
    ", ма": 1130,
    "го, ": 1131,
    "тера": 1132,
    " моло": 1133,
    "крі": 1134,
    "  або  ": 1135,
    "ми. ": 1136,
    "обі": 1137,
    "16": 1138,
    "Ду": 1139,
    "дов": 1140,
    "сер": 1141,
    "17": 1142,
    "али": 1143,
    "в.  ": 1144,
    "ної": 1145,
    "осі": 1146,
    "вори": 1147,
    "тільки ": 1148,
    ",  -а,  ч.,  кл.  -е": 1149,
    "один": 1150,
    "н.,  ": 1151,
    "кові": 1152,
    "верну": 1153,
    " товари": 1154,
    "графі": 1155,
    "зво": 1156,
    "ЕР": 1157,
    " був ": 1158,
    " що ": 1159,
    ", до": 1160,
    "  в": 1161,
    ", при": 1162,
    "стано": 1163,
    ", 18": 1164,
    "en": 1165,
    "в на ": 1166,
    "собі": 1167,
    "ні, ": 1168,
    ", та ": 1169,
    "?\n": 1170,
    "бага": 1171,
    "зроби": 1172,
    "нням": 1173,
    "істо": 1174,
    "XV": 1175,
    " тих": 1176,
    "ку, ": 1177,
    "шлях": 1178,
    "верх": 1179,
    " біль": 1180,
    "йма": 1181,
    "нього": 1182,
    " вона ": 1183,
    "люди": 1184,
    "нець": 1185,
    "ші ": 1186,
    " поля": 1187,
    "ти з": 1188,
    "лта": 1189,
    " яко": 1190,
    "Ну": 1191,
    "чер": 1192,
    " так ": 1193,
    "+  ": 1194,
    "Воло": 1195,
    "ки. ": 1196,
    "своє": 1197,
    ".,  дав.,  м.  -": 1198,
    " стор": 1199,
    "й,  ": 1200,
    " річ": 1201,
    "реш": 1202,
    " коро": 1203,
    "над": 1204,
    ".  [лат.  ": 1205,
    "кон": 1206,
    "ній  ": 1207,
    "ні.": 1208,
    "ота": 1209,
    "ли, ": 1210,
    "через": 1211,
    "ший": 1212,
    "ють  ": 1213,
    "аго": 1214,
    "бира": 1215,
    "справ": 1216,
    " саме": 1217,
    "трох": 1218,
    " Він": 1219,
    "Але": 1220,
    "пред": 1221,
    "рко": 1222,
    "рід": 1223,
    "вій": 1224,
    "для ": 1225,
    "ну,": 1226,
    " коли ": 1227,
    ",  який  ": 1228,
    "най": 1229,
    " сер": 1230,
    "кар": 1231,
    "ску": 1232,
    "повіда": 1233,
    "саме": 1234,
    "те ": 1235,
    "чний": 1236,
    "рії": 1237,
    " дов": 1238,
    " зараз": 1239,
    " пое": 1240,
    "тери": 1241,
    "ток": 1242,
    " не в": 1243,
    " час": 1244,
    "4.  ": 1245,
    "Прикм.  до  ": 1246,
    ".  [грец.  ": 1247,
    "ch": 1248,
    "ра ": 1249,
    "8  —  ": 1250,
    "росли": 1251,
    "ніх": 1252,
    "вим": 1253,
    " перед": 1254,
    "—  ": 1255,
    "Запорозь": 1256,
    "вро": 1257,
    "себе": 1258,
    "лом": 1259,
    "тільки": 1260,
    "хви": 1261,
    " Украї": 1262,
    " того": 1263,
    "ото": 1264,
    "че ": 1265,
    "яку": 1266,
    "лору": 1267,
    "вар": 1268,
    "же,": 1269,
    "ли на ": 1270,
    "лові": 1271,
    "тни": 1272,
    "значе": 1273,
    "кти": 1274,
    "ари": 1275,
    "ни,": 1276,
    " мене ": 1277,
    " тоді": 1278,
    "тий": 1279,
    " пе": 1280,
    "гор": 1281,
    "Фран": 1282,
    "бува": 1283,
    "вський": 1284,
    "пис": 1285,
    "розумі": 1286,
    "буд": 1287,
    "смер": 1288,
    "  знач.)": 1289,
    "чита": 1290,
    " добре": 1291,
    " піш": 1292,
    ", про": 1293,
    ". Не": 1294,
    ".  П": 1295,
    "гото": 1296,
    "ка. ": 1297,
    "ви ": 1298,
    "кида": 1299,
    "сінь": 1300,
    "ти на ": 1301,
    " вони ": 1302,
    "шого ": 1303,
    " наро": 1304,
    "Лаго": 1305,
    "стру": 1306,
    "тою": 1307,
    "ця ": 1308,
    "мо ": 1309,
    "рин": 1310,
    "ну  ": 1311,
    "цій": 1312,
    "спа": 1313,
    " 19": 1314,
    ", та": 1315,
    "сти ": 1316,
    "лен": 1317,
    "рак": 1318,
    " писа": 1319,
    "кова": 1320,
    "  із  ": 1321,
    "Кри": 1322,
    "хло": 1323,
    ",  -ує": 1324,
    ", що в": 1325,
    "ками ": 1326,
    "удо": 1327,
    "твер": 1328,
    "тку": 1329,
    "кам": 1330,
    "муз": 1331,
    "коли": 1332,
    " Чи": 1333,
    "мати": 1334,
    "огу": 1335,
    "\nТа": 1336,
    " неї": 1337,
    "ли з": 1338,
    "нь ": 1339,
    ".  -": 1340,
    "бла": 1341,
    ", але ": 1342,
    "цен": 1343,
    "уда": 1344,
    "вець": 1345,
    " свою": 1346,
    "схо": 1347,
    "само": 1348,
    "серед": 1349,
    "фесо": 1350,
    "пло": 1351,
    "чогось": 1352,
    " вида": 1353,
    "зга": 1354,
    " нам": 1355,
    "\nпо": 1356,
    " поч": 1357,
    ",  напр.:  ": 1358,
    "АР": 1359,
    "ОР": 1360,
    "т  ": 1361,
    ",  а": 1362,
    "ня ": 1363,
    "»)": 1364,
    " бага": 1365,
    ",  -а,  -е.  1.  ": 1366,
    "она": 1367,
    "ти в": 1368,
    "трохи": 1369,
    "ці.": 1370,
    "ки  ": 1371,
    " запорозь": 1372,
    "ли в": 1373,
    "мовля": 1374,
    "чого-": 1375,
    " коли": 1376,
    "У  ": 1377,
    "орно": 1378,
    "тім": 1379,
    "д  ": 1380,
    "зву": 1381,
    "пля": 1382,
    "\nНе": 1383,
    "сила": 1384,
    " пов": 1385,
    "ш,  перех": 1386,
    "III": 1387,
    "тут": 1388,
    "ній ": 1389,
    "усе": 1390,
    "Чорно": 1391,
    "ватися": 1392,
    "ова": 1393,
    "  орга": 1394,
    "див": 1395,
    "клика": 1396,
    "мене": 1397,
    "в’яз": 1398,
    "ри ": 1399,
    "тих": 1400,
    ",  -ю": 1401,
    "-го ": 1402,
    " року ": 1403,
    "Лу": 1404,
    "  спо": 1405,
    "Хме": 1406,
    "тись": 1407,
    " Про": 1408,
    " пи": 1409,
    " стор.": 1410,
    "er": 1411,
    "оли ": 1412,
    "оді": 1413,
    "веде": 1414,
    "Бі": 1415,
    "хай": 1416,
    "яви": 1417,
    "які ": 1418,
    "город": 1419,
    "дими": 1420,
    "нов": 1421,
    "гар": 1422,
    "Коли ": 1423,
    "пре": 1424,
    "цький": 1425,
    " не за": 1426,
    "Хмельни": 1427,
    "на. ": 1428,
    " Вам": 1429,
    "остан": 1430,
    "боро": 1431,
    "тко": 1432,
    "Богу": 1433,
    "рий": 1434,
    " козаків": 1435,
    "став": 1436,
    "алі": 1437,
    "два": 1438,
    "кож": 1439,
    "який  ": 1440,
    " треба": 1441,
    "; \n\n": 1442,
    "ніс": 1443,
    "да ": 1444,
    "разу": 1445,
    "мов": 1446,
    " Дні": 1447,
    "більше": 1448,
    "каза": 1449,
    " бать": 1450,
    "-та": 1451,
    "Під": 1452,
    "який": 1453,
    "сце": 1454,
    "цького ": 1455,
    " Ту": 1456,
    " Це": 1457,
    " часом": 1458,
    "сті ": 1459,
    " ни": 1460,
    "  зі": 1461,
    ")  ": 1462,
    "кло": 1463,
    "чення": 1464,
    "н  ": 1465,
    "нах": 1466,
    " замі": 1467,
    "годи": 1468,
    "ть  ": 1469,
    "стор": 1470,
    " пові": 1471,
    " Ки": 1472,
    "ть, ": 1473,
    " нау": 1474,
    "чний  ": 1475,
    "будь": 1476,
    "сь і": 1477,
    "  і  т.  і": 1478,
    " або ": 1479,
    "Володими": 1480,
    "дсь": 1481,
    "вання ": 1482,
    "дії": 1483,
    "ного  ": 1484,
    " дуже": 1485,
    "лан": 1486,
    "ход": 1487,
    "кою ": 1488,
    "спи": 1489,
    "\nна": 1490,
    " кош": 1491,
    "док": 1492,
    "дою": 1493,
    "ком ": 1494,
    "ючись": 1495,
    " сказав": 1496,
    "мав": 1497,
    "єте": 1498,
    "ни.": 1499,
    "ту ": 1500,
    "две": 1501,
    " тільки": 1502,
    ".  З": 1503,
    "прави": 1504,
    " написа": 1505,
    "во ": 1506,
    "кими ": 1507,
    "тов": 1508,
    " вий": 1509,
    "піс": 1510,
    " Ми": 1511,
    " же": 1512,
    "близ": 1513,
    "ва,": 1514,
    "куп": 1515,
    "обра": 1516,
    "пису": 1517,
    "млі": 1518,
    "нка": 1519,
    "ристи": 1520,
    "учи": 1521,
    "Пра": 1522,
    "ла,": 1523,
    "тяг": 1524,
    "ються ": 1525,
    " своїх": 1526,
    "ільки ": 1527,
    "\nви": 1528,
    " стор. ": 1529,
    "Тільки ": 1530,
    " по-": 1531,
    "is": 1532,
    "Гна": 1533,
    " ми ": 1534,
    "мета": 1535,
    "ого  ": 1536,
    " не зна": 1537,
    ".,  дав.,  м.  -ці": 1538,
    "АЛ": 1539,
    "дуже ": 1540,
    "тсь": 1541,
    " вір": 1542,
    "ків, ": 1543,
    "стави": 1544,
    "тель": 1545,
    "шим": 1546,
    "іно": 1547,
    "в’яза": 1548,
    "  до  ": 1549,
    " наш": 1550,
    " воро": 1551,
    "стор.": 1552,
    " Де": 1553,
    " мені": 1554,
    "ІІ": 1555,
    "верта": 1556,
    "гий": 1557,
    "нім": 1558,
    "рах": 1559,
    " зав": 1560,
    "чив": 1561,
    "ЕН": 1562,
    "ст.  ": 1563,
    " Ну": 1564,
    "бля": 1565,
    "би ": 1566,
    "зве": 1567,
    "рка": 1568,
    " це ": 1569,
    "коро": 1570,
    "орі": 1571,
    "життя": 1572,
    " і по": 1573,
    " була": 1574,
    " проти ": 1575,
    "Си": 1576,
    "м.,  ": 1577,
    "силь": 1578,
    " нав": 1579,
    " почу": 1580,
    "руч": 1581,
    " .  і": 1582,
    " навіть": 1583,
    "бле": 1584,
    "ві,": 1585,
    "ли.": 1586,
    "лий": 1587,
    "ний,": 1588,
    "нта": 1589,
    "казу": 1590,
    " дав": 1591,
    "вий ": 1592,
    "сну": 1593,
    ", що я": 1594,
    "ким ": 1595,
    "мн.  ": 1596,
    "т .  і": 1597,
    "або ": 1598,
    "діє": 1599,
    " люди": 1600,
    "мно": 1601,
    "нте": 1602,
    "нти": 1603,
    "воло": 1604,
    "ці, ": 1605,
    "гл.  ": 1606,
    "му,": 1607,
    "нгл.  ": 1608,
    "ння.": 1609,
    " Те": 1610,
    " свого ": 1611,
    "мені ": 1612,
    "юди": 1613,
    ".;  ": 1614,
    " польсь": 1615,
    "  тощо": 1616,
    " самі": 1617,
    ",  що  ви": 1618,
    "дні ": 1619,
    "вна": 1620,
    "оче": 1621,
    "скі": 1622,
    "англ.  ": 1623,
    "нера": 1624,
    "роди": 1625,
    "  у": 1626,
    "франц": 1627,
    "цтво": 1628,
    "ку. ": 1629,
    ",  -а,  ч.  [": 1630,
    "збро": 1631,
    "ске": 1632,
    " захо": 1633,
    ",  роз": 1634,
    "Гали": 1635,
    "хре": 1636,
    "  саме": 1637,
    ";  -о": 1638,
    "міч": 1639,
    "ука": 1640,
    "Росі": 1641,
    "швид": 1642,
    "Запорож": 1643,
    "бер": 1644,
    "єдна": 1645,
    "дві": 1646,
    "коза": 1647,
    "ському ": 1648,
    "юся": 1649,
    " нього ": 1650,
    "стос": 1651,
    "уже ": 1652,
    "дуже": 1653,
    "нув ": 1654,
    "біг": 1655,
    "гляда": 1656,
    " Ти": 1657,
    "дум": 1658,
    "плю": 1659,
    "вів": 1660,
    "до ": 1661,
    "чого-н": 1662,
    "  — \n": 1663,
    " разо": 1664,
    ", ніж": 1665,
    "сни": 1666,
    "гна": 1667,
    "ння,": 1668,
    "ть.": 1669,
    "чок": 1670,
    " Але": 1671,
    "es": 1672,
    "ніч": 1673,
    "ржа": 1674,
    "ру ": 1675,
    "джа": 1676,
    "стову": 1677,
    " одно": 1678,
    " тебе": 1679,
    "сма": 1680,
    "чови": 1681,
    "шся": 1682,
    " вас": 1683,
    " мови": 1684,
    " мої": 1685,
    "не,": 1686,
    "чина": 1687,
    " разом": 1688,
    ".  4.  ": 1689,
    "ник ": 1690,
    "an": 1691,
    "емлі": 1692,
    "знача": 1693,
    "стор. ": 1694,
    "чя": 1695,
    "  не": 1696,
    ",  у": 1697,
    "разо": 1698,
    " його": 1699,
    " кри": 1700,
    "домо": 1701,
    "ну.": 1702,
    "охо": 1703,
    "твор": 1704,
    "тив": 1705,
    "дере": 1706,
    "на \n": 1707,
    " ша": 1708,
    "йде": 1709,
    "ква": 1710,
    "рем": 1711,
    " вже": 1712,
    ". Він": 1713,
    "звичай": 1714,
    " козаць": 1715,
    "вано": 1716,
    " наз": 1717,
    " народ": 1718,
    "лови": 1719,
    "має  ": 1720,
    "право": 1721,
    "хво": 1722,
    " те, що ": 1723,
    "Пере": 1724,
    "рі ": 1725,
    "  при": 1726,
    "війсь": 1727,
    "чного ": 1728,
    " кра": 1729,
    " має": 1730,
    " тобі": 1731,
    "||": 1732,
    "дріб": 1733,
    "чин": 1734,
    "гою": 1735,
    "лі,": 1736,
    "н.)": 1737,
    "ювати": 1738,
    " полко": 1739,
    "в до ": 1740,
    " нево": 1741,
    "під  ": 1742,
    "нко": 1743,
    "ну, ": 1744,
    "ступ": 1745,
    "чини": 1746,
    "авто": 1747,
    "чого ": 1748,
    "ша ": 1749,
    " \nпо": 1750,
    " російсь": 1751,
    "п’я": 1752,
    "помо": 1753,
    "сього": 1754,
    "  із": 1755,
    " сказа": 1756,
    "гір": 1757,
    "ків.": 1758,
    "міг": 1759,
    " обо": 1760,
    " дум": 1761,
    "дня": 1762,
    "харак": 1763,
    " не мож": 1764,
    "НИЙ": 1765,
    "араб": 1766,
    " ки": 1767,
    "ві.": 1768,
    "гла": 1769,
    "певно": 1770,
    "якої": 1771,
    "і за": 1772,
    " зовсім": 1773,
    " запорожці": 1774,
    "ори": 1775,
    "філо": 1776,
    "літ": 1777,
    " них": 1778,
    "ду,": 1779,
    "сь,": 1780,
    " же ": 1781,
    "-по": 1782,
    ".  С": 1783,
    "грома": 1784,
    "ни, ": 1785,
    "сне": 1786,
    "фи": 1787,
    "гляді": 1788,
    "сив": 1789,
    "ти ї": 1790,
    " між": 1791,
    "вод": 1792,
    "ки з": 1793,
    "ла.": 1794,
    " жа": 1795,
    "дар": 1796,
    " вла": 1797,
    " ге": 1798,
    "зага": 1799,
    "рін": 1800,
    "різь": 1801,
    "ський": 1802,
    "уся": 1803,
    "хто ": 1804,
    " тур": 1805,
    "му.": 1806,
    "скри": 1807,
    "усти": 1808,
    " серед": 1809,
    "день": 1810,
    "рія": 1811,
    " почав": 1812,
    "рши": 1813,
    "с.  ": 1814,
    "гів": 1815,
    "лек": 1816,
    "ним  ": 1817,
    "тим": 1818,
    " сте": 1819,
    "  (у  ": 1820,
    "Те  саме": 1821,
    "мало": 1822,
    "теріа": 1823,
    "цію": 1824,
    " тра": 1825,
    " пода": 1826,
    "ІЯ": 1827,
    "вський ": 1828,
    " не хо": 1829,
    "вського ": 1830,
    "ника": 1831,
    " ти ": 1832,
    " \n\n\n\n": 1833,
    " не ви": 1834,
    ", па": 1835,
    "лег": 1836,
    "\n2.  ": 1837,
    " чита": 1838,
    "жя": 1839,
    "збір": 1840,
    "того ": 1841,
    "ціє": 1842,
    " каж": 1843,
    " під ": 1844,
    "користову": 1845,
    "ода": 1846,
    "  про": 1847,
    " пів": 1848,
    "споді": 1849,
    " Січі": 1850,
    "й за": 1851,
    "млю": 1852,
    "бри": 1853,
    "повід": 1854,
    " на по": 1855,
    "був": 1856,
    "світ": 1857,
    "хом": 1858,
    "цього ": 1859,
    " \nви": 1860,
    "кона": 1861,
    "чної": 1862,
    " досі": 1863,
    "дови": 1864,
    "одна": 1865,
    "стоя": 1866,
    "цем": 1867,
    " три": 1868,
    "Ди": 1869,
    "бать": 1870,
    "луз": 1871,
    "оповіда": 1872,
    "явля": 1873,
    "пись": 1874,
    "ріш": 1875,
    "іба": 1876,
    " старо": 1877,
    ",  -і,  ж": 1878,
    "Дра": 1879,
    "дале": 1880,
    "з по": 1881,
    ",  -я,  с": 1882,
    "кілька ": 1883,
    "музи": 1884,
    " пла": 1885,
    " побачи": 1886,
    "ня  ": 1887,
    "пара": 1888,
    "чува": 1889,
    " україн": 1890,
    "нно": 1891,
    "  і т .  і": 1892,
    " вона": 1893,
    "гома": 1894,
    "ніш": 1895,
    "око": 1896,
    "чим": 1897,
    " спі": 1898,
    "леж": 1899,
    " чер": 1900,
    "кто": 1901,
    " \nна": 1902,
    ",  -а,  ч.,  ": 1903,
    "Від": 1904,
    "бив": 1905,
    " знов": 1906,
    "зне": 1907,
    "мед": 1908,
    "чка": 1909,
    " після": 1910,
    "мор": 1911,
    " людей": 1912,
    " теж": 1913,
    " то ": 1914,
    "кому": 1915,
    "сь у": 1916,
    "\nза": 1917,
    "слуха": 1918,
    "сті  ": 1919,
    " зроби": 1920,
    " ци": 1921,
    "лі.": 1922,
    "ської ": 1923,
    "сійсько": 1924,
    " говори": 1925,
    "в,  ": 1926,
    "дав ": 1927,
    "нки": 1928,
    "ні. ": 1929,
    " професо": 1930,
    "ний,  -а,  -е.  ": 1931,
    "ємо": 1932,
    "ПР": 1933,
    "орга": 1934,
    "пера": 1935,
    "тах": 1936,
    "вість": 1937,
    "гом": 1938,
    "літи": 1939,
    "тех": 1940,
    "ло,": 1941,
    "нця": 1942,
    "ней": 1943,
    "вих  ": 1944,
    "пусти": 1945,
    "соба": 1946,
    " вийш": 1947,
    "оста": 1948,
    "і не ": 1949,
    " хто": 1950,
    " своїм": 1951,
    ",  -а,  ч.  ": 1952,
    "скла": 1953,
    ",  і": 1954,
    "вався ": 1955,
    "рку": 1956,
    " ри": 1957,
    "Через": 1958,
    "влю": 1959,
    "гетьман": 1960,
    "тварин": 1961,
    " моско": 1962,
    " через те": 1963,
    "(стор. ": 1964,
    ".  2.  перен.  ": 1965,
    "кня": 1966,
    "мля": 1967,
    "ще й": 1968,
    " Кри": 1969,
    ",  ч.  ": 1970,
    "АТИ": 1971,
    "мені": 1972,
    "ньої": 1973,
    " висо": 1974,
    ", стор. ": 1975,
    "иль": 1976,
    "каж": 1977,
    "ських": 1978,
    "дини  ": 1979,
    "терату": 1980,
    "чи  ": 1981,
    "всіх": 1982,
    "диви": 1983,
    "йня": 1984,
    "ними": 1985,
    "оби": 1986,
    "перев.  ": 1987,
    " для ": 1988,
    "зго": 1989,
    "йну": 1990,
    "щось": 1991,
    "ває": 1992,
    "крізь": 1993,
    "лиць": 1994,
    "кій ": 1995,
    "цтва": 1996,
    " вам": 1997,
    " кошо": 1998,
    " хоч ": 1999,
    "моло": 2000,
    "дат": 2001,
    "шів": 2002,
    "ла, ": 2003,
    "місти": 2004,
    "оль": 2005,
    "творе": 2006,
    "чому": 2007,
    " кож": 2008,
    "бур": 2009,
    "кому ": 2010,
    "кілько": 2011,
    "л  ": 2012,
    "ступи": 2013,
    "ш;  ": 2014,
    ",  -а,": 2015,
    "діб": 2016,
    "лін": 2017,
    "мів": 2018,
    "ною ": 2019,
    "те,": 2020,
    "устрі": 2021,
    " собою": 2022,
    "ана": 2023,
    "дро": 2024,
    "ти,  ": 2025,
    " 2.  ": 2026,
    "Який  стос": 2027,
    "кле": 2028,
    "нер": 2029,
    "тяж": 2030,
    "уска": 2031,
    "Жи": 2032,
    "вах": 2033,
    "дово": 2034,
    "місце": 2035,
    "слів": 2036,
    "това": 2037,
    "хиль": 2038,
    " не до": 2039,
    ",  -у,  ч.  ": 2040,
    "in": 2041,
    " там ": 2042,
    ",  -у,  ч.,  ": 2043,
    "й не ": 2044,
    "ніст": 2045,
    "чки": 2046,
    "е.  ": 2047,
    "ження": 2048,
    "ли по": 2049,
    ", пере": 2050,
    "вважа": 2051,
    "го.": 2052,
    "ду.": 2053,
    "й на ": 2054,
    "мій": 2055,
    "ния": 2056,
    "пуска": 2057,
    "тва ": 2058,
    "звіс": 2059,
    "кій  ": 2060,
    "пад": 2061,
    "  од": 2062,
    "гні": 2063,
    "ни  ": 2064,
    "овні": 2065,
    "тку ": 2066,
    " які": 2067,
    " держа": 2068,
    " разом ": 2069,
    "Ре": 2070,
    "ди,": 2071,
    "слід": 2072,
    "хар": 2073,
    "вала ": 2074,
    "реч": 2075,
    "умо": 2076,
    "ці. ": 2077,
    "..  ": 2078,
    "Ли": 2079,
    "кім": 2080,
    "логіч": 2081,
    "мент": 2082,
    "рту": 2083,
    "тек": 2084,
    "хлоп": 2085,
    "гне": 2086,
    "зди": 2087,
    "куль": 2088,
    "рун": 2089,
    ",  -о": 2090,
    "ко¬": 2091,
    "коло": 2092,
    "ність ": 2093,
    "ступа": 2094,
    "іде": 2095,
    " Тільки ": 2096,
    " щи": 2097,
    "я,  -ї,  ж": 2098,
    "який ": 2099,
    "блю": 2100,
    "дію": 2101,
    "сіб": 2102,
    "форма": 2103,
    "христи": 2104,
    "\nПро": 2105,
    " Коли ": 2106,
    " Фран": 2107,
    " запорожця": 2108,
    " нема": 2109,
    "ОЛ": 2110,
    "лат": 2111,
    "рни": 2112,
    "Драгома": 2113,
    "впа": 2114,
    "ва, ": 2115,
    "когось": 2116,
    "мий": 2117,
    "нак": 2118,
    " \n2.  ": 2119,
    " Лаго": 2120,
    " Вас": 2121,
    " не мо": 2122,
    " бачи": 2123,
    " себ": 2124,
    " стоя": 2125,
    ",  невід": 2126,
    "вра": 2127,
    "суд": 2128,
    "ті,": 2129,
    "ціона": 2130,
    " козаки ": 2131,
    " право": 2132,
    "йду": 2133,
    "ко,": 2134,
    "частина  ": 2135,
    "із  ": 2136,
    " та й ": 2137,
    " тоді ": 2138,
    "гайда": 2139,
    "ски": 2140,
    " части": 2141,
    "справді": 2142,
    ", що з": 2143,
    "гляд": 2144,
    "ома": 2145,
    "своїх": 2146,
    "тепер": 2147,
    "ва.": 2148,
    "ві  ": 2149,
    "лення": 2150,
    "спита": 2151,
    "горо": 2152,
    "ду  ": 2153,
    "правда": 2154,
    "ською": 2155,
    " буду": 2156,
    " більше": 2157,
    " воло": 2158,
    " роби": 2159,
    "нь,": 2160,
    "стій": 2161,
    ",  які": 2162,
    "кві": 2163,
    "ність  ": 2164,
    "цької": 2165,
    "ших ": 2166,
    "браз": 2167,
    "ніше": 2168,
    "робо": 2169,
    "свою": 2170,
    "ть у": 2171,
    "христия": 2172,
    " життя": 2173,
    "він": 2174,
    "від  ": 2175,
    "гаду": 2176,
    "дба": 2177,
    "княз": 2178,
    " моє": 2179,
    " турець": 2180,
    ",  -а,  ч.,  кл.  -е  [": 2181,
    "зра": 2182,
    " пан": 2183,
    "ких  ": 2184,
    "ло.": 2185,
    "ль ": 2186,
    "льний  ": 2187,
    "тьо": 2188,
    ", мабу": 2189,
    "Ше": 2190,
    "ву,": 2191,
    "же, ": 2192,
    "нім.  ": 2193,
    "систе": 2194,
    "тів ": 2195,
    " пішо": 2196,
    "а по": 2197,
    "дна ": 2198,
    "змі": 2199,
    "лля": 2200,
    "люд": 2201,
    "цер": 2202,
    "шука": 2203,
    " бути ": 2204,
    "безпе": 2205,
    "елек": 2206,
    "шкі": 2207,
    " полковни": 2208,
    "га ": 2209,
    "гроші": 2210,
    "свого ": 2211,
    "старо": 2212,
    "ти.\n": 2213,
    "-не": 2214,
    "ІЯ,  -ї,  ж": 2215,
    "ала": 2216,
    "окре": 2217,
    ", так": 2218,
    "по¬": 2219,
    "ти до ": 2220,
    "у  знач": 2221,
    "ходя": 2222,
    "on": 2223,
    "бре": 2224,
    "вого  ": 2225,
    "ві, ": 2226,
    "тиме": 2227,
    "уже": 2228,
    " гра": 2229,
    " непо": 2230,
    " татар": 2231,
    "Пер": 2232,
    "мід": 2233,
    "уття": 2234,
    "худо": 2235,
    "широ": 2236,
    " При": 2237,
    " книж": 2238,
    "  за  ": 2239,
    "«О": 2240,
    "кни": 2241,
    " похо": 2242,
    "Ще": 2243,
    "кору": 2244,
    "\nщо": 2245,
    " вій": 2246,
    ",  що ": 2247,
    "береж": 2248,
    "ве ": 2249,
    "ний, ": 2250,
    "тей": 2251,
    "яка": 2252,
    "ідно": 2253,
    " добро": 2254,
    " моя": 2255,
    ". Але": 2256,
    "афіз": 2257,
    "жив": 2258,
    "це ": 2259,
    " осо": 2260,
    "Дія": 2261,
    "бажа": 2262,
    "грі": 2263,
    "казав": 2264,
    "ндрі": 2265,
    "си ": 2266,
    "ціа": 2267,
    "якого": 2268,
    "жен": 2269,
    "стич": 2270,
    "ткани": 2271,
    " дво": 2272,
    "вони": 2273,
    "про ": 2274,
    "свід": 2275,
    "ти, що ": 2276,
    "і на ": 2277,
    " мав": 2278,
    ";  ви": 2279,
    "аля": 2280,
    "звід": 2281,
    "зрозумі": 2282,
    "тки": 2283,
    " мов": 2284,
    "вою ": 2285,
    "лу ": 2286,
    "оли": 2287,
    "стри": 2288,
    "ублі": 2289,
    " Вели": 2290,
    "друку": 2291,
    "остро": 2292,
    "часу": 2293,
    " зах": 2294,
    "Іва": 2295,
    "Богун": 2296,
    "ки й": 2297,
    "\n1.  ": 2298,
    " ско": 2299,
    "(у  ": 2300,
    ". Про": 2301,
    "вез": 2302,
    "кну": 2303,
    "нів ": 2304,
    "ага": 2305,
    "людей": 2306,
    "рес": 2307,
    "шту": 2308,
    "...  ": 2309,
    "ми.\n": 2310,
    "нії": 2311,
    "ському": 2312,
    "уче": 2313,
    "чий": 2314,
    "чима": 2315,
    " 15": 2316,
    "дати ": 2317,
    "землі": 2318,
    "кви": 2319,
    "ку  ": 2320,
    "ходить": 2321,
    " обі": 2322,
    " уже ": 2323,
    " пам’я": 2324,
    "ОН": 2325,
    "зва": 2326,
    "ник  ": 2327,
    " XV": 2328,
    " йому ": 2329,
    "нови": 2330,
    " здо": 2331,
    " один": 2332,
    "бом": 2333,
    "йська ": 2334,
    "ний,  ": 2335,
    "разом": 2336,
    "ского ": 2337,
    "мину": 2338,
    "та,": 2339,
    "юва": 2340,
    " він,": 2341,
    "но в": 2342,
    "пру": 2343,
    ",  -ую": 2344,
    "осе": 2345,
    " можна": 2346,
    "1  знач.)": 2347,
    "IV": 2348,
    "зни": 2349,
    "му, ": 2350,
    "нен": 2351,
    " ним": 2352,
    " них ": 2353,
    " коло": 2354,
    ",  -а,  -е.": 2355,
    "Прі": 2356,
    "дну": 2357,
    "чолові": 2358,
    ",  невідм.,  ": 2359,
    ", коли": 2360,
    "Ль": 2361,
    "ний.": 2362,
    "ном ": 2363,
    "уро": 2364,
    "ччя": 2365,
    "шни": 2366,
    " на те": 2367,
    "готовле": 2368,
    "кону": 2369,
    "розви": 2370,
    "яке": 2371,
    "ібра": 2372,
    "  зі  знач": 2373,
    "  одно": 2374,
    " би ": 2375,
    "його  ": 2376,
    "ни. ": 2377,
    "ой,  ": 2378,
    "Той,  ": 2379,
    "публі": 2380,
    "  зву": 2381,
    ",  ш": 2382,
    ",  яка  ": 2383,
    ", що по": 2384,
    "лиши": 2385,
    "лою": 2386,
    "мом": 2387,
    "ння, ": 2388,
    "російсь": 2389,
    "так": 2390,
    "ура": 2391,
    "ціка": 2392,
    ".  Н": 2393,
    "Піс": 2394,
    "ного": 2395,
    "багато": 2396,
    "гри": 2397,
    "діля": 2398,
    "нші": 2399,
    "чного  ": 2400,
    " (стор. ": 2401,
    "ані ": 2402,
    "кий,": 2403,
    "матич": 2404,
    "ної  ": 2405,
    "ування": 2406,
    "чки ": 2407,
    " далі": 2408,
    "зло": 2409,
    "спец.  ": 2410,
    "  скла": 2411,
    " кажу": 2412,
    "а не ": 2413,
    "ги ": 2414,
    "зад": 2415,
    "лежа": 2416,
    "нців": 2417,
    "плу": 2418,
    "тря": 2419,
    "і ви": 2420,
    "і на": 2421,
    " боро": 2422,
    "ково": 2423,
    "ние": 2424,
    "сів ": 2425,
    " сла": 2426,
    "  та  ": 2427,
    "  сло": 2428,
    " світ": 2429,
    ",  ч.,  кл.  -": 2430,
    ".  [франц.  ": 2431,
    "міще": 2432,
    "під  час": 2433,
    "рок": 2434,
    "рух": 2435,
    "увати ": 2436,
    "ції  ": 2437,
    "дума": 2438,
    "ження  ": 2439,
    "ний \n": 2440,
    "станови": 2441,
    "сії": 2442,
    "ценз": 2443,
    " військом": 2444,
    " може": 2445,
    ", 19": 2446,
    ",  прис": 2447,
    ". \n\n\n\n": 2448,
    "слова": 2449,
    " зам": 2450,
    " замість ": 2451,
    "II ": 2452,
    "вих ": 2453,
    "кав": 2454,
    "ли ї": 2455,
    "ства ": 2456,
    "у.  ": 2457,
    "чи ": 2458,
    "шка": 2459,
    "шей": 2460,
    " зда": 2461,
    " Васи": 2462,
    " деся": 2463,
    " козаки": 2464,
    ", роз": 2465,
    "лігі": 2466,
    " \nза": 2467,
    " поль": 2468,
    ",  -а,  с": 2469,
    ", мов": 2470,
    "Галя": 2471,
    "ж до ": 2472,
    "й на": 2473,
    "низ": 2474,
    "як  ": 2475,
    "  зе": 2476,
    "  осо": 2477,
    " таке": 2478,
    ",  про": 2479,
    ".  —  ": 2480,
    "Поль": 2481,
    "ару": 2482,
    "лив": 2483,
    " усіх": 2484,
    "ur": 2485,
    "КА,  -и,  ж": 2486,
    "раді": 2487,
    "хопи": 2488,
    " гру": 2489,
    "Шмід": 2490,
    "льності": 2491,
    "мою": 2492,
    "нні": 2493,
    " Володими": 2494,
    " ота": 2495,
    " українсь": 2496,
    " міг": 2497,
    " невели": 2498,
    "більш": 2499,
    "ль¬": 2500,
    "стів": 2501,
    "ти!": 2502,
    " буд": 2503,
    " міс": 2504,
    ",  в": 2505,
    ",  -а, ": 2506,
    "Ваш": 2507,
    "лат.": 2508,
    "ння. ": 2509,
    "ціаль": 2510,
    "чення  ": 2511,
    "інте": 2512,
    " Запорозь": 2513,
    " кон": 2514,
    " своєї": 2515,
    "гну": 2516,
    "для  ви": 2517,
    "дійс": 2518,
    "служ": 2519,
    " поміж": 2520,
    "000": 2521,
    "а,  -е": 2522,
    "вався": 2523,
    "гу ": 2524,
    "лад": 2525,
    "ти,  -": 2526,
    "той": 2527,
    "хва": 2528,
    ";  -увати": 2529,
    "IX": 2530,
    "віз": 2531,
    "грец": 2532,
    "де ": 2533,
    "май": 2534,
    "сам": 2535,
    " ще й": 2536,
    ",  -ає": 2537,
    "кими": 2538,
    "нського ": 2539,
    "точ": 2540,
    "тіка": 2541,
    "яка ": 2542,
    " вер": 2543,
    " не о": 2544,
    "Доро": 2545,
    "військо": 2546,
    "газ": 2547,
    "пада": 2548,
    "пов": 2549,
    "сні": 2550,
    "стей": 2551,
    "султа": 2552,
    " від ": 2553,
    " чого ": 2554,
    ";  -і": 2555,
    "Мари": 2556,
    "знач": 2557,
    "йне": 2558,
    "склад": 2559,
    "стий": 2560,
    "ть і": 2561,
    "цін": 2562,
    "щасли": 2563,
    "істори": 2564,
    "  <": 2565,
    " далі ": 2566,
    " молоди": 2567,
    "ген": 2568,
    "нові": 2569,
    "робле": 2570,
    "францу": 2571,
    " Сі": 2572,
    " який": 2573,
    ".  2.  пере": 2574,
    "предме": 2575,
    "турець": 2576,
    "Всі": 2577,
    "вся з": 2578,
    "ву.": 2579,
    "кор": 2580,
    "сказа": 2581,
    "сь, ": 2582,
    "сія": 2583,
    "хвили": 2584,
    " спра": 2585,
    "ла в": 2586,
    "лі, ": 2587,
    "ологі": 2588,
    "пан": 2589,
    "плив": 2590,
    "ріб": 2591,
    "хлі": 2592,
    "\nне": 2593,
    " неза": 2594,
    ", де ": 2595,
    "-а,  -е": 2596,
    ". Ви": 2597,
    "ли до ": 2598,
    "лоз": 2599,
    "ністю": 2600,
    "ти й": 2601,
    "цях": 2602,
    "  по¬": 2603,
    " почали ": 2604,
    " року": 2605,
    ", ба": 2606,
    "Гнат": 2607,
    "бор": 2608,
    "ган": 2609,
    "кщо": 2610,
    "носи": 2611,
    "ради": 2612,
    " про те": 2613,
    "лах": 2614,
    " оче": 2615,
    " у  ": 2616,
    " на Украї": 2617,
    " просто": 2618,
    ". Тільки ": 2619,
    "us": 2620,
    "мента": 2621,
    "пар": 2622,
    " своєю": 2623,
    "волю": 2624,
    "ло, ": 2625,
    " 189": 2626,
    " було б": 2627,
    " після ": 2628,
    ", що ї": 2629,
    "Руда": 2630,
    "Росії": 2631,
    "вропе": 2632,
    "дни": 2633,
    "льної": 2634,
    " були": 2635,
    " коло ": 2636,
    " коха": 2637,
    " тепер ": 2638,
    ",  пере": 2639,
    "біга": 2640,
    "валися ": 2641,
    "гда": 2642,
    "ду, ": 2643,
    "пси": 2644,
    "рен": 2645,
    "ста ": 2646,
    "творю": 2647,
    "чних": 2648,
    " бе": 2649,
    " можна ": 2650,
    " недо": 2651,
    "Андрі": 2652,
    "ЕЛ": 2653,
    "Запорожжя": 2654,
    "кля": 2655,
    "н.;  ": 2656,
    "француз": 2657,
    "шен": 2658,
    "інак": 2659,
    "  а": 2660,
    " козак": 2661,
    ".  Р": 2662,
    "кров": 2663,
    "реди": 2664,
    "ріга": 2665,
    "щастя": 2666,
    " уся": 2667,
    " Пер": 2668,
    " нена": 2669,
    ",  яка": 2670,
    "АЦ": 2671,
    "ніза": 2672,
    "суль": 2673,
    "АС": 2674,
    "Люди": 2675,
    "й ви": 2676,
    "тріб": 2677,
    "вну": 2678,
    "гли ": 2679,
    "лення  ": 2680,
    "ули": 2681,
    "чав": 2682,
    "інші": 2683,
    "\nна  ": 2684,
    "\nти": 2685,
    " йому": 2686,
    " козаків ": 2687,
    "грец.": 2688,
    "за ": 2689,
    "людини": 2690,
    "на,  ": 2691,
    "нько": 2692,
    "ря ": 2693,
    "та.": 2694,
    " 1.  ": 2695,
    " Пере": 2696,
    " біля ": 2697,
    "близь": 2698,
    "лон": 2699,
    "пта": 2700,
    "товари": 2701,
    "ужи": 2702,
    " тво": 2703,
    ", він": 2704,
    ", що ви": 2705,
    "бала": 2706,
    "ви¬": 2707,
    "прямо": 2708,
    "чого-н.": 2709,
    " каза": 2710,
    "вого": 2711,
    "ві. ": 2712,
    "дова": 2713,
    "емля": 2714,
    "ка,  -и,  ж": 2715,
    "стер": 2716,
    " кори": 2717,
    " на о": 2718,
    ",  -ую,  -ує": 2719,
    "деяких": 2720,
    "ким  ": 2721,
    "кого-": 2722,
    "– то": 2723,
    " зга": 2724,
    ");  ": 2725,
    "АМ": 2726,
    "Сло": 2727,
    "втор": 2728,
    "два ": 2729,
    "деся": 2730,
    "емлю": 2731,
    "или": 2732,
    "ка»": 2733,
    "ними  ": 2734,
    "сь.": 2735,
    "хоч": 2736,
    "якого  ": 2737,
    " остан": 2738,
    " Ну,": 2739,
    ". Та ": 2740,
    "берег": 2741,
    "не, ": 2742,
    "хіба": 2743,
    "хідно": 2744,
    " шлях": 2745,
    " всіх": 2746,
    " мій": 2747,
    " попро": 2748,
    "гада": 2749,
    "коно": 2750,
    "ріо": 2751,
    "уба": 2752,
    "\nре": 2753,
    "  (про  ": 2754,
    " гарма": 2755,
    " такі": 2756,
    "бливо": 2757,
    "ри,": 2758,
    "ру.": 2759,
    "стом": 2760,
    "  від  ": 2761,
    " чолові": 2762,
    "власти": 2763,
    "ків. ": 2764,
    "ла  ": 2765,
    "но з": 2766,
    "нський ": 2767,
    "сь з": 2768,
    "  організ": 2769,
    " місце": 2770,
    ", що й": 2771,
    ".  О": 2772,
    "бар": 2773,
    "дко": 2774,
    "дження": 2775,
    "ливий": 2776,
    "льний": 2777,
    "образ": 2778,
    "пе¬": 2779,
    "прац": 2780,
    "після": 2781,
    "чуття": 2782,
    "\nВі": 2783,
    " знай": 2784,
    " тися": 2785,
    "бру": 2786,
    "бів": 2787,
    "ко¬ ": 2788,
    "лю ": 2789,
    "тем": 2790,
    "європе": 2791,
    " запорожці ": 2792,
    " російсько": 2793,
    "ar": 2794,
    "Дру": 2795,
    "вом": 2796,
    "зеле": 2797,
    "ке військо": 2798,
    "мані": 2799,
    "рей": 2800,
    "ской": 2801,
    "ЕТ": 2802,
    "вен": 2803,
    "вони ": 2804,
    "відо": 2805,
    "жувати": 2806,
    "проти ": 2807,
    "рто": 2808,
    "року ": 2809,
    "угу": 2810,
    "шта": 2811,
    " Дніпро": 2812,
    " будь": 2813,
    ".  І": 2814,
    "гого ": 2815,
    "ка \n": 2816,
    "кість": 2817,
    "насти": 2818,
    "пам’я": 2819,
    "уні": 2820,
    "яку ": 2821,
    " кін": 2822,
    " свя": 2823,
    "АВ": 2824,
    "вщи": 2825,
    "клю": 2826,
    "ографі": 2827,
    "по¬ ": 2828,
    "  осно": 2829,
    " прий": 2830,
    ".\nТа": 2831,
    "давньо": 2832,
    "кого  ": 2833,
    "склада": 2834,
    "ся,": 2835,
    "тися з": 2836,
    "ту.": 2837,
    "ця,": 2838,
    "\nдо": 2839,
    " поми": 2840,
    " такі ": 2841,
    "воз": 2842,
    "віс": 2843,
    "кувати": 2844,
    "спіль": 2845,
    "цький ": 2846,
    "чай": 2847,
    "  або": 2848,
    " доро": 2849,
    " лиши": 2850,
    "видя": 2851,
    "льного ": 2852,
    "нами": 2853,
    "оте": 2854,
    "плі": 2855,
    "ряту": 2856,
    "сову": 2857,
    "сторо": 2858,
    "трима": 2859,
    " Гали": 2860,
    ".  По": 2861,
    "матеріа": 2862,
    "уко": 2863,
    "що-": 2864,
    "(по": 2865,
    ";  -а": 2866,
    "Драгомано": 2867,
    "Той,  хто": 2868,
    "вжи": 2869,
    "глі": 2870,
    "сті.": 2871,
    " старши": 2872,
    "es ": 2873,
    "го по": 2874,
    "голов": 2875,
    "ма  ": 2876,
    "разі": 2877,
    "рою": 2878,
    " віз": 2879,
    " нею": 2880,
    " не ма": 2881,
    ",  до": 2882,
    ".  2.  П": 2883,
    "УР": 2884,
    "дак": 2885,
    "дійсн": 2886,
    "ли й": 2887,
    "ників": 2888,
    "ця.": 2889,
    "ювання": 2890,
    "’єдна": 2891,
    " Хмельни": 2892,
    " важ": 2893,
    " тіє": 2894,
    ", що він": 2895,
    "22": 2896,
    "золо": 2897,
    "кнув": 2898,
    "о  ": 2899,
    "ра,": 2900,
    "сь о": 2901,
    "ти і": 2902,
    "\nпри": 2903,
    "КА,  -и,  ж.,  дав.,  м.  -ці": 2904,
    "друкова": 2905,
    "лка": 2906,
    "пали": 2907,
    "ть. ": 2908,
    "цею": 2909,
    " малору": 2910,
    " тільки ж": 2911,
    "(18": 2912,
    ". Це": 2913,
    "or": 2914,
    "Старо": 2915,
    "олі": 2916,
    "тератур": 2917,
    "фізи": 2918,
    "  для  ": 2919,
    ", 189": 2920,
    ";  який  ": 2921,
    "рна": 2922,
    "родини  ": 2923,
    "скільки": 2924,
    "сь на ": 2925,
    "твір": 2926,
    "яких ": 2927,
    " Ду": 2928,
    " каже": 2929,
    " руко": 2930,
    " щоб": 2931,
    "at": 2932,
    "en ": 2933,
    "it": 2934,
    "Мару": 2935,
    "бай": 2936,
    "дного ": 2937,
    "лежи": 2938,
    "лей": 2939,
    "перш": 2940,
    "писав": 2941,
    "робля": 2942,
    "сан": 2943,
    "ський ": 2944,
    "чем": 2945,
    " спита": 2946,
    "бря": 2947,
    "вигляді": 2948,
    "ди.": 2949,
    "кту": 2950,
    "нський": 2951,
    "ну. ": 2952,
    "сті,": 2953,
    "французь": 2954,
    " немає": 2955,
    " чима": 2956,
    ", наві": 2957,
    "землю": 2958,
    "нших": 2959,
    "род.  -": 2960,
    "часто": 2961,
    " які ": 2962,
    "  роз": 2963,
    " султа": 2964,
    "al": 2965,
    "УЛ": 2966,
    "Хафіз": 2967,
    "вчен": 2968,
    "кої ": 2969,
    "поряд": 2970,
    "своєї": 2971,
    "форте": 2972,
    "черво": 2973,
    "я по": 2974,
    "їхав": 2975,
    " трохи": 2976,
    " наші": 2977,
    "азав": 2978,
    "бива": 2979,
    "ми й": 2980,
    "му. ": 2981,
    "на з": 2982,
    "\nВи": 2983,
    " \nщо": 2984,
    " так само": 2985,
    ", себ": 2986,
    ", та й": 2987,
    "звичайно": 2988,
    "кові ": 2989,
    "ко, ": 2990,
    "лок": 2991,
    "логії": 2992,
    "обли": 2993,
    "оза": 2994,
    "письмен": 2995,
    "рослин": 2996,
    " гетьма": 2997,
    "  також": 2998,
    " нео": 2999,
    " чи ": 3000,
    ", до ": 3001,
    ",  Ж": 3002,
    ",  від": 3003,
    "Пото": 3004,
    "глибо": 3005,
    "графи": 3006,
    "дійш": 3007,
    "лень": 3008,
    "но о": 3009,
    "остя": 3010,
    "чик": 3011,
    " зве": 3012,
    " ля": 3013,
    " Дніпра": 3014,
    " зага": 3015,
    " знову": 3016,
    ", під": 3017,
    "УВ": 3018,
    "ки в": 3019,
    "лод": 3020,
    "но,": 3021,
    "тяга": 3022,
    "– по": 3023,
    "\nно": 3024,
    "  допомо": 3025,
    " нічого": 3026,
    "-небудь": 3027,
    ";  по": 3028,
    "кіс": 3029,
    "ли у": 3030,
    "люби": 3031,
    "мене ": 3032,
    "рив": 3033,
    "рос": 3034,
    "рів ": 3035,
    " коней": 3036,
    " собі ": 3037,
    "Голо": 3038,
    "Костя": 3039,
    "біля": 3040,
    "більше ": 3041,
    "вої  ": 3042,
    "дина": 3043,
    "збу": 3044,
    "ла з": 3045,
    "мих": 3046,
    "нсько": 3047,
    "плута": 3048,
    "рію": 3049,
    "сті,  ж": 3050,
    "ти о": 3051,
    "ував": 3052,
    " Чорно": 3053,
    " не при": 3054,
    "ОС": 3055,
    "знову": 3056,
    "мар": 3057,
    "несе": 3058,
    "ти?": 3059,
    "тиму": 3060,
    " а по": 3061,
    " міся": 3062,
    " сам ": 3063,
    ", які": 3064,
    "між  ": 3065,
    "овна": 3066,
    "ти:": 3067,
    " пішов": 3068,
    "(на": 3069,
    ".  На": 3070,
    "вче": 3071,
    "гою  ": 3072,
    "ки.\n": 3073,
    "лиц": 3074,
    "нци": 3075,
    "чної  ": 3076,
    " до того ": 3077,
    ",  де": 3078,
    "земля": 3079,
    "ка.\n": 3080,
    "колі": 3081,
    "лян": 3082,
    "мон": 3083,
    "нням  ": 3084,
    "руйну": 3085,
    "уря": 3086,
    "ців ": 3087,
    "і при": 3088,
    " ву": 3089,
    " відо": 3090,
    "в, що ": 3091,
    "весь ": 3092,
    "далі": 3093,
    "дах": 3094,
    "дає ": 3095,
    "знай": 3096,
    "ка\n": 3097,
    "льного  ": 3098,
    "ти по": 3099,
    " Бі": 3100,
    " робо": 3101,
    ",  -аю": 3102,
    "Базав": 3103,
    "Все": 3104,
    "ОМ": 3105,
    "Оле": 3106,
    "ватися ": 3107,
    "гід": 3108,
    "дніє": 3109,
    "дів ": 3110,
    "ння \n": 3111,
    "різно": 3112,
    "тів  ": 3113,
    "укуп": 3114,
    "шлю": 3115,
    "інших": 3116,
    "(про": 3117,
    ",  -у,  ч.  [франц.  ": 3118,
    ".  М": 3119,
    "Довна": 3120,
    "говори": 3121,
    "зустрі": 3122,
    "обро": 3123,
    "рсу": 3124,
    "решті": 3125,
    " стра": 3126,
    " лег": 3127,
    " тому": 3128,
    "нку": 3129,
    "тві": 3130,
    "чувати": 3131,
    " \n1.  ": 3132,
    " доводи": 3133,
    " стат": 3134,
    "III ": 3135,
    "isch": 3136,
    "госпо": 3137,
    "ков": 3138,
    "льна  ": 3139,
    "нія": 3140,
    "рій": 3141,
    "\nта": 3142,
    " можу": 3143,
    " не тільки ": 3144,
    " татарсь": 3145,
    " тут ": 3146,
    ";  -и": 3147,
    "стре": 3148,
    "сього ": 3149,
    "ту,": 3150,
    " буде ": 3151,
    " війсь": 3152,
    " госпо": 3153,
    " море": 3154,
    " своїй": 3155,
    "А,  -и": 3156,
    "Який ": 3157,
    "атери": 3158,
    "дві ": 3159,
    "кси": 3160,
    "ко.": 3161,
    "кольо": 3162,
    "ному ": 3163,
    "розм": 3164,
    " багато": 3165,
    " дума": 3166,
    " душ": 3167,
    " мало": 3168,
    " пол": 3169,
    "гад": 3170,
    "жіно": 3171,
    "збира": 3172,
    "ли. ": 3173,
    "нич": 3174,
    "разом ": 3175,
    "речови": 3176,
    "тій": 3177,
    "уль": 3178,
    "чих": 3179,
    "чор": 3180,
    "\nв  ": 3181,
    " розумі": 3182,
    "вала": 3183,
    "дорож": 3184,
    "ки і": 3185,
    "лися на ": 3186,
    "орти": 3187,
    "пини": 3188,
    "ти їх": 3189,
    "ті.": 3190,
    " а не ": 3191,
    " цер": 3192,
    "вніч": 3193,
    "дпові": 3194,
    "зволя": 3195,
    "нце": 3196,
    "нці": 3197,
    "хну": 3198,
    "чого-н.  ": 3199,
    " назад": 3200,
    " професор": 3201,
    " таки ": 3202,
    ",  на  ": 3203,
    ",  -а,  -е. ": 3204,
    ".  1": 3205,
    ".  [і": 3206,
    "вня": 3207,
    "етно": 3208,
    "при¬": 3209,
    "ри.": 3210,
    "різа": 3211,
    "ючи  ": 3212,
    " дале": 3213,
    " через ": 3214,
    "Зна": 3215,
    "Тре": 3216,
    "Те  саме,  що  ": 3217,
    "Хорти": 3218,
    "біля ": 3219,
    "ла. ": 3220,
    "р  ": 3221,
    "ць ": 3222,
    "шки": 3223,
    " бажа": 3224,
    " став": 3225,
    "«Пра": 3226,
    "Костянти": 3227,
    "ді,": 3228,
    "дійсню": 3229,
    "наз": 3230,
    "о  —  ": 3231,
    "під ": 3232,
    "худож": 3233,
    "і про": 3234,
    " націона": 3235,
    ",  -ює": 3236,
    ",  ч.,  ": 3237,
    ", котрі": 3238,
    "- \n\n\n\n": 3239,
    "Дія  зі  знач": 3240,
    "Хусе": 3241,
    "аби": 3242,
    "ака": 3243,
    "вище": 3244,
    "жит": 3245,
    "зму": 3246,
    "меж": 3247,
    "приє": 3248,
    "шма": 3249,
    " «О": 3250,
    " смер": 3251,
    " не на": 3252,
    " слова": 3253,
    " та по": 3254,
    ".  К": 3255,
    ". Тільки ж": 3256,
    " ото": 3257,
    "  (про": 3258,
    " диви": 3259,
    " люби": 3260,
    "берега": 3261,
    "дної": 3262,
    "зде": 3263,
    "иля": 3264,
    "к ви": 3265,
    "нських": 3266,
    "ні в": 3267,
    "рдіє": 3268,
    "ордіє": 3269,
    "Гордіє": 3270,
    "таж": 3271,
    "тий  ": 3272,
    " товариство": 3273,
    "2  знач.)": 3274,
    ";  -й": 3275,
    "ані": 3276,
    "віль": 3277,
    "к по": 3278,
    "ло в": 3279,
    "ль,": 3280,
    "м по": 3281,
    "осно": 3282,
    " \nти": 3283,
    " 16": 3284,
    "!\n ": 3285,
    ";  за": 3286,
    "вського": 3287,
    "волі": 3288,
    "вона ": 3289,
    "діл": 3290,
    "знов": 3291,
    "ка в": 3292,
    "ліс": 3293,
    "лі. ": 3294,
    "они": 3295,
    "працю": 3296,
    "сюди": 3297,
    "чні": 3298,
    "шире": 3299,
    " ло": 3300,
    " нас ": 3301,
    " не міг": 3302,
    " прото": 3303,
    "Вас": 3304,
    "го. ": 3305,
    "давши": 3306,
    "з на": 3307,
    "ниц": 3308,
    "ые": 3309,
    "– за": 3310,
    " ну": 3311,
    " спа": 3312,
    " Крим": 3313,
    " горо": 3314,
    " літ": 3315,
    " таких": 3316,
    " тому ": 3317,
    ",  у  ": 3318,
    "].  С": 3319,
    "Собо": 3320,
    "Шевчен": 3321,
    "голос": 3322,
    "грець": 3323,
    "двох": 3324,
    "ду. ": 3325,
    "літич": 3326,
    "нь.": 3327,
    "проце": 3328,
    "тон": 3329,
    " поез": 3330,
    ",  об": 3331,
    "-е.  ": 3332,
    "et": 3333,
    "Базавлу": 3334,
    "Фе": 3335,
    "к на ": 3336,
    "лія": 3337,
    "ми по": 3338,
    "них  с": 3339,
    "скін": 3340,
    "слов’я": 3341,
    "тіла": 3342,
    "ція,  -ї,  ж": 3343,
    "чно ": 3344,
    "шиї": 3345,
    "ґрун": 3346,
    "  су": 3347,
    " Тепер": 3348,
    "! Не": 3349,
    ",  ч.  1.  ": 3350,
    "Ье": 3351,
    "вас": 3352,
    "загалі": 3353,
    "ляка": 3354,
    "мле": 3355,
    "слово": 3356,
    "тен": 3357,
    "ти. \n": 3358,
    "ує  ": 3359,
    " \nна  ": 3360,
    " схо": 3361,
    " годи": 3362,
    " дові": 3363,
    " поезі": 3364,
    " рід": 3365,
    "(про  ": 3366,
    ",  -й": 3367,
    ",  -у,  ч.  [лат.  ": 3368,
    ", мабуть,": 3369,
    ".  Ви": 3370,
    "Бори": 3371,
    "ми. \n": 3372,
    "оско": 3373,
    "пив": 3374,
    "скрізь": 3375,
    "спро": 3376,
    "спец": 3377,
    "те, ": 3378,
    "у по": 3379,
    "чна  ": 3380,
    "якої  ": 3381,
    " одного ": 3382,
    ".  В": 3383,
    "джере": 3384,
    "кора": 3385,
    "ти)": 3386,
    "цілу": 3387,
    "  для": 3388,
    "  за¬": 3389,
    " Петро": 3390,
    "аза": 3391,
    "вся до ": 3392,
    "г  —  ": 3393,
    "клі": 3394,
    "кий, ": 3395,
    "одна ": 3396,
    "пти": 3397,
    "різня": 3398,
    "самі": 3399,
    "сите": 3400,
    "ти \n": 3401,
    "шля": 3402,
    " Ве": 3403,
    "!\n –": 3404,
    "КР": 3405,
    "Коза": 3406,
    "Соболе": 3407,
    "Який  стос,  ": 3408,
    "зоста": 3409,
    "знав": 3410,
    "ках ": 3411,
    "ль¬ ": 3412,
    "мисте": 3413,
    "на»": 3414,
    "оча": 3415,
    "про¬": 3416,
    "сподіва": 3417,
    " усе": 3418,
    " фа": 3419,
    " Тут": 3420,
    " він.": 3421,
    " прац": 3422,
    " така ": 3423,
    ",  -у,  ч.  1.  ": 3424,
    ".  2": 3425,
    "еред": 3426,
    "ньому ": 3427,
    "подіб": 3428,
    "тні": 3429,
    " скри": 3430,
    " біля": 3431,
    " пора": 3432,
    " піз": 3433,
    "08  —  ": 3434,
    "ало": 3435,
    "вся на ": 3436,
    "гарма": 3437,
    "дже ": 3438,
    "дом ": 3439,
    "зброє": 3440,
    "ків і": 3441,
    "ні з": 3442,
    "рівня": 3443,
    "тріш": 3444,
    "цького": 3445,
    "єди": 3446,
    " спи": 3447,
    "  пере": 3448,
    ", які ": 3449,
    "-таки ": 3450,
    ".  —": 3451,
    "el": 3452,
    "ба ": 3453,
    "вало": 3454,
    "видяч": 3455,
    "ву, ": 3456,
    "ди, ": 3457,
    "епі": 3458,
    "кої  ": 3459,
    "міром": 3460,
    "ноч": 3461,
    "одпові": 3462,
    "рим": 3463,
    " Киє": 3464,
    " поверну": 3465,
    " посла": 3466,
    " такого ": 3467,
    ",  -аю,  -ає": 3468,
    ".  За": 3469,
    "гло": 3470,
    "еме": 3471,
    "лії": 3472,
    "ми і": 3473,
    "нові ": 3474,
    "нь, ": 3475,
    "рох": 3476,
    "шив": 3477,
    "ється,": 3478,
    "\nу  ": 3479,
    " \nне": 3480,
    " два": 3481,
    "  сві": 3482,
    " Сагайда": 3483,
    " себе ": 3484,
    "35": 3485,
    "Сули": 3486,
    "вга": 3487,
    "ва. ": 3488,
    "вного ": 3489,
    "дмі": 3490,
    "дити": 3491,
    "за  ": 3492,
    "куди": 3493,
    "ові": 3494,
    "ські": 3495,
    "ті, ": 3496,
    " казав": 3497,
    " мен": 3498,
    ", а не ": 3499,
    ";  не": 3500,
    "баром": 3501,
    "ванням": 3502,
    "висо": 3503,
    "датка": 3504,
    "літа": 3505,
    "меха": 3506,
    "ра.": 3507,
    "разу ": 3508,
    "скільки ": 3509,
    "ть!": 3510,
    " 17": 3511,
    " тієї": 3512,
    "XIX": 3513,
    "віта": 3514,
    "йру": 3515,
    "ла на ": 3516,
    "лем": 3517,
    "рне": 3518,
    "ти про": 3519,
    " заги": 3520,
    " на  ": 3521,
    " щось": 3522,
    ".  2.  С": 3523,
    "Катери": 3524,
    "асти": 3525,
    "вний  ": 3526,
    "кнай": 3527,
    "ка з": 3528,
    "кою.": 3529,
    "крім": 3530,
    "ми, а": 3531,
    "мось": 3532,
    "пах": 3533,
    "  змі": 3534,
    " воно ": 3535,
    " кар": 3536,
    " хоче": 3537,
    "аро": 3538,
    "гур": 3539,
    "коли ": 3540,
    "кува": 3541,
    "нглі": 3542,
    "певне": 3543,
    "якнай": 3544,
    " кі": 3545,
    "  (у": 3546,
    ", а по": 3547,
    ",  а  також": 3548,
    ". Коли ": 3549,
    ". Так": 3550,
    "вати.": 3551,
    "думав": 3552,
    "мі ": 3553,
    "на і": 3554,
    "раз ": 3555,
    "рові": 3556,
    "сурма": 3557,
    "сь із": 3558,
    "що ": 3559,
    " Че": 3560,
    "  ви¬": 3561,
    " такий ": 3562,
    "34": 3563,
    "Бага": 3564,
    "гії": 3565,
    "елі": 3566,
    "льно ": 3567,
    "мні": 3568,
    "нстру": 3569,
    "ово": 3570,
    "осма": 3571,
    "син": 3572,
    "стрів": 3573,
    "сім": 3574,
    "триму": 3575,
    "хова": 3576,
    " ць": 3577,
    "  —  с": 3578,
    " запорожцям": 3579,
    "er ": 3580,
    "Лугу": 3581,
    "громад": 3582,
    "жар": 3583,
    "мок": 3584,
    "рлен": 3585,
    "свій": 3586,
    "собом": 3587,
    "та, ": 3588,
    "тися,": 3589,
    " бук": 3590,
    " до себе": 3591,
    " дівчи": 3592,
    "),  ": 3593,
    "Бра": 3594,
    "в його ": 3595,
    "ми та ": 3596,
    "ншим": 3597,
    "овніш": 3598,
    "тник": 3599,
    "тої": 3600,
    "цензі": 3601,
    "чне": 3602,
    "я не ": 3603,
    "  +  ": 3604,
    "  й  ": 3605,
    " знаю": 3606,
    " нехай": 3607,
    " силу": 3608,
    " щось ": 3609,
    "аж до ": 3610,
    "бача": 3611,
    "вати,": 3612,
    "душ": 3613,
    "ний. ": 3614,
    "стосову": 3615,
    "цей": 3616,
    "чних  ": 3617,
    "їх  ": 3618,
    "  чи": 3619,
    " додо": 3620,
    " мовою": 3621,
    " раз ": 3622,
    " слово": 3623,
    ",  розм.  ": 3624,
    "Льво": 3625,
    "Орлен": 3626,
    "Яну": 3627,
    "вті": 3628,
    "валося": 3629,
    "гім": 3630,
    "дця": 3631,
    "людина": 3632,
    "маши": 3633,
    "фоне": 3634,
    "цари": 3635,
    "якого ": 3636,
    "її  ": 3637,
    "— Не": 3638,
    "\nз  ": 3639,
    " в  ": 3640,
    " літерату": 3641,
    " саме ": 3642,
    " того, ": 3643,
    ",  невідм.,  с": 3644,
    "XIV": 3645,
    "un": 3646,
    "Сте": 3647,
    "ло. ": 3648,
    "лінг": 3649,
    "рих": 3650,
    "робі": 3651,
    " дра": 3652,
    " ся": 3653,
    " \n\nП": 3654,
    " московсь": 3655,
    " понад": 3656,
    " часом ": 3657,
    ",  -ості,  ж": 3658,
    ". Чи": 3659,
    ".  ім.  ": 3660,
    "Серед": 3661,
    "влас": 3662,
    "ливі": 3663,
    "ман ": 3664,
    "ми,  ": 3665,
    "нди": 3666,
    "ння,  ": 3667,
    "рази": 3668,
    "та. ": 3669,
    " Довна": 3670,
    " весе": 3671,
    " добу": 3672,
    " проха": 3673,
    ".\nНе": 3674,
    ".  5": 3675,
    "ближ": 3676,
    "вди": 3677,
    "вед": 3678,
    "гої": 3679,
    "зібра": 3680,
    "ол.  ": 3681,
    "п  —  ": 3682,
    "рі,": 3683,
    "тири": 3684,
    "ючи на ": 3685,
    " одна": 3686,
    "  і т .  ін": 3687,
    " він, ": 3688,
    " ті ": 3689,
    ".  2.  З": 3690,
    "].  П": 3691,
    "ЕС": 3692,
    "ОБ": 3693,
    "може": 3694,
    "проти": 3695,
    "руко": 3696,
    "служи": 3697,
    "ти, а": 3698,
    "цією": 3699,
    "чні ": 3700,
    "чного": 3701,
    "шення  ": 3702,
    "  інш": 3703,
    " відно": 3704,
    " голос": 3705,
    " прийш": 3706,
    "Дніпра": 3707,
    "ЙР": 3708,
    "ОТ": 3709,
    "будь-": 3710,
    "вшись": 3711,
    "гих": 3712,
    "ка і": 3713,
    "лат. ": 3714,
    "лів ": 3715,
    "нту": 3716,
    "нам": 3717,
    "ора": 3718,
    "пол": 3719,
    "риз": 3720,
    "сі ": 3721,
    "ти за": 3722,
    "тин": 3723,
    "ти! ": 3724,
    "том ": 3725,
    "чис": 3726,
    "ю,  -ює": 3727,
    " \n\n-": 3728,
    "  я": 3729,
    "  по¬ ": 3730,
    " дове": 3731,
    " наріч": 3732,
    " погля": 3733,
    " тор": 3734,
    ", або": 3735,
    ".  Д": 3736,
    "...  +  ": 3737,
    "Польщ": 3738,
    "ато": 3739,
    "в’язаний  ": 3740,
    "йська Запорозь": 3741,
    "квіт": 3742,
    "моги": 3743,
    "на¬": 3744,
    "нин": 3745,
    "прия": 3746,
    "середньо": 3747,
    "тки ": 3748,
    "\nПри": 3749,
    " зву": 3750,
    " істо": 3751,
    "  і  т.  ін": 3752,
    " так і": 3753,
    "].  З": 3754,
    "» (стор. ": 3755,
    "весе": 3756,
    "значи": 3757,
    "ража": 3758,
    "ріа": 3759,
    "сень": 3760,
    "собою": 3761,
    "ські ": 3762,
    " смі": 3763,
    " раді": 3764,
    ".  Г": 3765,
    ";  о": 3766,
    "генера": 3767,
    "мах": 3768,
    "пом": 3769,
    "сму": 3770,
    "тву": 3771,
    "шах": 3772,
    " вда": 3773,
    " яка ": 3774,
    " і за": 3775,
    "  •": 3776,
    " воно": 3777,
    " поза": 3778,
    " тер": 3779,
    " ціка": 3780,
    ".  II": 3781,
    "Моско": 3782,
    "ОГ": 3783,
    "ви¬ ": 3784,
    "вної": 3785,
    "грошей": 3786,
    "з тим": 3787,
    "лися,": 3788,
    "на й": 3789,
    "ниця": 3790,
    "обличчя": 3791,
    "пиш": 3792,
    "пр.:  ": 3793,
    "ру,": 3794,
    "урочи": 3795,
    "іншим": 3796,
    "\nДе": 3797,
    "\nВін": 3798,
    " уже": 3799,
    " цей": 3800,
    "',  ": 3801,
    ",  що \n": 3802,
    ";  ~і": 3803,
    "Вам": 3804,
    "Зорі": 3805,
    "біж": 3806,
    "вдо": 3807,
    "держ": 3808,
    "лива": 3809,
    "мис": 3810,
    "нив": 3811,
    "ної ": 3812,
    "релігі": 3813,
    "сипа": 3814,
    "сто ": 3815,
    "т,  ": 3816,
    "тися.": 3817,
    "тів,": 3818,
    "хвор": 3819,
    " сього": 3820,
    " Васильо": 3821,
    " вже ж": 3822,
    " заходи": 3823,
    " ласка": 3824,
    " мою": 3825,
    " пови": 3826,
    ", то я": 3827,
    ", що о": 3828,
    ";  -ний": 3829,
    ";  ~и": 3830,
    "«Зорі": 3831,
    "Дніпро": 3832,
    "близи": 3833,
    "вам": 3834,
    "дре": 3835,
    "да,": 3836,
    "дження  ": 3837,
    "мії": 3838,
    "нів,": 3839,
    "чний ": 3840,
    " вся": 3841,
    " нього": 3842,
    " він і": 3843,
    " поки": 3844,
    " поя": 3845,
    " таким": 3846,
    " туре": 3847,
    "Грін": 3848,
    "дне": 3849,
    "зви": 3850,
    "к,  ": 3851,
    "лим": 3852,
    "менш": 3853,
    "народ": 3854,
    "них \n": 3855,
    "нове": 3856,
    "пе¬ ": 3857,
    "ров": 3858,
    "ство ": 3859,
    "\nко": 3860,
    " Андрі": 3861,
    "  під": 3862,
    " він у": 3863,
    " пога": 3864,
    " повста": 3865,
    "Зве": 3866,
    "Невели": 3867,
    "бік": 3868,
    "вказ": 3869,
    "ки:": 3870,
    "льні": 3871,
    "малору": 3872,
    "ниці": 3873,
    "нів  ": 3874,
    "періо": 3875,
    "твари": 3876,
    "часно": 3877,
    "чив ": 3878,
    "ший ": 3879,
    "– Та": 3880,
    " Ста": 3881,
    " бік": 3882,
    " гор": 3883,
    " моги": 3884,
    " між ": 3885,
    " нашо": 3886,
    " повин": 3887,
    " под": 3888,
    " той ": 3889,
    ",  -ів,  ": 3890,
    ".  При": 3891,
    "].  О": 3892,
    "Гала": 3893,
    "Грінчен": 3894,
    "вало ": 3895,
    "версите": 3896,
    "влення  ": 3897,
    "вся,": 3898,
    "заст.  ": 3899,
    "йте,": 3900,
    "ки, а": 3901,
    "кладе": 3902,
    "ку і": 3903,
    "лиша": 3904,
    "ли його ": 3905,
    "ли.\n": 3906,
    "мето": 3907,
    "міц": 3908,
    "нні ": 3909,
    "на в": 3910,
    "ни з": 3911,
    "ньому": 3912,
    "німа": 3913,
    "слідо": 3914,
    "тар": 3915,
    "ту. ": 3916,
    "ться,": 3917,
    " цього ": 3918,
    " Військо": 3919,
    " вік": 3920,
    " сім": 3921,
    ",  -з": 3922,
    "АГ": 3923,
    "ИЙ,  -а,  -е.  ": 3924,
    "вичу": 3925,
    "держав": 3926,
    "ови": 3927,
    "рам": 3928,
    "стосу": 3929,
    "стрій  ": 3930,
    "хні ": 3931,
    "якому": 3932,
    " \nдо": 3933,
    " \nно": 3934,
    " шко": 3935,
    "  <  ": 3936,
    " все ": 3937,
    " відомо": 3938,
    " не було ": 3939,
    " своїми ": 3940,
    " тая": 3941,
    ",  що  с": 3942,
    "«Э": 3943,
    "Гру": 3944,
    "беріга": 3945,
    "зре": 3946,
    "мова": 3947,
    "рша": 3948,
    "ском": 3949,
    "ста  ": 3950,
    "сіда": 3951,
    "тнографи": 3952,
    "тії": 3953,
    " який ": 3954,
    "  ст": 3955,
    " козакам": 3956,
    " мови ": 3957,
    " може ": 3958,
    " поста": 3959,
    " скаж": 3960,
    "-то": 3961,
    "Василь": 3962,
    "ЗМ": 3963,
    "Части": 3964,
    "а  —  ": 3965,
    "афі": 3966,
    "вник": 3967,
    "вавши": 3968,
    "лих": 3969,
    "лій": 3970,
    "но-": 3971,
    "ною  ": 3972,
    "огда": 3973,
    "одного ": 3974,
    "пор": 3975,
    "студен": 3976,
    "ти у": 3977,
    "тіє": 3978,
    "фото": 3979,
    "ча ": 3980,
    "іст.  ": 3981,
    " 188": 3982,
    " лис": 3983,
    " так,": 3984,
    ", да": 3985,
    "¬ \nви": 3986,
    "Богда": 3987,
    "Після": 3988,
    "бут": 3989,
    "ванге": 3990,
    "вок": 3991,
    "дий": 3992,
    "коха": 3993,
    "лку": 3994,
    "любо": 3995,
    "муси": 3996,
    "нна ": 3997,
    "нав": 3998,
    "одо": 3999,
    "пану": 4000,
    "правди": 4001,
    "приєм": 4002,
    "ри, ": 4003,
    "ть на ": 4004,
    "ха ": 4005,
    "чере": 4006,
    "ювати ": 4007,
    "\nпро": 4008,
    " справді": 4009,
    " ува": 4010,
    " хто ": 4011,
    " не пере": 4012,
    " рік": 4013,
    ", або ": 4014,
    ",  що  за": 4015,
    ", що на ": 4016,
    "].  Р": 4017,
    "«Зорі»": 4018,
    "Іван": 4019,
    "Гнато": 4020,
    "великору": 4021,
    "гуля": 4022,
    "дно ": 4023,
    "зба": 4024,
    "між ": 4025,
    "ності": 4026,
    "обу": 4027,
    "псе": 4028,
    "скра": 4029,
    "силу": 4030,
    "ставля": 4031,
    "ських ": 4032,
    "ції ": 4033,
    "чужи": 4034,
    "че,": 4035,
    "– це": 4036,
    " \nпри": 4037,
    " \nре": 4038,
    " Ще": 4039,
    " гар": 4040,
    " наших": 4041,
    " такий": 4042,
    "um": 4043,
    "Євро": 4044,
    "Ах": 4045,
    "Кра": 4046,
    "бій": 4047,
    "значений  ": 4048,
    "край": 4049,
    "ку.\n": 4050,
    "льне": 4051,
    "міст": 4052,
    "орсу": 4053,
    "Корсу": 4054,
    "оборо": 4055,
    "повідь": 4056,
    "розі": 4057,
    "селя": 4058,
    "ючись ": 4059,
    "\nня": 4060,
    "\n\n ": 4061,
    " виходи": 4062,
    " кого": 4063,
    " не можу": 4064,
    " писав": 4065,
    " півден": 4066,
    ".,  кл.  -о": 4067,
    "Галя\n": 4068,
    "бан": 4069,
    "блиску": 4070,
    "вне": 4071,
    "вай": 4072,
    "вноч": 4073,
    "ла до ": 4074,
    "мим": 4075,
    "она ": 4076,
    "рік": 4077,
    "франц.": 4078,
    "\nто": 4079,
    "  (у  1  знач.)": 4080,
    "  —  о": 4081,
    " Ваш": 4082,
    " Володимир": 4083,
    " Киї": 4084,
    " вийшо": 4085,
    " люд": 4086,
    " часів": 4087,
    ").  2.  ": 4088,
    "-го": 4089,
    "УВАТИ": 4090,
    "а про": 4091,
    "дук": 4092,
    "кош": 4093,
    "кого Лугу": 4094,
    "купі": 4095,
    "лися в": 4096,
    "на.\n": 4097,
    "нів.": 4098,
    "осві": 4099,
    "ське": 4100,
    " Соболе": 4101,
    " ані ": 4102,
    " звід": 4103,
    " завз": 4104,
    " завзя": 4105,
    " поро": 4106,
    " прих": 4107,
    " серце": 4108,
    " старий": 4109,
    " тем": 4110,
    ",  присл.  ": 4111,
    ", ніж ": 4112,
    ", то й": 4113,
    ". Ти": 4114,
    ".  2.": 4115,
    ";  ~о": 4116,
    "автор": 4117,
    "гол": 4118,
    "ки»": 4119,
    "ком,": 4120,
    "ні.\n": 4121,
    "папе": 4122,
    "пір": 4123,
    "реччи": 4124,
    "ский ": 4125,
    "самого ": 4126,
    "тами": 4127,
    "ти»": 4128,
    "уха": 4129,
    "чий  ": 4130,
    "яким": 4131,
    " перей": 4132,
    " початку ": 4133,
    ", що на": 4134,
    "НИЙ,  -а,  -е": 4135,
    "ку мо": 4136,
    "купи": 4137,
    "лися.": 4138,
    "льної  ": 4139,
    "літерату": 4140,
    "нях": 4141,
    "ні о": 4142,
    "оді ": 4143,
    "они ": 4144,
    " дода": 4145,
    " лиш": 4146,
    " чай": 4147,
    " що ж": 4148,
    "',  -": 4149,
    ", хоч": 4150,
    ".  1.  З": 4151,
    "а на ": 4152,
    "без  до": 4153,
    "в ті": 4154,
    "вітря": 4155,
    "геть ": 4156,
    "діа": 4157,
    "мець": 4158,
    "мість": 4159,
    "пливо": 4160,
    "ського  ": 4161,
    "таш": 4162,
    "хворо": 4163,
    "єсть ": 4164,
    " Через": 4165,
    " – за": 4166,
    "  спе": 4167,
    " таку ": 4168,
    " те ": 4169,
    " якої": 4170,
    "Абу": 4171,
    "аре": 4172,
    "ву  ": 4173,
    "е  —  ": 4174,
    "й не": 4175,
    "ли б": 4176,
    "луч": 4177,
    "ляга": 4178,
    "паль": 4179,
    "правля": 4180,
    "тьох": 4181,
    "уля": 4182,
    "церк": 4183,
    "і не": 4184,
    " \nта": 4185,
    " і не ": 4186,
    " — Не": 4187,
    " гале": 4188,
    " день": 4189,
    " дій": 4190,
    " запи": 4191,
    " невольни": 4192,
    " під час": 4193,
    ")  —  ": 4194,
    ";  ~а": 4195,
    "Людина": 4196,
    "бН": 4197,
    "бачив": 4198,
    "веді": 4199,
    "вного  ": 4200,
    "дня ": 4201,
    "ки,  ": 4202,
    "кою,": 4203,
    "нки ": 4204,
    "на  по": 4205,
    "нські": 4206,
    "чень": 4207,
    "чною": 4208,
    " \nв  ": 4209,
    " пита": 4210,
    " сті": 4211,
    " – по": 4212,
    " Василь": 4213,
    " Ну, ": 4214,
    " написав": 4215,
    " польського ": 4216,
    "38": 4217,
    "Коли": 4218,
    "вому ": 4219,
    "війш": 4220,
    "дмін": 4221,
    "ду»": 4222,
    "за¬": 4223,
    "лися з": 4224,
    "мме": 4225,
    "мет": 4226,
    "не¬": 4227,
    "оди": 4228,
    "опо": 4229,
    "рова": 4230,
    "сько-": 4231,
    "тний": 4232,
    "тий ": 4233,
    "тура": 4234,
    "уле": 4235,
    "шку": 4236,
    "ють,": 4237,
    "єпри": 4238,
    "іро": 4239,
    " Богун": 4240,
    " віку ": 4241,
    " лист": 4242,
    " найкра": 4243,
    " ній": 4244,
    " споді": 4245,
    " стар": 4246,
    " тих ": 4247,
    "арсь": 4248,
    "аря": 4249,
    "ата": 4250,
    "дну ": 4251,
    "ни,  ": 4252,
    "оже": 4253,
    "ру. ": 4254,
    "ться.": 4255,
    "фар": 4256,
    "цві": 4257,
    "  обо": 4258,
    " галиць": 4259,
    "(за": 4260,
    ", си": 4261,
    ",  -а,  ч.,  кл.  -у": 4262,
    "Апол": 4263,
    "Гри": 4264,
    "Кода": 4265,
    "Киї": 4266,
    "вби": 4267,
    "всі ": 4268,
    "гляну": 4269,
    "згоди": 4270,
    "лися до ": 4271,
    "мпа": 4272,
    "мери": 4273,
    "ра, ": 4274,
    "ро ": 4275,
    "са ": 4276,
    "сиді": 4277,
    "ством": 4278,
    "ується": 4279,
    "часо": 4280,
    " пев": 4281,
    " довго ": 4282,
    " мор": 4283,
    " напа": 4284,
    " свою ": 4285,
    ", хто": 4286,
    ",  -а, \n": 4287,
    ", що за": 4288,
    ";  на": 4289,
    "ЙС": 4290,
    "арод": 4291,
    "арти": 4292,
    "блу": 4293,
    "в ру": 4294,
    "вигляді  ": 4295,
    "вобереж": 4296,
    "вся.": 4297,
    "ву. ": 4298,
    "глуз": 4299,
    "нього  ": 4300,
    "ога": 4301,
    "ро¬": 4302,
    "рівно": 4303,
    "стере": 4304,
    "стої": 4305,
    "того": 4306,
    "трапля": 4307,
    "уючи": 4308,
    "ше,": 4309,
    "якщо": 4310,
    "ється в": 4311,
    "їзди": 4312,
    " прихиль": 4313,
    " спитав": 4314,
    " табо": 4315,
    " так, ": 4316,
    "грец. ": 4317,
    "оде": 4318,
    "рні": 4319,
    "сот": 4320,
    "спокій": 4321,
    "ської мови": 4322,
    "тут ": 4323,
    "хоче": 4324,
    "існу": 4325,
    " одпові": 4326,
    " охо": 4327,
    "  інши": 4328,
    " любо": 4329,
    ",  -юю,  -ює": 4330,
    ". Довна": 4331,
    ". Соболе": 4332,
    "Олек": 4333,
    "Рого": 4334,
    "аві": 4335,
    "бто": 4336,
    "бто ": 4337,
    "вна  ": 4338,
    "вний": 4339,
    "вий,  -а,  -е.  ": 4340,
    "до¬": 4341,
    "електро": 4342,
    "з того ": 4343,
    "кнув ": 4344,
    "меди": 4345,
    "отама": 4346,
    "руб": 4347,
    "своїм": 4348,
    "сили": 4349,
    "хні": 4350,
    "чка ": 4351,
    "чко": 4352,
    "ша  ": 4353,
    "і  т.  і": 4354,
    "— сказав": 4355,
    " й по": 4356,
    " оповіда": 4357,
    " він по": 4358,
    " ходи": 4359,
    ";  при": 4360,
    "балака": 4361,
    "вес": 4362,
    "ви.": 4363,
    "вим ": 4364,
    "ки. \n": 4365,
    "ку!": 4366,
    "лима": 4367,
    "мною": 4368,
    "справді ": 4369,
    "сінько": 4370,
    "тощо)": 4371,
    "характери": 4372,
    "— Та": 4373,
    "\nвід": 4374,
    " бай": 4375,
    " забу": 4376,
    " запорожців ": 4377,
    " мого ": 4378,
    " часо": 4379,
    ", від": 4380,
    ",  шо": 4381,
    ".\nПро": 4382,
    "XVI": 4383,
    "pr": 4384,
    "ЕМ": 4385,
    "бачивши": 4386,
    "вкри": 4387,
    "вання.": 4388,
    "вич\n": 4389,
    "етнографі": 4390,
    "зволи": 4391,
    "кара": 4392,
    "лин": 4393,
    "лого ": 4394,
    "матері": 4395,
    "рії ": 4396,
    "смо": 4397,
    "сами": 4398,
    "ття ": 4399,
    "устя": 4400,
    "хан": 4401,
    "шир": 4402,
    "\nЧерез": 4403,
    " вчи": 4404,
    " більш": 4405,
    " нашої": 4406,
    " способом": 4407,
    " ти,": 4408,
    "!\n – ": 4409,
    ", що не ": 4410,
    "ІР": 4411,
    "Звени": 4412,
    "УН": 4413,
    "бло": 4414,
    "глу": 4415,
    "духо": 4416,
    "ліч": 4417,
    "мість ": 4418,
    "няв": 4419,
    "рук": 4420,
    "рів  ": 4421,
    "сон": 4422,
    "ти його ": 4423,
    "фесор": 4424,
    "х,  ": 4425,
    "характер": 4426,
    "читав": 4427,
    "єстро": 4428,
    "  —  по": 4429,
    " Лаговський": 4430,
    " другий": 4431,
    " матеріа": 4432,
    " свій": 4433,
    ", 188": 4434,
    "«по": 4435,
    "Вона ": 4436,
    "НИЙ,  -а,  -е.  ": 4437,
    "Один": 4438,
    "Тоді ": 4439,
    "водя": 4440,
    "горі": 4441,
    "далеко": 4442,
    "енер": 4443,
    "ки по": 4444,
    "люб": 4445,
    "ном,": 4446,
    "певни": 4447,
    "рво": 4448,
    "ся з": 4449,
    "уча": 4450,
    "чле": 4451,
    "чудо": 4452,
    " Си": 4453,
    " – то": 4454,
    "  і  т.  ін.)": 4455,
    " Мики": 4456,
    " бала": 4457,
    " куди": 4458,
    " над ": 4459,
    " річки ": 4460,
    " самого ": 4461,
    " та в": 4462,
    " тиж": 4463,
    " тощо": 4464,
    ",  перех": 4465,
    ",  під": 4466,
    "Абу-": 4467,
    "Борис": 4468,
    "Трох": 4469,
    "Трохи": 4470,
    "впли": 4471,
    "вуз": 4472,
    "ги,": 4473,
    "граф": 4474,
    "ка. \n": 4475,
    "ла й": 4476,
    "лис": 4477,
    "ли о": 4478,
    "пав": 4479,
    "разд": 4480,
    "розу": 4481,
    "сил": 4482,
    "тися на ": 4483,
    "хма": 4484,
    "європейсь": 4485,
    "інстру": 4486,
    "\nпере": 4487,
    " ня": 4488,
    "  спі": 4489,
    " бусурма": 4490,
    " дити": 4491,
    " другого ": 4492,
    " міста": 4493,
    " оборо": 4494,
    " тек": 4495,
    ". При": 4496,
    "36": 4497,
    "¬ ви": 4498,
    "АЛЬ": 4499,
    "Вони ": 4500,
    "вні ": 4501,
    "все ": 4502,
    "ку з": 4503,
    "ли, що ": 4504,
    "лиш": 4505,
    "нення  ": 4506,
    "ніх ": 4507,
    "офі": 4508,
    "раху": 4509,
    "с  ": 4510,
    "сь од": 4511,
    "ти;": 4512,
    "ула": 4513,
    "умови": 4514,
    "ури": 4515,
    " бла": 4516,
    " зві": 4517,
    " – Та": 4518,
    " бороть": 4519,
    " бур": 4520,
    " ніч": 4521,
    " разом з": 4522,
    ".  2.  Який  ": 4523,
    ".  [англ.  ": 4524,
    "ДР": 4525,
    "Прик": 4526,
    "Селі": 4527,
    "дає  ": 4528,
    "дів  ": 4529,
    "еконо": 4530,
    "ль.": 4531,
    "ору": 4532,
    "слова ": 4533,
    "уста": 4534,
    "уть ": 4535,
    "іноді": 4536,
    "\nка": 4537,
    " Шмід": 4538,
    " візь": 4539,
    " гали": 4540,
    " дере": 4541,
    " допомо": 4542,
    " знає": 4543,
    " наказ": 4544,
    " не буде": 4545,
    " прия": 4546,
    " татари": 4547,
    "Хіба": 4548,
    "Я,  -я,  с": 4549,
    "ближа": 4550,
    "вої ": 4551,
    "деяких  ": 4552,
    "дові": 4553,
    "елемен": 4554,
    "електри": 4555,
    "к за": 4556,
    "кріпле": 4557,
    "ли їх": 4558,
    "нсти": 4559,
    "них,": 4560,
    "періш": 4561,
    "рі.": 4562,
    "рідко": 4563,
    "сей": 4564,
    "сті. ": 4565,
    "тися  ": 4566,
    "ш,  перех.  1.  ": 4567,
    "\nКоли ": 4568,
    " Росії": 4569,
    " з по": 4570,
    "  —  з": 4571,
    " волю": 4572,
    " надто": 4573,
    " пору": 4574,
    " тисяч": 4575,
    " того ж": 4576,
    ", за ": 4577,
    ",  ко": 4578,
    ",  -а,  ч.": 4579,
    ", нап": 4580,
    ".  Б": 4581,
    ".  2.  Н": 4582,
    "em": 4583,
    "Вла": 4584,
    "вляв": 4585,
    "див ": 4586,
    "кліти": 4587,
    "нь  ": 4588,
    "оре": 4589,
    "стат": 4590,
    "сті, ": 4591,
    "хову": 4592,
    "чора": 4593,
    " з  ": 4594,
    " Запорозьке": 4595,
    " великору": 4596,
    " віри": 4597,
    " ніж": 4598,
    " попросту": 4599,
    " чимало ": 4600,
    "37": 4601,
    "Борис Васильо": 4602,
    "Вкраї": 4603,
    "Кома": 4604,
    "Прикм": 4605,
    "во-": 4606,
    "всього ": 4607,
    "гно": 4608,
    "гале": 4609,
    "ганя": 4610,
    "міш": 4611,
    "тнографиче": 4612,
    "уряд": 4613,
    "ється  в  ": 4614,
    " зго": 4615,
    "  за¬ ": 4616,
    " відда": 4617,
    " діста": 4618,
    " один ": 4619,
    " полови": 4620,
    " прибу": 4621,
    "-то ": 4622,
    "Звенигород": 4623,
    "ва¬": 4624,
    "ви,": 4625,
    "зверну": 4626,
    "ки)": 4627,
    "ко¬ \n": 4628,
    "краю": 4629,
    "но.": 4630,
    "нські ": 4631,
    "одві": 4632,
    "справж": 4633,
    "теа": 4634,
    " пре": 4635,
    "  об’": 4636,
    "  та  ін": 4637,
    " ви ": 4638,
    " влас": 4639,
    " де ": 4640,
    " до неї": 4641,
    " монасти": 4642,
    " муз": 4643,
    " ніхто": 4644,
    " різ": 4645,
    "(19": 4646,
    "-а,  -е.  ": 4647,
    ". Крим": 4648,
    "; але": 4649,
    "].  Н": 4650,
    "брав": 4651,
    "втра": 4652,
    "вночі": 4653,
    "ги.": 4654,
    "го¬": 4655,
    "гово": 4656,
    "да.": 4657,
    "дався": 4658,
    "йме": 4659,
    "ктич": 4660,
    "ми з": 4661,
    "мо,": 4662,
    "нова": 4663,
    "сква": 4664,
    "теля": 4665,
    "ти..": 4666,
    "хвилю": 4667,
    "чення ": 4668,
    "і пере": 4669,
    "і що": 4670,
    " хлоп": 4671,
    " — Та": 4672,
    " нам ": 4673,
    " ноч": 4674,
    ", він ": 4675,
    ";  -е": 4676,
    "АБ": 4677,
    "АНТ": 4678,
    "втім": 4679,
    "гали": 4680,
    "кан": 4681,
    "кур": 4682,
    "ку, а": 4683,
    "лучи": 4684,
    "льною": 4685,
    "метале": 4686,
    "пець": 4687,
    "пряму": 4688,
    "р.,  ": 4689,
    "сь. ": 4690,
    "тир": 4691,
    "ти собі": 4692,
    "тувати": 4693,
    "ювання  ": 4694,
    "яки": 4695,
    " Грінчен": 4696,
    " і на ": 4697,
    "  зобра": 4698,
    " України": 4699,
    " вийшов": 4700,
    " віку": 4701,
    " май": 4702,
    " редак": 4703,
    " таких ": 4704,
    ",  -а,  -е.  1.  Який  ": 4705,
    ",  присл": 4706,
    ",  яке": 4707,
    ", що їх": 4708,
    "Коро": 4709,
    "вими ": 4710,
    "жда": 4711,
    "керу": 4712,
    "м,  ": 4713,
    "но, ": 4714,
    "осква": 4715,
    "рами": 4716,
    "рештою": 4717,
    "тан": 4718,
    "теле": 4719,
    "філосо": 4720,
    "ця, ": 4721,
    "чає": 4722,
    "ю,  ": 4723,
    "  на¬": 4724,
    "  об’є": 4725,
    " він. ": 4726,
    " гово": 4727,
    " до  ": 4728,
    " коп": 4729,
    " разом і": 4730,
    " часто": 4731,
    "-Запо": 4732,
    "-на": 4733,
    "Вони": 4734,
    "Дієпри": 4735,
    "а  ": 4736,
    "алю": 4737,
    "важи": 4738,
    "валася ": 4739,
    "віч": 4740,
    "війська": 4741,
    "в’яни": 4742,
    "ко в": 4743,
    "кіст": 4744,
    "ли і": 4745,
    "можливо": 4746,
    "міт": 4747,
    "пізна": 4748,
    "російсько": 4749,
    "стрій": 4750,
    "суну": 4751,
    "тури": 4752,
    "уби": 4753,
    "університе": 4754,
    "шне": 4755,
    "ько": 4756,
    "їхні ": 4757,
    "\n3.  ": 4758,
    " (18": 4759,
    " яку": 4760,
    " Галичи": 4761,
    " будь-": 4762,
    " води": 4763,
    " гармат": 4764,
    " проце": 4765,
    " самий": 4766,
    ", коли б": 4767,
    ".  [нім.  ": 4768,
    "Януш": 4769,
    "вида": 4770,
    "вий,": 4771,
    "доба": 4772,
    "ені ": 4773,
    "легко": 4774,
    "ліє": 4775,
    "на. \n": 4776,
    "неперех": 4777,
    "овто": 4778,
    "поз": 4779,
    "ртом": 4780,
    "рної": 4781,
    "року": 4782,
    "сут": 4783,
    "тові": 4784,
    "царсь": 4785,
    "ця. ": 4786,
    "ючи з": 4787,
    "імі": 4788,
    " втім": 4789,
    " хіба": 4790,
    "  слу": 4791,
    " мер": 4792,
    " мог": 4793,
    " переклад": 4794,
    " пись": 4795,
    " працю": 4796,
    " щиро": 4797,
    "). \n\n": 4798,
    "-  ": 4799,
    "бороть": 4800,
    "вли": 4801,
    "ван¬": 4802,
    "ка й": 4803,
    "мба": 4804,
    "місця": 4805,
    "нень": 4806,
    "оле": 4807,
    "реа": 4808,
    "речі": 4809,
    "робни": 4810,
    "техні": 4811,
    "уго": 4812,
    "фек": 4813,
    "форми": 4814,
    "штур": 4815,
    "і роз": 4816,
    " \nу  ": 4817,
    " інші": 4818,
    "  окре": 4819,
    " знову ": 4820,
    " не да": 4821,
    " пох": 4822,
    " року 17": 4823,
    ", без": 4824,
    "? Чи": 4825,
    "А,  -и,  Ж": 4826,
    "апа": 4827,
    "арабсь": 4828,
    "бок": 4829,
    "ж до": 4830,
    "кинути ": 4831,
    "лком": 4832,
    "лни": 4833,
    "ливість": 4834,
    "но й": 4835,
    "нських ": 4836,
    "оспо": 4837,
    "ось": 4838,
    "першу": 4839,
    "решті ": 4840,
    "сна": 4841,
    "сій": 4842,
    "тне": 4843,
    "ти? ": 4844,
    "умов": 4845,
    "ути": 4846,
    "увати  ": 4847,
    "іще ": 4848,
    " \nко": 4849,
    " гетьман": 4850,
    " дуж": 4851,
    " козаків, ": 4852,
    " ніколи": 4853,
    " чим": 4854,
    ",  -а,  ": 4855,
    ".  2.  О": 4856,
    "am": 4857,
    "ИТ": 4858,
    "ални": 4859,
    "Кални": 4860,
    "воє": 4861,
    "галуз": 4862,
    "жий": 4863,
    "ктор": 4864,
    "класи": 4865,
    "кою. ": 4866,
    "круг": 4867,
    "листа": 4868,
    "малю": 4869,
    "нського": 4870,
    "ню  ": 4871,
    "певні": 4872,
    "про¬ ": 4873,
    "сріб": 4874,
    "сен": 4875,
    "су ": 4876,
    "ського, ": 4877,
    "тну": 4878,
    "тай": 4879,
    "ти в ": 4880,
    "ту, ": 4881,
    "увши": 4882,
    "фло": 4883,
    "ють.": 4884,
    "яни": 4885,
    "івець": 4886,
    " ні ": 4887,
    " яких": 4888,
    " нічого ": 4889,
    " прихи": 4890,
    ",  -а,  -е. \n": 4891,
    "-поміж": 4892,
    "Далі": 4893,
    "Мені ": 4894,
    "Фі": 4895,
    "кір": 4896,
    "мчен": 4897,
    "на \n\n": 4898,
    "риба": 4899,
    "роже": 4900,
    "рів,": 4901,
    "стар": 4902,
    "стов": 4903,
    "тись ": 4904,
    "тран": 4905,
    "ті. ": 4906,
    "урна": 4907,
    "ходу": 4908,
    "чувши": 4909,
    "частина  склад": 4910,
    "через ": 4911,
    "чого  ": 4912,
    "чого-н.;  ": 4913,
    "є  на  ": 4914,
    "\nТи": 4915,
    "  особи": 4916,
    "  і  т.  ін.": 4917,
    " багато ": 4918,
    " вираз": 4919,
    " добре ": 4920,
    " задля": 4921,
    " сама": 4922,
    "*/": 4923,
    ",  -у,  ч.  [англ.  ": 4924,
    ",  що  по": 4925,
    ", напр": 4926,
    ", що його ": 4927,
    "39": 4928,
    "Моло": 4929,
    "Маруся": 4930,
    "Народ": 4931,
    "Прикм.": 4932,
    "Прикм.  до ": 4933,
    "Ьі": 4934,
    "бще": 4935,
    "вних": 4936,
    "вся в": 4937,
    "дух": 4938,
    "діл  ": 4939,
    "ді, ": 4940,
    "ере": 4941,
    "обер": 4942,
    "очима": 4943,
    "рівн": 4944,
    "хівець": 4945,
    "щиро": 4946,
    "юся ": 4947,
    "ються  ": 4948,
    "\nний  ": 4949,
    " інших": 4950,
    "  і т .  ін.": 4951,
    " захопи": 4952,
    " нез": 4953,
    " таке ": 4954,
    " хоч і": 4955,
    ", чи ": 4956,
    ", що,": 4957,
    "¬ \nна": 4958,
    "¬ \nпо": 4959,
    "ЙЦ": 4960,
    "абу": 4961,
    "бован": 4962,
    "ве  ": 4963,
    "д. Соболе": 4964,
    "доволе": 4965,
    "знайо": 4966,
    "ка, а": 4967,
    "ла ї": 4968,
    "лею": 4969,
    "лов": 4970,
    "льність": 4971,
    "мову": 4972,
    "пози": 4973,
    "риста": 4974,
    "тія": 4975,
    "уть": 4976,
    "хро": 4977,
    "ходить ": 4978,
    "ч.  ": 4979,
    "чку": 4980,
    "ш.  1.  ": 4981,
    "ю на ": 4982,
    "і через те": 4983,
    "іме": 4984,
    " II": 4985,
    " кину": 4986,
    " кни": 4987,
    " боя": 4988,
    " дія": 4989,
    " моїх": 4990,
    " місти": 4991,
    " перекла": 4992,
    " примір": 4993,
    " чор": 4994,
    "(у  1  знач.)": 4995,
    "-таки": 4996,
    ". Де": 4997,
    "1,  ": 4998,
    "as": 4999,
    "«Про": 5000,
    "УС": 5001,
    "анна ": 5002,
    "апара": 5003,
    "арку": 5004,
    "вагу": 5005,
    "з вели": 5006,
    "з ним": 5007,
    "й до": 5008,
    "йте ": 5009,
    "като": 5010,
    "кову": 5011,
    "коп": 5012,
    "кою  ": 5013,
    "ком.": 5014,
    "кут": 5015,
    "лле": 5016,
    "має ": 5017,
    "могу": 5018,
    "пр.,  ": 5019,
    "прям": 5020,
    "ріс": 5021,
    "ские": 5022,
    "сок": 5023,
    "ся, ": 5024,
    "твори": 5025,
    "у раз": 5026,
    "церко": 5027,
    "швидко": 5028,
    "ється  на  ": 5029,
    "  озна": 5030,
    "  ст.  ": 5031,
    " воз": 5032,
    " зай": 5033,
    " знач": 5034,
    " нев": 5035,
    " цен": 5036,
    ",  -й,  ж": 5037,
    ", напр.": 5038,
    ".,  розм.  ": 5039,
    "¬ \n2.  ": 5040,
    "Хусей": 5041,
    "бач": 5042,
    "вив": 5043,
    "дда": 5044,
    "дних": 5045,
    "дри": 5046,
    "ети": 5047,
    "ло б": 5048,
    "ня,": 5049,
    "по¬ \n": 5050,
    "спор": 5051,
    "сіль": 5052,
    "т,  -а,  ч.,  кл.  -е": 5053,
    "та  ін": 5054,
    "ти  на  ": 5055,
    "тра ": 5056,
    "ця  ": 5057,
    "ці.\n": 5058,
    " тру": 5059,
    " значи": 5060,
    " кого ": 5061,
    " незабаром": 5062,
    " потріб": 5063,
    ".  5.  ": 5064,
    "?\n ": 5065,
    "Адже ": 5066,
    "Ганна ": 5067,
    "Петро": 5068,
    "вши з": 5069,
    "имі": 5070,
    "йнека\n": 5071,
    "князя": 5072,
    "лі й": 5073,
    "міся": 5074,
    "но  ": 5075,
    "писи": 5076,
    "рече": 5077,
    "стори": 5078,
    "тип": 5079,
    "ти її": 5080,
    "ти: ": 5081,
    "у ру": 5082,
    "ування  ": 5083,
    "чез": 5084,
    "шев": 5085,
    "щий": 5086,
    "\nмо": 5087,
    " окре": 5088,
    " і ви": 5089,
    "  допомогою  ": 5090,
    "  •  1": 5091,
    " дітей": 5092,
    " муси": 5093,
    " спокій": 5094,
    "2 \n\n": 5095,
    ";  з": 5096,
    ";  -я": 5097,
    "?\n –": 5098,
    "Військо": 5099,
    "Орленко": 5100,
    "Треба": 5101,
    "в за": 5102,
    "впо": 5103,
    "вей": 5104,
    "вної  ": 5105,
    "во¬": 5106,
    "крива": 5107,
    "кріпа": 5108,
    "ліка": 5109,
    "ма¬": 5110,
    "прий": 5111,
    "р.  -": 5112,
    "старши": 5113,
    "сіо": 5114,
    "тися, ": 5115,
    "тому": 5116,
    "чої": 5117,
    "як ви": 5118,
    "іще": 5119,
    "\nро": 5120,
    " Всі": 5121,
    " за те": 5122,
    " моєї": 5123,
    " не було": 5124,
    " рук": 5125,
    ",  -у,  ч.  [грец.  ": 5126,
    "Володимир": 5127,
    "Костянтин": 5128,
    "Суле": 5129,
    "Сулейма": 5130,
    "Тра": 5131,
    "бу ": 5132,
    "вули": 5133,
    "губи": 5134,
    "ейру": 5135,
    "Бейру": 5136,
    "имчен": 5137,
    "Химчен": 5138,
    "ка (": 5139,
    "краще": 5140,
    "ли в ": 5141,
    "мина": 5142,
    "ми в": 5143,
    "нням ": 5144,
    "плати": 5145,
    "при¬ ": 5146,
    "ре¬": 5147,
    "розм.": 5148,
    "руба": 5149,
    "ское": 5150,
    "сова": 5151,
    "тіли ": 5152,
    "тів.": 5153,
    "у,  -": 5154,
    "ців,": 5155,
    "ців.": 5156,
    " Під": 5157,
    " вважа": 5158,
    " тре": 5159,
    " — сказав": 5160,
    " нема ": 5161,
    " не можна": 5162,
    " станови": 5163,
    ") та ": 5164,
    ", наче": 5165,
    ", себто": 5166,
    ".,  о": 5167,
    "ol": 5168,
    "І8  —  ": 5169,
    "Спо": 5170,
    "ЦА,  -и,  ж": 5171,
    "в мене": 5172,
    "гори": 5173,
    "зах": 5174,
    "кі,": 5175,
    "нши": 5176,
    "них  слів": 5177,
    "нок ": 5178,
    "озна": 5179,
    "організ": 5180,
    "рис": 5181,
    "ру  ": 5182,
    "сви": 5183,
    "сльо": 5184,
    "сток": 5185,
    "таль": 5186,
    "там": 5187,
    "тебе": 5188,
    "теч": 5189,
    "шем": 5190,
    "яти ": 5191,
    "ї,  ж": 5192,
    "\nТу": 5193,
    "\nва": 5194,
    " скла": 5195,
    " брат": 5196,
    " біблі": 5197,
    " вірш": 5198,
    " душу": 5199,
    " захи": 5200,
    " знав": 5201,
    " низ": 5202,
    ",  в  ": 5203,
    ",  які  ": 5204,
    ", навіть ": 5205,
    ". Кримський": 5206,
    "; по": 5207,
    ";  у": 5208,
    "].  На": 5209,
    "ent": 5210,
    "Гро": 5211,
    "Дуна": 5212,
    "буду": 5213,
    "вгу": 5214,
    "господар": 5215,
    "д. Довна": 5216,
    "дан": 5217,
    "жди": 5218,
    "ках,": 5219,
    "ко о": 5220,
    "мірку": 5221,
    "оса": 5222,
    "острів": 5223,
    "р.)": 5224,
    "ргі": 5225,
    "рських": 5226,
    "рус": 5227,
    "ріка": 5228,
    "стих": 5229,
    "ської  ": 5230,
    "сів  ": 5231,
    "ходив": 5232,
    "чни": 5233,
    "шки ": 5234,
    "що-н.  ": 5235,
    "ює  ": 5236,
    "ється  з  ": 5237,
    " гі": 5238,
    " Туреччи": 5239,
    " байда": 5240,
    " гад": 5241,
    " другі": 5242,
    " знайш": 5243,
    " надруку": 5244,
    " неодмін": 5245,
    " того, що ": 5246,
    ", най": 5247,
    ". \n\n-": 5248,
    "Або": 5249,
    "ЕЦ": 5250,
    "ЙВ": 5251,
    "Оча": 5252,
    "Поді": 5253,
    "Польщі": 5254,
    "Сукуп": 5255,
    "Якщо": 5256,
    "боло": 5257,
    "епо": 5258,
    "кількох": 5259,
    "нго": 5260,
    "розвитку": 5261,
    "сибі": 5262,
    "ства.": 5263,
    "сід": 5264,
    "тве": 5265,
    "усто": 5266,
    "хиля": 5267,
    "ша,": 5268,
    "ю, що ": 5269,
    "яга": 5270,
    "ять ": 5271,
    " Януш": 5272,
    " геть ": 5273,
    " колись ": 5274,
    " надто ": 5275,
    " пам’ятни": 5276,
    " перейш": 5277,
    " так, я": 5278,
    " якого ": 5279,
    ".  [іт.  ": 5280,
    "«Этнографиче": 5281,
    "¬ на": 5282,
    "в до": 5283,
    "вгород": 5284,
    "год": 5285,
    "давні": 5286,
    "лої": 5287,
    "ль, ": 5288,
    "мовив": 5289,
    "ня.": 5290,
    "одні": 5291,
    "ось ": 5292,
    "рго": 5293,
    "сть,": 5294,
    "сульма": 5295,
    "тає": 5296,
    "тербур": 5297,
    "цькому": 5298,
    "ціо": 5299,
    "і він": 5300,
    "іль": 5301,
    "\nАле": 5302,
    "\nма": 5303,
    " зрозумі": 5304,
    " вид": 5305,
    " дружи": 5306,
    " коп.": 5307,
    " попере": 5308,
    " таки": 5309,
    " хан": 5310,
    " цих": 5311,
    " чому ": 5312,
    "! Та": 5313,
    ",  -а,  ч.  [франц.  ": 5314,
    ", що він ": 5315,
    ".  А": 5316,
    ".  2.  На": 5317,
    "Наро": 5318,
    "Ото": 5319,
    "УТ": 5320,
    "амо": 5321,
    "анти": 5322,
    "без ": 5323,
    "боку": 5324,
    "вати, ": 5325,
    "вель": 5326,
    "вече": 5327,
    "видячки,": 5328,
    "вози": 5329,
    "ди. ": 5330,
    "змага": 5331,
    "ко з": 5332,
    "ли, а": 5333,
    "ль¬ \n": 5334,
    "мові": 5335,
    "ному": 5336,
    "ні і": 5337,
    "один ": 5338,
    "питання": 5339,
    "піш": 5340,
    "під  час  ": 5341,
    "сфе": 5342,
    "сах": 5343,
    "скількись ": 5344,
    "скінчи": 5345,
    "ти на": 5346,
    "тиму ": 5347,
    "ти коза": 5348,
    "ційно": 5349,
    "ісце": 5350,
    " і на": 5351,
    " 185": 5352,
    " кожен": 5353,
    " кор": 5354,
    " на Січ": 5355,
    " наріччя": 5356,
    " не може": 5357,
    " перед ": 5358,
    " сиді": 5359,
    " січо": 5360,
    " та з": 5361,
    " хотів": 5362,
    "ІЯ,  -ї,  ж.  [лат.  ": 5363,
    "Вже ": 5364,
    "КТ": 5365,
    "би,": 5366,
    "влення": 5367,
    "внутріш": 5368,
    "вона": 5369,
    "дрес": 5370,
    "дяку": 5371,
    "дав.,  м.  -ці": 5372,
    "надця": 5373,
    "повідає": 5374,
    "сказав": 5375,
    "сліду": 5376,
    "спів": 5377,
    "старі": 5378,
    "ти з ": 5379,
    "ть¬": 5380,
    "характе": 5381,
    "царя": 5382,
    "шлі": 5383,
    "ячи": 5384,
    "якій  ": 5385,
    "іміч": 5386,
    " Ди": 5387,
    " Пра": 5388,
    " Фе": 5389,
    " лу": 5390,
    " більше ": 5391,
    " кора": 5392,
    " скажу": 5393,
    " церко": 5394,
    " ціє": 5395,
    ", ка": 5396,
    ",  «": 5397,
    ",  -а,  ч.,  кл.  -у.  ": 5398,
    ",  яку": 5399,
    "0 \n\n": 5400,
    "А втім": 5401,
    "ПОР": 5402,
    "Свя": 5403,
    "Тоді": 5404,
    "ане": 5405,
    "впливо": 5406,
    "водо": 5407,
    "гіна": 5408,
    "деш": 5409,
    "діяльності": 5410,
    "згаду": 5411,
    "й при": 5412,
    "йської": 5413,
    "к на": 5414,
    "ка)": 5415,
    "каже": 5416,
    "нува": 5417,
    "ньої  ": 5418,
    "нів, ": 5419,
    "оце": 5420,
    "рухо": 5421,
    "ріє": 5422,
    "рів.": 5423,
    "стві": 5424,
    "східно": 5425,
    "с.  до  ": 5426,
    "ти за ": 5427,
    "ти...": 5428,
    "ують ": 5429,
    "цям": 5430,
    "чних ": 5431,
    "чого-н.,  ": 5432,
    "ю по": 5433,
    "єдну": 5434,
    " \nня": 5435,
    " Гнато": 5436,
    " Зна": 5437,
    " випад": 5438,
    " ворога": 5439,
    " віль": 5440,
    " город": 5441,
    " до Вас": 5442,
    " міц": 5443,
    " не од": 5444,
    " пом": 5445,
    " послав": 5446,
    " побачив": 5447,
    " тим часом": 5448,
    " чому": 5449,
    ", яка ": 5450,
    ",  -а,  ч.  [англ.  ": 5451,
    "- \n\n": 5452,
    ". Але ": 5453,
    ". Кримський\n": 5454,
    "].  М": 5455,
    "ion": 5456,
    "Прикм.  до": 5457,
    "бич": 5458,
    "верне": 5459,
    "віст": 5460,
    "е.  1.  ": 5461,
    "з його ": 5462,
    "користа": 5463,
    "купі ": 5464,
    "м  у  ": 5465,
    "ми;": 5466,
    "мої": 5467,
    "ні, а": 5468,
    "оги": 5469,
    "скар": 5470,
    "т  —  ": 5471,
    "творення  ": 5472,
    "тиз": 5473,
    "ти «": 5474,
    "ти  в  ": 5475,
    "ток  ": 5476,
    "у  знач.  ім.  ": 5477,
    "хили": 5478,
    "якому  ": 5479,
    "єшся": 5480,
    "є  в  ": 5481,
    "\nабо  ": 5482,
    "\nга": 5483,
    " звичай": 5484,
    " іде": 5485,
    "  використову": 5486,
    "  і  т.  ін.  ": 5487,
    " генера": 5488,
    " запа": 5489,
    " мар": 5490,
    " мова": 5491,
    " непри": 5492,
    " перш": 5493,
    " поз": 5494,
    " також": 5495,
    "4 \n\n": 5496,
    "Дорогий": 5497,
    "вчає  ": 5498,
    "дою ": 5499,
    "друге": 5500,
    "з них": 5501,
    "ка:": 5502,
    "ками,": 5503,
    "лог": 5504,
    "ме¬": 5505,
    "ные": 5506,
    "н.,  розм.  ": 5507,
    "на  з": 5508,
    "нор": 5509,
    "ні й": 5510,
    "пто": 5511,
    "права": 5512,
    "речо": 5513,
    "резі": 5514,
    "рного ": 5515,
    "ству": 5516,
    "со¬": 5517,
    "стиг": 5518,
    "ток ": 5519,
    "ума": 5520,
    "яза": 5521,
    "і всі": 5522,
    "і до": 5523,
    "ів  ": 5524,
    "іко": 5525,
    "– то ": 5526,
    "\nСта": 5527,
    " \nНе": 5528,
    " Хіба": 5529,
    " п’я": 5530,
    " яке": 5531,
    " матері": 5532,
    " маю": 5533,
    " мірку": 5534,
    " найбільше": 5535,
    " сім’": 5536,
    ");  -": 5537,
    ",  спе": 5538,
    ",  що  на": 5539,
    ", мож": 5540,
    "sch": 5541,
    "Христи": 5542,
    "бий": 5543,
    "взагалі": 5544,
    "вник ": 5545,
    "вста": 5546,
    "вському ": 5547,
    "власно": 5548,
    "гим": 5549,
    "ета": 5550,
    "жер": 5551,
    "зв’яз": 5552,
    "здебіль": 5553,
    "крив": 5554,
    "лася на ": 5555,
    "льник": 5556,
    "ліку": 5557,
    "ліття": 5558,
    "наро": 5559,
    "ни й": 5560,
    "ницю": 5561,
    "няття": 5562,
    "птах": 5563,
    "прода": 5564,
    "ряди": 5565,
    "суди": 5566,
    "ть! ": 5567,
    "і до ": 5568,
    "їхав ": 5569,
    "\nПід": 5570,
    " \nз  ": 5571,
    " \nпро": 5572,
    " бере": 5573,
    " 190": 5574,
    " Від": 5575,
    " Дем": 5576,
    " двох": 5577,
    " за ча": 5578,
    " мусив": 5579,
    " не ста": 5580,
    " неї ": 5581,
    " черво": 5582,
    ", який": 5583,
    ", мовляв": 5584,
    "Вер": 5585,
    "Сагайда": 5586,
    "Хто": 5587,
    "ама": 5588,
    "без  додатка": 5589,
    "було": 5590,
    "вим  ": 5591,
    "властиво": 5592,
    "від¬": 5593,
    "день ": 5594,
    "ді.": 5595,
    "и,  ж": 5596,
    "ку й": 5597,
    "лювати": 5598,
    "лію": 5599,
    "мпера": 5600,
    "ним,": 5601,
    "ном.": 5602,
    "ну з": 5603,
    "ньої ": 5604,
    "певної  ": 5605,
    "приклад": 5606,
    "псих": 5607,
    "північ": 5608,
    "січо": 5609,
    "тет": 5610,
    "тися до ": 5611,
    "ували ": 5612,
    "і навіть ": 5613,
    "ільки": 5614,
    "\nся": 5615,
    " \nто": 5616,
    " .  ": 5617,
    " зне": 5618,
    "  най": 5619,
    "  і т .  ін.)": 5620,
    " Війська Запорозь": 5621,
    " ворогів": 5622,
    " натов": 5623,
    " неві": 5624,
    " нім": 5625,
    " разом із": 5626,
    " син": 5627,
    ".. Не": 5628,
    ".  2.  По": 5629,
    "Госпо": 5630,
    "Мало": 5631,
    "Наві": 5632,
    "Тільки": 5633,
    "УМ": 5634,
    "ЦЕН": 5635,
    "Ява ": 5636,
    "буває": 5637,
    "вав,": 5638,
    "вши на ": 5639,
    "гео": 5640,
    "готовля": 5641,
    "громи": 5642,
    "гімназ": 5643,
    "дон": 5644,
    "ким військом": 5645,
    "лися, ": 5646,
    "мія": 5647,
    "нні  ": 5648,
    "на)": 5649,
    "ну й": 5650,
    "ність,": 5651,
    "па¬": 5652,
    "світі": 5653,
    "сере": 5654,
    "силаю": 5655,
    "скочи": 5656,
    "сом ": 5657,
    "ти.  2.  ": 5658,
    "тім ": 5659,
    "у,  ": 5660,
    "хоро": 5661,
    "ці  ": 5662,
    "чно-": 5663,
    "швидше": 5664,
    "якій": 5665,
    "явища": 5666,
    "імен": 5667,
    " Жи": 5668,
    " звіс": 5669,
    " кілька ": 5670,
    " Дніпром": 5671,
    " відби": 5672,
    " голову": 5673,
    " козаками": 5674,
    " нашого ": 5675,
    " поляків": 5676,
    " слово ": 5677,
    " сторо": 5678,
    " так, як": 5679,
    " ценз": 5680,
    ",  -уєш,  перех": 5681,
    ".,  ор.  -": 5682,
    "8 \n\n": 5683,
    "¬ по": 5684,
    "»).": 5685,
    "І.  ": 5686,
    "Мики": 5687,
    "авли": 5688,
    "вплив": 5689,
    "гле": 5690,
    "дії  ": 5691,
    "еть": 5692,
    "жовто": 5693,
    "км.  па": 5694,
    "кова ": 5695,
    "ків  ": 5696,
    "кімна": 5697,
    "ліген": 5698,
    "нами ": 5699,
    "ною,": 5700,
    "нське": 5701,
    "оля": 5702,
    "рський": 5703,
    "руши": 5704,
    "рівча": 5705,
    "своєю": 5706,
    "слідок  ": 5707,
    "сою": 5708,
    "упа": 5709,
    "фіка": 5710,
    "хліб": 5711,
    "християн": 5712,
    "як на ": 5713,
    "яскра": 5714,
    "\n — Не": 5715,
    "\nТе": 5716,
    " Руда": 5717,
    " фор": 5718,
    "  ко": 5719,
    "  ви¬ ": 5720,
    "  ор": 5721,
    " бач": 5722,
    " бачив": 5723,
    " виклика": 5724,
    " лима": 5725,
    " мати ": 5726,
    " тобою": 5727,
    " тую": 5728,
    " харак": 5729,
    " цілу": 5730,
    " чимало": 5731,
    ", зда": 5732,
    "» та ": 5733,
    "Івані": 5734,
    "Багато": 5735,
    "Гордієн": 5736,
    "вбра": 5737,
    "вся, ": 5738,
    "гетьмана ": 5739,
    "ди з": 5740,
    "добу": 5741,
    "ж по": 5742,
    "знає": 5743,
    "ко-": 5744,
    "ли за": 5745,
    "логія": 5746,
    "льних  ": 5747,
    "ляхі": 5748,
    "ліза": 5749,
    "мог": 5750,
    "нто": 5751,
    "на¬ ": 5752,
    "ннях": 5753,
    "нська ": 5754,
    "опа": 5755,
    "переч": 5756,
    "перед ": 5757,
    "просто": 5758,
    "рва": 5759,
    "рха": 5760,
    "ри. ": 5761,
    "рські": 5762,
    "ся.": 5763,
    "ть до ": 5764,
    "ці й": 5765,
    "часті": 5766,
    "шляхом": 5767,
    "щен": 5768,
    " Прі": 5769,
    " яка": 5770,
    "  одніє": 5771,
    " був у": 5772,
    " варто": 5773,
    " подорож": 5774,
    " степ": 5775,
    " стор.)": 5776,
    ", 190": 5777,
    ", себто ": 5778,
    ". \n\n\n\n1": 5779,
    "3  •  ": 5780,
    ":  ": 5781,
    "Ваш ": 5782,
    "ЙЛ": 5783,
    "Москва": 5784,
    "Полі": 5785,
    "в би": 5786,
    "вав у": 5787,
    "гай": 5788,
    "дав.": 5789,
    "для \n": 5790,
    "загалі ": 5791,
    "к.  ": 5792,
    "кції": 5793,
    "комен": 5794,
    "крути": 5795,
    "лише": 5796,
    "лом ": 5797,
    "міню": 5798,
    "нші ": 5799,
    "ниць": 5800,
    "ну.\n": 5801,
    "поверх": 5802,
    "сня": 5803,
    "серце": 5804,
    "ставни": 5805,
    "сть.": 5806,
    "тір": 5807,
    "ують": 5808,
    "у  знач,  при": 5809,
    "чиня": 5810,
    "ґрунту": 5811,
    " Пі": 5812,
    " а на ": 5813,
    " ске": 5814,
    "  (в": 5815,
    " доведе": 5816,
    " мину": 5817,
    " не знаю": 5818,
    " підня": 5819,
    " ради": 5820,
    " стої": 5821,
    " такої": 5822,
    " товаришів": 5823,
    " церк": 5824,
    ", який ": 5825,
    ", щоб по": 5826,
    "-за": 5827,
    ".  Ж": 5828,
    ".  3.  пере": 5829,
    "1  •  ": 5830,
    "«Жи": 5831,
    "¬ 2.  ": 5832,
    "або \n": 5833,
    "би.": 5834,
    "вго": 5835,
    "ворога": 5836,
    "даль": 5837,
    "десят": 5838,
    "зруйну": 5839,
    "з’я": 5840,
    "кза": 5841,
    "ку. \n": 5842,
    "льних": 5843,
    "метою": 5844,
    "не.": 5845,
    "нес": 5846,
    "ний і": 5847,
    "сха": 5848,
    "стате": 5849,
    "стою": 5850,
    "холо": 5851,
    "ціально": 5852,
    "ше, ": 5853,
    "юри": 5854,
    "як по": 5855,
    "яке ": 5856,
    "якою": 5857,
    "інсти": 5858,
    " \nвід": 5859,
    " Хафіз": 5860,
    " гре": 5861,
    " оді": 5862,
    " правда": 5863,
    "  зо": 5864,
    " відноси": 5865,
    " дівча": 5866,
    " захі": 5867,
    " кажучи": 5868,
    " комі": 5869,
    " про це": 5870,
    " разі": 5871,
    " скар": 5872,
    " часи": 5873,
    "»),": 5874,
    "Драгоманов": 5875,
    "ТЕР": 5876,
    "Ши": 5877,
    "англі": 5878,
    "аси": 5879,
    "ать": 5880,
    "баш": 5881,
    "вати. ": 5882,
    "демо": 5883,
    "доро": 5884,
    "дружи": 5885,
    "ера": 5886,
    "з собою": 5887,
    "ка,  ": 5888,
    "ками, ": 5889,
    "ллю": 5890,
    "ла»": 5891,
    "механіз": 5892,
    "мі¬": 5893,
    "очах": 5894,
    "правду": 5895,
    "пій": 5896,
    "сле": 5897,
    "сад": 5898,
    "смія": 5899,
    "спеціаль": 5900,
    "те, що ": 5901,
    "ти, що": 5902,
    "тьом": 5903,
    "увійш": 5904,
    "ціалі": 5905,
    "ці. \n": 5906,
    "щось  ": 5907,
    "єванге": 5908,
    "їхні": 5909,
    " «Зорі»": 5910,
    " Все": 5911,
    " Ли": 5912,
    " осе": 5913,
    "  стра": 5914,
    " відпові": 5915,
    " довго": 5916,
    " довелося ": 5917,
    " не тільки": 5918,
    " прави": 5919,
    " рецензі": 5920,
    "'яза": 5921,
    "(бо": 5922,
    ", бо я": 5923,
    "6 \n\n": 5924,
    "«Наро": 5925,
    "Ака": 5926,
    "Геть": 5927,
    "ЕЛЬ": 5928,
    "апсе": 5929,
    "бен": 5930,
    "воду": 5931,
    "вшись ": 5932,
    "да, ": 5933,
    "значає": 5934,
    "имба": 5935,
    "Цимба": 5936,
    "ко. ": 5937,
    "кількість": 5938,
    "меже": 5939,
    "муш": 5940,
    "норма": 5941,
    "ністра": 5942,
    "ні \n": 5943,
    "пше": 5944,
    "правлі": 5945,
    "рі, ": 5946,
    "різних  ": 5947,
    "ская": 5948,
    "соби": 5949,
    "сть  ": 5950,
    "сум": 5951,
    "теро": 5952,
    "терито": 5953,
    "ти, я": 5954,
    "хли": 5955,
    "цько-": 5956,
    "– Не": 5957,
    "– до": 5958,
    "\nдо  ": 5959,
    " Льво": 5960,
    " Оле": 5961,
    "  стру": 5962,
    "  •  1 ": 5963,
    " 187": 5964,
    " Ви ": 5965,
    " висло": 5966,
    " колись": 5967,
    " мова ": 5968,
    " мохар": 5969,
    " недав": 5970,
    " ніби": 5971,
    " поле": 5972,
    " почина": 5973,
    " ріш": 5974,
    " суд": 5975,
    ", поча": 5976,
    ". Грінчен": 5977,
    ".  2.  перен": 5978,
    ". Там": 5979,
    "?\n – ": 5980,
    "].  1": 5981,
    "il": 5982,
    "ir": 5983,
    "¬ но": 5984,
    "Дунай": 5985,
    "Жя": 5986,
    "Павли": 5987,
    "Русі": 5988,
    "ахівець": 5989,
    "Фахівець": 5990,
    "вчення": 5991,
    "вищ": 5992,
    "вою  ": 5993,
    "гляду": 5994,
    "дним": 5995,
    "ди й": 5996,
    "діста": 5997,
    "дійшо": 5998,
    "кувати ": 5999,
    "кулі": 6000,
    "лад  ": 6001,
    "ли:": 6002,
    "медици": 6003,
    "менше": 6004,
    "ми про": 6005,
    "нда": 6006,
    "на П": 6007,
    "на  о": 6008,
    "не¬ ": 6009,
    "ну, а": 6010,
    "ортом": 6011,
    "Чортом": 6012,
    "прі": 6013,
    "пуля": 6014,
    "пи ": 6015,
    "прикін": 6016,
    "ська ": 6017,
    "твору": 6018,
    "те ласка": 6019,
    "тисяч": 6020,
    "тих ": 6021,
    "ту  ": 6022,
    "тую": 6023,
    "тієї": 6024,
    "увагу": 6025,
    "шляху": 6026,
    "щасти": 6027,
    "\nго": 6028,
    "\nпа": 6029,
    "\nроз": 6030,
    " зди": 6031,
    " інак": 6032,
    "  (на": 6033,
    " доч": 6034,
    " заліз": 6035,
    " молодо": 6036,
    " небезпе": 6037,
    " той час": 6038,
    "',  ~": 6039,
    ",  розм": 6040,
    ". Ми": 6041,
    ". Тут": 6042,
    ". Через": 6043,
    "Дже": 6044,
    "Луг": 6045,
    "аліз": 6046,
    "апи": 6047,
    "багато ": 6048,
    "боя": 6049,
    "дний": 6050,
    "дів,": 6051,
    "жовні": 6052,
    "знову ": 6053,
    "клу": 6054,
    "каль": 6055,
    "камі": 6056,
    "ки-": 6057,
    "ки (": 6058,
    "ла б": 6059,
    "лася в": 6060,
    "ло на ": 6061,
    "ло з": 6062,
    "ляхи": 6063,
    "літератур": 6064,
    "обре": 6065,
    "обще": 6066,
    "оповідання": 6067,
    "руха": 6068,
    "султан": 6069,
    "тощо.": 6070,
    "ті  ": 6071,
    "фак": 6072,
    "цім": 6073,
    "чине": 6074,
    "щих": 6075,
    " Адже ": 6076,
    " зло": 6077,
    "  викона": 6078,
    "  поверх": 6079,
    " ком": 6080,
    " лежи": 6081,
    " мають ": 6082,
    " не хоче": 6083,
    " почав ": 6084,
    " того,": 6085,
    " тіка": 6086,
    ",  -а,  ч.  [лат.  ": 6087,
    ".  Не": 6088,
    ";  пере": 6089,
    "[грец.  ": 6090,
    "А,  -й,  ж": 6091,
    "Ого": 6092,
    "бза": 6093,
    "бух": 6094,
    "давати  ": 6095,
    "двоє": 6096,
    "ель": 6097,
    "журна": 6098,
    "країнах": 6099,
    "куля": 6100,
    "кінець": 6101,
    "ляхів": 6102,
    "ми»": 6103,
    "му.\n": 6104,
    "нших ": 6105,
    "на!": 6106,
    "на, а": 6107,
    "нос": 6108,
    "писі": 6109,
    "помага": 6110,
    "просту": 6111,
    "ра. ": 6112,
    "род.  -а": 6113,
    "ряс": 6114,
    "скида": 6115,
    "сульман": 6116,
    "тви": 6117,
    "фон": 6118,
    "фізі": 6119,
    "хрести": 6120,
    "шість ": 6121,
    "ють, ": 6122,
    "\nво": 6123,
    " \nка": 6124,
    " ними ": 6125,
    "  ін.  ": 6126,
    " бува": 6127,
    " заборо": 6128,
    " коли б": 6129,
    " ночі": 6130,
    " паль": 6131,
    " рушни": 6132,
    ", хо": 6133,
    ",  -а,  ч.  1.  ": 6134,
    ",  що  о": 6135,
    "9  •  ": 6136,
    "Каза": 6137,
    "НЯ,  -я,  с": 6138,
    "Чого ": 6139,
    "бель": 6140,
    "був ": 6141,
    "біч": 6142,
    "віри": 6143,
    "гою ": 6144,
    "да  ": 6145,
    "земе": 6146,
    "ита": 6147,
    "й про": 6148,
    "копа": 6149,
    "кою, ": 6150,
    "лаз": 6151,
    "лас": 6152,
    "ла.\n": 6153,
    "лося,": 6154,
    "міфо": 6155,
    "ні,  ": 6156,
    "роз¬": 6157,
    "ру, ": 6158,
    "ря»": 6159,
    "сар": 6160,
    "слідов": 6161,
    "сно,": 6162,
    "соро": 6163,
    "ться, ": 6164,
    "улі": 6165,
    "ць,": 6166,
    "ці, а": 6167,
    "чорно": 6168,
    "ім’я": 6169,
    "інтеліген": 6170,
    "\nли": 6171,
    " Кома": 6172,
    "   ": 6173,
    "  тощо)": 6174,
    " батько": 6175,
    " гада": 6176,
    " газ": 6177,
    " зане": 6178,
    " колиш": 6179,
    " лежа": 6180,
    " легко": 6181,
    " пиш": 6182,
    " присла": 6183,
    " прово": 6184,
    " розі": 6185,
    " цій": 6186,
    ",  що \n\n": 6187,
    ".  П.  ": 6188,
    "III в": 6189,
    "[лат.  ": 6190,
    "«Ки": 6191,
    "«Не": 6192,
    "») ": 6193,
    "Бать": 6194,
    "Ну,": 6195,
    "акти": 6196,
    "ани": 6197,
    "вань": 6198,
    "вніс": 6199,
    "грош": 6200,
    "дли": 6201,
    "ді»": 6202,
    "зброї": 6203,
    "ки та ": 6204,
    "кий Луг": 6205,
    "ла його ": 6206,
    "лів,": 6207,
    "ма,": 6208,
    "ново": 6209,
    "ногра": 6210,
    "нього.": 6211,
    "пріз": 6212,
    "пис ": 6213,
    "пласти": 6214,
    "поль": 6215,
    "поча": 6216,
    "ства,": 6217,
    "стійно": 6218,
    "тний  ": 6219,
    "тверди": 6220,
    "торо": 6221,
    "устано": 6222,
    "цього": 6223,
    "ючи,": 6224,
    "\n — Та": 6225,
    " тро": 6226,
    "  [лат.  ": 6227,
    "  і р": 6228,
    " Хмельницький": 6229,
    " каз": 6230,
    " козацького ": 6231,
    " мовча": 6232,
    " не роз": 6233,
    " півні": 6234,
    " самісінь": 6235,
    " селя": 6236,
    " товариша": 6237,
    "(15": 6238,
    ",  -а,  ч.  [грец.  ": 6239,
    ",  який  ви": 6240,
    "- Не": 6241,
    ".  1.": 6242,
    ";  -ний,  -а,  -е.  ": 6243,
    "EO": 6244,
    "EOS": 6245,
    "EOS|": 6246,
    "EOS|>": 6247,
    "|EOS|>": 6248,
    "НА,  -и,  ж": 6249,
    "Самій": 6250,
    "бі ": 6251,
    "біблі": 6252,
    "валося ": 6253,
    "году": 6254,
    "д.  -": 6255,
    "двір": 6256,
    "дн.  ": 6257,
    "князі": 6258,
    "ком, ": 6259,
    "кільки ": 6260,
    "лася.": 6261,
    "лиз": 6262,
    "ло й": 6263,
    "луча": 6264,
    "міром,": 6265,
    "нан": 6266,
    "ная": 6267,
    "ння \n\n": 6268,
    "отьом": 6269,
    "р.  ": 6270,
    "слідок": 6271,
    "сором": 6272,
    "ську ": 6273,
    "ти од": 6274,
    "ть:": 6275,
    "чому-": 6276,
    "іо  —  ": 6277,
    "\nло": 6278,
    " золо": 6279,
    " якщо": 6280,
    "  захвор": 6281,
    " Персії": 6282,
    " заго": 6283,
    " згаду": 6284,
    " могли ": 6285,
    " молод": 6286,
    " не ч": 6287,
    " прикла": 6288,
    " проти": 6289,
    " стародав": 6290,
    " теа": 6291,
    " часу": 6292,
    ",  з  ": 6293,
    ". Са": 6294,
    "5Ш": 6295,
    "7  •  ": 6296,
    ";  -ник": 6297,
    "¬ \n\nП": 6298,
    "Кали": 6299,
    "Потьом": 6300,
    "Роби": 6301,
    "Хафі": 6302,
    "Цимбалю": 6303,
    "Який  має  ": 6304,
    "варто": 6305,
    "гати": 6306,
    "дам": 6307,
    "зброю": 6308,
    "ки;": 6309,
    "льський": 6310,
    "ма.": 6311,
    "мо¬": 6312,
    "моря": 6313,
    "моско": 6314,
    "не \n": 6315,
    "ночі": 6316,
    "ніж": 6317,
    "одн.  ": 6318,
    "одніє": 6319,
    "оріє": 6320,
    "осіб": 6321,
    "ріше": 6322,
    "ст,  -а,  ч.,  кл.  -е": 6323,
    "с.  до": 6324,
    "скоро": 6325,
    "тами ": 6326,
    "теш": 6327,
    "тріо": 6328,
    "ується  ": 6329,
    "цькому ": 6330,
    "ша  частина  склад": 6331,
    "інших ": 6332,
    "іпа": 6333,
    " а про": 6334,
    " збір": 6335,
    "  висо": 6336,
    "  одя": 6337,
    " ваш": 6338,
    " вигу": 6339,
    " волі": 6340,
    " киї": 6341,
    " козаків.": 6342,
    " не бачи": 6343,
    " не має": 6344,
    " не можна ": 6345,
    " одповів": 6346,
    " побу": 6347,
    " після того ": 6348,
    " реч": 6349,
    " своїх ": 6350,
    " та за": 6351,
    " та о": 6352,
    " хар": 6353,
    ",  -у,  ч.": 6354,
    ", може": 6355,
    ", що за ": 6356,
    ".  У": 6357,
    ".  2.  Ви": 6358,
    "].  Г": 6359,
    "Акаде": 6360,
    "Ь,  -": 6361,
    "вага": 6362,
    "дивля": 6363,
    "жва": 6364,
    "жий  ": 6365,
    "житт": 6366,
    "капі": 6367,
    "котрі": 6368,
    "купі з": 6369,
    "лья": 6370,
    "льова": 6371,
    "лі  ": 6372,
    "м  (": 6373,
    "місці": 6374,
    "ний  із  ": 6375,
    "нь. ": 6376,
    "ских": 6377,
    "ти \n\n": 6378,
    "ться в": 6379,
    "у нього ": 6380,
    "ував ": 6381,
    "усього ": 6382,
    "через  ": 6383,
    "шій": 6384,
    " Гнат": 6385,
    " ПР": 6386,
    " Ре": 6387,
    " зра": 6388,
    "  і р ": 6389,
    " видання ": 6390,
    " козаками ": 6391,
    " не про": 6392,
    " помі": 6393,
    " прийшо": 6394,
    " проси": 6395,
    " розу": 6396,
    ",  що  від": 6397,
    "-бо": 6398,
    "-и,  ж": 6399,
    ".  і  ": 6400,
    ".  1.  О": 6401,
    "189": 6402,
    "].  При": 6403,
    "ers": 6404,
    "Львів": 6405,
    "Місце": 6406,
    "Пла": 6407,
    "боку ": 6408,
    "в мене ": 6409,
    "вими": 6410,
    "горта": 6411,
    "дуть ": 6412,
    "з бо": 6413,
    "ка!": 6414,
    "ки!": 6415,
    "кими  ": 6416,
    "кисло": 6417,
    "ку! ": 6418,
    "кінь": 6419,
    "ківщи": 6420,
    "мат": 6421,
    "міщення  ": 6422,
    "нем": 6423,
    "ни.\n": 6424,
    "ову": 6425,
    "особа": 6426,
    "переда": 6427,
    "психі": 6428,
    "рбай": 6429,
    "ербай": 6430,
    "зербай": 6431,
    "рами ": 6432,
    "ро¬ ": 6433,
    "свідо": 6434,
    "спору": 6435,
    "стріля": 6436,
    "ся в": 6437,
    "усь": 6438,
    "франц. ": 6439,
    "хіміч": 6440,
    "шугу": 6441,
    "щення  ": 6442,
    "ється, ": 6443,
    "\nра": 6444,
    " (по": 6445,
    " араб": 6446,
    " пле": 6447,
    " т .  і": 6448,
    "  по¬ \n": 6449,
    "  світ": 6450,
    " бути": 6451,
    " дина": 6452,
    " до мене": 6453,
    " заспо": 6454,
    " куп": 6455,
    " людини": 6456,
    " мабу": 6457,
    " нази": 6458,
    " не на ": 6459,
    " не був": 6460,
    " про «": 6461,
    " скоро": 6462,
    " тебе ": 6463,
    " тій": 6464,
    ", ли": 6465,
    ",  без": 6466,
    ", що я ": 6467,
    ". ви": 6468,
    ". на": 6469,
    ".  3.  перен.  ": 6470,
    "P.": 6471,
    "in ": 6472,
    "om": 6473,
    "бстави": 6474,
    "встрі": 6475,
    "всь ": 6476,
    "гімназі": 6477,
    "для  з": 6478,
    "для  о": 6479,
    "до¬ ": 6480,
    "діли": 6481,
    "ж ви": 6482,
    "збе": 6483,
    "зва  ": 6484,
    "здоро": 6485,
    "зербайджа": 6486,
    "значення  ": 6487,
    "кажу": 6488,
    "казує": 6489,
    "ки на ": 6490,
    "ків.\n": 6491,
    "нити ": 6492,
    "пну": 6493,
    "певного  ": 6494,
    "пишу": 6495,
    "річки ": 6496,
    "скви": 6497,
    "оскви": 6498,
    "Москви": 6499,
    "сман": 6500,
    "сся": 6501,
    "сий": 6502,
    "соло": 6503,
    "трих": 6504,
    "цієї": 6505,
    "ча  ": 6506,
    "чок ": 6507,
    "чомусь": 6508,
    "інтере": 6509,
    "— гу": 6510,
    "\nГаля\n": 6511,
    "\nте": 6512,
    " 000": 6513,
    " мною": 6514,
    " буває": 6515,
    " до нього ": 6516,
    " добрий": 6517,
    " за ру": 6518,
    " знов ": 6519,
    " каже ": 6520,
    " куре": 6521,
    " напи": 6522,
    " навпа": 6523,
    " пану": 6524,
    " треба ": 6525,
    ",  -а,  -е,  ": 6526,
    ", мабуть, ": 6527,
    ", що в ": 6528,
    ". по": 6529,
    ". ро": 6530,
    ". Він ": 6531,
    ";  від": 6532,
    "<  ": 6533,
    "ut": 6534,
    "¬ \nза": 6535,
    "Борис Васильович\n": 6536,
    "Добре": 6537,
    "Дієприкм.  па": 6538,
    "алі ": 6539,
    "бР": 6540,
    "вніст": 6541,
    "впливом": 6542,
    "вши в": 6543,
    "гер": 6544,
    "диха": 6545,
    "кби": 6546,
    "кажчик": 6547,
    "кових": 6548,
    "коле": 6549,
    "коло ": 6550,
    "ли на": 6551,
    "лися. ": 6552,
    "льський ": 6553,
    "ми:": 6554,
    "нка ": 6555,
    "ні)": 6556,
    "оригіна": 6557,
    "ргоро": 6558,
    "си,": 6559,
    "ставле": 6560,
    "стяг": 6561,
    "тна  ": 6562,
    "тул": 6563,
    "ть.\n": 6564,
    "ульта": 6565,
    "форму": 6566,
    "хня": 6567,
    "хімі": 6568,
    "характериз": 6569,
    "я Вам": 6570,
    "інші ": 6571,
    "\nни": 6572,
    " слі": 6573,
    " я не ": 6574,
    "  осіб": 6575,
    "  із ": 6576,
    " заразо": 6577,
    " знайо": 6578,
    " неволю": 6579,
    " отама": 6580,
    " своїм ": 6581,
    ",  -ую,  -уєш;  ": 6582,
    ".. Та": 6583,
    ".  Ро": 6584,
    "5  •  ": 6585,
    "us ": 6586,
    "А. Кримський\n": 6587,
    "Гафіз": 6588,
    "Ганна І": 6589,
    "Ганна Ів": 6590,
    "Луз": 6591,
    "Після ": 6592,
    "Скоро": 6593,
    "Соло": 6594,
    "ати": 6595,
    "вза": 6596,
    "вмі": 6597,
    "вре": 6598,
    "вал": 6599,
    "ведення  ": 6600,
    "везе": 6601,
    "госло": 6602,
    "голл.  ": 6603,
    "дний  ": 6604,
    "дній": 6605,
    "едій": 6606,
    "Гедій": 6607,
    "життє": 6608,
    "здається": 6609,
    "здобу": 6610,
    "ка,  -и,  ж.,  ": 6611,
    "лася,": 6612,
    "лу.": 6613,
    "ми на ": 6614,
    "міста": 6615,
    "ния ": 6616,
    "ною.": 6617,
    "нічого": 6618,
    "ового ": 6619,
    "ової": 6620,
    "одну ": 6621,
    "птом": 6622,
    "проми": 6623,
    "проха": 6624,
    "після ": 6625,
    "рої": 6626,
    "рський ": 6627,
    "рський  ": 6628,
    "рія ": 6629,
    "ського,": 6630,
    "та \n": 6631,
    "тому ": 6632,
    "ться  ": 6633,
    "тів, ": 6634,
    "фік": 6635,
    "ще й ": 6636,
    "єкти": 6637,
    " <|EOS|>": 6638,
    " «Пра": 6639,
    " Мари": 6640,
    " ний  ": 6641,
    " око": 6642,
    " – це": 6643,
    " душі": 6644,
    " заразом": 6645,
    " ледве": 6646,
    " надрукова": 6647,
    " така": 6648,
    " чи не ": 6649,
    "!\n(": 6650,
    ", го": 6651,
    ",  су": 6652,
    ",  по¬": 6653,
    ", ніби": 6654,
    ". \n\nН": 6655,
    "; коли ": 6656,
    "АСТ": 6657,
    "Спа": 6658,
    "Три": 6659,
    "Частина  ": 6660,
    "Чорнота": 6661,
    "аргоро": 6662,
    "ви¬ \n": 6663,
    "гріх": 6664,
    "жень": 6665,
    "кає": 6666,
    "клопо": 6667,
    "ком  ": 6668,
    "кого,": 6669,
    "кольору": 6670,
    "ледве": 6671,
    "ли за ": 6672,
    "мило": 6673,
    "очи": 6674,
    "пустив": 6675,
    "разів": 6676,
    "роду": 6677,
    "ром ": 6678,
    "ріг": 6679,
    "ська": 6680,
    "ським": 6681,
    "тні ": 6682,
    "тіло": 6683,
    "у вас": 6684,
    "ути ": 6685,
    "утко": 6686,
    "хваля": 6687,
    "чна ": 6688,
    "чотири": 6689,
    "шого": 6690,
    "ін.)": 6691,
    "інши": 6692,
    " слуха": 6693,
    " яку ": 6694,
    " і про": 6695,
    "  зовніш": 6696,
    " 186": 6697,
    " XVI": 6698,
    " будин": 6699,
    " говорив": 6700,
    " других": 6701,
    " коле": 6702,
    " постави": 6703,
    " розм.  ": 6704,
    " табір": 6705,
    "P. ": 6706,
    "Івана ": 6707,
    "Воли": 6708,
    "Великого Лугу": 6709,
    "Запорожж": 6710,
    "ИЙ,  -а,  -е.  1.  ": 6711,
    "О,  -а,  с": 6712,
    "Пів": 6713,
    "адре": 6714,
    "вський,": 6715,
    "вчає": 6716,
    "дви": 6717,
    "дразу": 6718,
    "ди  ": 6719,
    "живо": 6720,
    "жих": 6721,
    "ка» ": 6722,
    "ки, що ": 6723,
    "когось,  ": 6724,
    "кумен": 6725,
    "лись": 6726,
    "міна": 6727,
    "ний  на  ": 6728,
    "но¬": 6729,
    "нога": 6730,
    "нській": 6731,
    "ньою": 6732,
    "обря": 6733,
    "одда": 6734,
    "олта": 6735,
    "орне": 6736,
    "особи": 6737,
    "пе¬ \n": 6738,
    "плав": 6739,
    "прова": 6740,
    "ра  ": 6741,
    "тими ": 6742,
    "ти  щось": 6743,
    "туре": 6744,
    "фін.  ": 6745,
    "цій  ": 6746,
    "цієї  ": 6747,
    "што": 6748,
    "ють  у  ": 6749,
    "якийсь ": 6750,
    "єш,  перех": 6751,
    "ілле": 6752,
    "\nЦе": 6753,
    " \n — Не": 6754,
    " Січ": 6755,
    " скільки ": 6756,
    " сти": 6757,
    "  (у  2  знач.)": 6758,
    "  зв’яз": 6759,
    "  зах": 6760,
    "  один": 6761,
    " багацько": 6762,
    " бачу": 6763,
    " білору": 6764,
    " великий ": 6765,
    " він з": 6766,
    " заголов": 6767,
    " карбован": 6768,
    " наче": 6769,
    " поло": 6770,
    " припа": 6771,
    " силою": 6772,
    " стави": 6773,
    " стояв": 6774,
    " том": 6775,
    ",  шо  ": 6776,
    ".  Па": 6777,
    "].  У  ": 6778,
    "ich": 6779,
    "«Та": 6780,
    "«Кие": 6781,
    "А що": 6782,
    "ПЕР": 6783,
    "Пред": 6784,
    "бив ": 6785,
    "бож": 6786,
    "бой": 6787,
    "буді": 6788,
    "вач": 6789,
    "вання,": 6790,
    "веч": 6791,
    "вища": 6792,
    "гир": 6793,
    "готов": 6794,
    "дерева": 6795,
    "дерево": 6796,
    "ень": 6797,
    "есте": 6798,
    "з ва": 6799,
    "зна¬": 6800,
    "ке  ": 6801,
    "користу": 6802,
    "ла, що ": 6803,
    "ли ви": 6804,
    "лося.": 6805,
    "лі.\n": 6806,
    "майда": 6807,
    "нка  ": 6808,
    "нах  ": 6809,
    "ну і": 6810,
    "ніє": 6811,
    "печа": 6812,
    "пиня": 6813,
    "сподівано": 6814,
    "ського.": 6815,
    "у нас": 6816,
    "ушугу": 6817,
    "Кушугу": 6818,
    "ходять ": 6819,
    "шке": 6820,
    "шер": 6821,
    "шею": 6822,
    "і т .  і": 6823,
    "– сказав": 6824,
    "’єкти": 6825,
    " \n — Та": 6826,
    " \nний  ": 6827,
    " \nся": 6828,
    " тяж": 6829,
    " хвили": 6830,
    " ши": 6831,
    "  з  по": 6832,
    "  збро": 6833,
    "  над": 6834,
    " вия": 6835,
    " думав": 6836,
    " зало": 6837,
    " запорожців,": 6838,
    " знаєте": 6839,
    " нача": 6840,
    " нашу": 6841,
    " неможливо": 6842,
    " прочита": 6843,
    " року 16": 6844,
    " російського ": 6845,
    " рукопи": 6846,
    " якого": 6847,
    ", ані ": 6848,
    ",  напр.: ": 6849,
    ".  2.  перен.": 6850,
    "[франц.  ": 6851,
    "»,  «": 6852,
    "Ївга": 6853,
    "Дем": 6854,
    "Дорошен": 6855,
    "Мілле": 6856,
    "Маруся\n": 6857,
    "агла": 6858,
    "адмі": 6859,
    "атря": 6860,
    "Катря": 6861,
    "алекто": 6862,
    "б’єкти": 6863,
    "було ": 6864,
    "валися": 6865,
    "вести": 6866,
    "вже й": 6867,
    "віду": 6868,
    "гу.": 6869,
    "дна  ": 6870,
    "днів": 6871,
    "екза": 6872,
    "енергі": 6873,
    "зас": 6874,
    "ла і": 6875,
    "лежить": 6876,
    "млі ": 6877,
    "нею": 6878,
    "обла": 6879,
    "оки ": 6880,
    "піз": 6881,
    "рові ": 6882,
    "роста": 6883,
    "сного ": 6884,
    "стеріга": 6885,
    "сті,  ": 6886,
    "тли": 6887,
    "трий": 6888,
    "ться на ": 6889,
    "ується ": 6890,
    "устріч": 6891,
    "хвали": 6892,
    "цілий": 6893,
    "шап": 6894,
    "ше.": 6895,
    "я  ": 6896,
    "єш;  ": 6897,
    "ін.  ": 6898,
    " \nпере": 6899,
    " Або": 6900,
    " Ах": 6901,
    " Богу": 6902,
    " Шевчен": 6903,
    " звичайно": 6904,
    " ним ": 6905,
    " істори": 6906,
    "  зу": 6907,
    " видання": 6908,
    " дозво": 6909,
    " закін": 6910,
    " зробив": 6911,
    " кара": 6912,
    " музи": 6913,
    " не мав": 6914,
    " ними": 6915,
    " систе": 6916,
    " трапля": 6917,
    ", але ж": 6918,
    ", може,": 6919,
    ", той": 6920,
    ". Пе": 6921,
    "1  ": 6922,
    ";  -ь": 6923,
    "XII": 6924,
    "^ь": 6925,
    "¬ ти": 6926,
    "Багла": 6927,
    "Ьи": 6928,
    "в  —  ": 6929,
    "в се": 6930,
    "воно": 6931,
    "довж": 6932,
    "емлі ": 6933,
    "з них ": 6934,
    "за¬ ": 6935,
    "кер": 6936,
    "клав": 6937,
    "ла о": 6938,
    "лу,": 6939,
    "льну": 6940,
    "мати ": 6941,
    "ми)": 6942,
    "нської": 6943,
    "них \n\n": 6944,
    "нофі": 6945,
    "особливо": 6946,
    "перечно": 6947,
    "ргород": 6948,
    "разом і": 6949,
    "сид": 6950,
    "справед": 6951,
    "ство.": 6952,
    "ти до": 6953,
    "ти;  ": 6954,
    "ти, \n": 6955,
    "у мене": 6956,
    "упо": 6957,
    "ута": 6958,
    "філологіч": 6959,
    "ша.": 6960,
    "– це ": 6961,
    " \nва": 6962,
    " (19": 6963,
    " Драгомано": 6964,
    " Дру": 6965,
    " Мені ": 6966,
    " авто": 6967,
    " скрізь": 6968,
    "  захи": 6969,
    " Франко": 6970,
    " байра": 6971,
    " буцім": 6972,
    " вимовля": 6973,
    " вияви": 6974,
    " ворож": 6975,
    " кому": 6976,
    " куль": 6977,
    " моска": 6978,
    " подиви": 6979,
    " приго": 6980,
    " прим": 6981,
    ",  -ого": 6982,
    ",  -у,  ч.,  мед": 6983,
    ",  що  має  ": 6984,
    "Ганна Ів.": 6985,
    "Лузі": 6986,
    "Полта": 6987,
    "УБ": 6988,
    "УГ": 6989,
    "ба,": 6990,
    "беру": 6991,
    "будо": 6992,
    "встано": 6993,
    "важл.  ": 6994,
    "велику ": 6995,
    "вечі": 6996,
    "віда": 6997,
    "горну": 6998,
    "громадя": 6999,
    "дур": 7000,
    "дівчи": 7001,
    "живе": 7002,
    "звався ": 7003,
    "звич": 7004,
    "ках.": 7005,
    "крим": 7006,
    "ла во": 7007,
    "ла:": 7008,
    "лись ": 7009,
    "ли, я": 7010,
    "лист": 7011,
    "лицю": 7012,
    "лося в": 7013,
    "літо": 7014,
    "ма¬ ": 7015,
    "ни)": 7016,
    "ння з": 7017,
    "опро": 7018,
    "представни": 7019,
    "рпа": 7020,
    "разом з": 7021,
    "релігій": 7022,
    "ряду": 7023,
    "сади": 7024,
    "самісінь": 7025,
    "собо": 7026,
    "стей  ": 7027,
    "сяг": 7028,
    "трий  ": 7029,
    "учас": 7030,
    "чах": 7031,
    "шно": 7032,
    "і його ": 7033,
    "інок": 7034,
    "•  1": 7035,
    "\nі  ": 7036,
    " \nро": 7037,
    " Моско": 7038,
    "  слово": 7039,
    "  інших  ": 7040,
    " дер": 7041,
    " духо": 7042,
    " зараз ": 7043,
    " літератур": 7044,
    " мало ": 7045,
    " наук": 7046,
    " призна": 7047,
    " пішов ": 7048,
    " реш": 7049,
    " речі": 7050,
    " тоді,": 7051,
    " цілий": 7052,
    ",  за  ": 7053,
    ",  який ": 7054,
    ", 187": 7055,
    ", над": 7056,
    ", поки": 7057,
    ", що «": 7058,
    ".  2.  У  ": 7059,
    "100": 7060,
    "Дуже": 7061,
    "Жямме": 7062,
    "Потоцький": 7063,
    "Царгоро": 7064,
    "Чорне": 7065,
    "бова": 7066,
    "в'яза": 7067,
    "ва¬ ": 7068,
    "ве¬": 7069,
    "грамо": 7070,
    "двох  ": 7071,
    "дуже  ": 7072,
    "зну": 7073,
    "й роз": 7074,
    "кме": 7075,
    "ка –": 7076,
    "льні ": 7077,
    "мой": 7078,
    "на:": 7079,
    "на (": 7080,
    "нець ": 7081,
    "ник.": 7082,
    "них.": 7083,
    "нська": 7084,
    "нят": 7085,
    "ність,  -ості,  ж": 7086,
    "одразу": 7087,
    "оне": 7088,
    "перекла": 7089,
    "рит": 7090,
    "робив": 7091,
    "ских ": 7092,
    "сип": 7093,
    "соко": 7094,
    "собі ": 7095,
    "спіша": 7096,
    "ство,": 7097,
    "тика": 7098,
    "ти, як": 7099,
    "тропі": 7100,
    "утворю": 7101,
    "центра": 7102,
    "чку ": 7103,
    "чим-": 7104,
    "шли ": 7105,
    "я вже ": 7106,
    "– 15": 7107,
    "\nЧи": 7108,
    "\nди": 7109,
    "\nякий  ": 7110,
    " \nма": 7111,
    " А втім": 7112,
    " Апол": 7113,
    " хло": 7114,
    " і при": 7115,
    " – 15": 7116,
    " \n\n\n\n1": 7117,
    "  свя": 7118,
    "  слова": 7119,
    "  існу": 7120,
    "  іншо": 7121,
    " він за": 7122,
    " наблизи": 7123,
    " нер": 7124,
    " поезії": 7125,
    " пізні": 7126,
    " свої ": 7127,
    " скаже": 7128,
    " усім": 7129,
    " чоловік": 7130,
    ".  6": 7131,
    ".  II.  ": 7132,
    "].  К": 7133,
    "ul": 7134,
    "Ома": 7135,
    "Я,  -і,  ж": 7136,
    "аля ": 7137,
    "бма": 7138,
    "брат": 7139,
    "великі": 7140,
    "волі ": 7141,
    "володі": 7142,
    "галиць": 7143,
    "гін": 7144,
    "ду в": 7145,
    "з ко": 7146,
    "збо": 7147,
    "заст": 7148,
    "здале": 7149,
    "йського ": 7150,
    "кція": 7151,
    "ка,  -и,  ж.,  дав.,  м.  -ці": 7152,
    "ки: ": 7153,
    "клейно": 7154,
    "ків з": 7155,
    "лай": 7156,
    "ля.": 7157,
    "лів  ": 7158,
    "ни, а": 7159,
    "ний  за": 7160,
    "ний  у  ": 7161,
    "них і": 7162,
    "ні»": 7163,
    "ок  ": 7164,
    "оголо": 7165,
    "одеж": 7166,
    "паро": 7167,
    "рке": 7168,
    "років": 7169,
    "розмі": 7170,
    "ство,  -а,  с": 7171,
    "тво¬": 7172,
    "тербурз": 7173,
    "тропо": 7174,
    "ть по": 7175,
    "уто": 7176,
    "уватися": 7177,
    "ції.": 7178,
    "чному ": 7179,
    "шану": 7180,
    "я ви": 7181,
    "яких  ": 7182,
    "іт.  ": 7183,
    " земля": 7184,
    " обра": 7185,
    "  на¬ ": 7186,
    " було,": 7187,
    " досі ": 7188,
    " неви": 7189,
    " недов": 7190,
    " обох": 7191,
    " письмен": 7192,
    " прода": 7193,
    " реєстро": 7194,
    " стари": 7195,
    " статт": 7196,
    " теперіш": 7197,
    " цієї": 7198,
    ", а на ": 7199,
    ",  -а,  -е.  Прикм.  до  ": 7200,
    ", може, ": 7201,
    ".  2.  К": 7202,
    ".  2.  Р": 7203,
    ". Та й": 7204,
    "Галю": 7205,
    "Ганна Ів.\n": 7206,
    "Його ": 7207,
    "Може": 7208,
    "Сла": 7209,
    "Сір": 7210,
    "Хусейно": 7211,
    "авказ": 7212,
    "адрес": 7213,
    "аха": 7214,
    "біо": 7215,
    "в на": 7216,
    "вской": 7217,
    "ваш": 7218,
    "вання. ": 7219,
    "вести ": 7220,
    "вечір": 7221,
    "вид  ": 7222,
    "вой": 7223,
    "дами": 7224,
    "держави": 7225,
    "діж": 7226,
    "жах": 7227,
    "зяти ": 7228,
    "князь": 7229,
    "кого-н.  ": 7230,
    "криття": 7231,
    "лам": 7232,
    "м часом": 7233,
    "ми, і": 7234,
    "нці ": 7235,
    "на  з  ": 7236,
    "нии": 7237,
    "ни і": 7238,
    "ние»": 7239,
    "нську ": 7240,
    "ніби": 7241,
    "писати ": 7242,
    "прийма": 7243,
    "радіо": 7244,
    "револю": 7245,
    "речовин": 7246,
    "скві": 7247,
    "спершу": 7248,
    "середови": 7249,
    "словни": 7250,
    "тня": 7251,
    "телю": 7252,
    "ти його": 7253,
    "тках": 7254,
    "троху": 7255,
    "тує": 7256,
    "тями": 7257,
    "у Вели": 7258,
    "у мене ": 7259,
    "уза": 7260,
    "українського ": 7261,
    "хніх": 7262,
    "\nПере": 7263,
    " \nТа": 7264,
    " дріб": 7265,
    " \n\nВ": 7266,
    "  (перев.  ": 7267,
    "  до¬": 7268,
    "  одини": 7269,
    "  інстру": 7270,
    " галича": 7271,
    " деякі ": 7272,
    " мене,": 7273,
    " моли": 7274,
    " нас,": 7275,
    " небо": 7276,
    " покину": 7277,
    " про те, що ": 7278,
    " рівно": 7279,
    " самим": 7280,
    " статтю": 7281,
    " та на ": 7282,
    " того, я": 7283,
    " тім": 7284,
    " чорно": 7285,
    ",  що  з": 7286,
    "- \n\n\n\n1": 7287,
    ".  Дія  зі  знач": 7288,
    ";  ~ь": 7289,
    "II в": 7290,
    "].  1.": 7291,
    "ud": 7292,
    "АХ": 7293,
    "Губа": 7294,
    "Зда": 7295,
    "Кавказ": 7296,
    "Л.  -": 7297,
    "брати": 7298,
    "вської": 7299,
    "важко": 7300,
    "вини": 7301,
    "вським": 7302,
    "всіх ": 7303,
    "вши ї": 7304,
    "го¬ ": 7305,
    "доля": 7306,
    "дужа": 7307,
    "ерка": 7308,
    "жінок": 7309,
    "зважа": 7310,
    "коре": 7311,
    "крає": 7312,
    "кілька": 7313,
    "ли до": 7314,
    "листя": 7315,
    "лося на ": 7316,
    "людсь": 7317,
    "лі¬": 7318,
    "мисли": 7319,
    "мистецтва": 7320,
    "пана": 7321,
    "р-Запо": 7322,
    "ре¬ ": 7323,
    "сл.  ": 7324,
    "слав ": 7325,
    "тних  ": 7326,
    "та й": 7327,
    "теж": 7328,
    "ти, щоб": 7329,
    "ти свою": 7330,
    "у своїй": 7331,
    "уга": 7332,
    "фонетич": 7333,
    "цію ": 7334,
    "чну": 7335,
    "чимось": 7336,
    "чого-н. ": 7337,
    "янича": 7338,
    "є на ": 7339,
    "їхніх": 7340,
    "ї  та  ": 7341,
    "\nсу": 7342,
    " вимага": 7343,
    " вище": 7344,
    " вірші": 7345,
    " жит": 7346,
    " запорозьких ": 7347,
    " козацтво": 7348,
    " кошовий ": 7349,
    " могу": 7350,
    " не до ": 7351,
    " не від": 7352,
    " ненави": 7353,
    " та и": 7354,
    " тії": 7355,
    ",  -я,  ч.,  кл.  -": 7356,
    ",  -ів,  мн.  ": 7357,
    ", бо в": 7358,
    ", що при": 7359,
    ", щоб о": 7360,
    "«не": 7361,
    "Бого": 7362,
    "Війсь": 7363,
    "а за ": 7364,
    "а,  ч.,  кл.  -": 7365,
    "ам’я": 7366,
    "вантаж": 7367,
    "весь": 7368,
    "вич ": 7369,
    "гаря": 7370,
    "ги, ": 7371,
    "грамати": 7372,
    "гу,": 7373,
    "дний ": 7374,
    "дяга": 7375,
    "дався ": 7376,
    "елемент": 7377,
    "жува": 7378,
    "з Січі": 7379,
    "здійсню": 7380,
    "звичаї": 7381,
    "звичайно ": 7382,
    "к він": 7383,
    "ка о": 7384,
    "ки, я": 7385,
    "кий уряд": 7386,
    "когось,  що": 7387,
    "ку)": 7388,
    "ла!": 7389,
    "лати": 7390,
    "льського ": 7391,
    "но. ": 7392,
    "ні по": 7393,
    "окрім": 7394,
    "п§": 7395,
    "перей": 7396,
    "словар": 7397,
    "сто¬": 7398,
    "сяга": 7399,
    "т що": 7400,
    "тис": 7401,
    "тись.": 7402,
    "уде": 7403,
    "хра": 7404,
    "царе": 7405,
    "цього  ": 7406,
    "чної ": 7407,
    "щад": 7408,
    "що-н": 7409,
    "і за ": 7410,
    "’єдну": 7411,
    "\n  ": 7412,
    "\n – Та": 7413,
    "\nЩе": 7414,
    " Ого": 7415,
    " дві": 7416,
    " землю": 7417,
    " зоста": 7418,
    " широ": 7419,
    " – Не": 7420,
    "  дов": 7421,
    " до К": 7422,
    " друку": 7423,
    " залиши": 7424,
    " між іншим": 7425,
    " повинен": 7426,
    " проф": 7427,
    " своїми": 7428,
    " сподіва": 7429,
    ", що Ви": 7430,
    ", щоб я": 7431,
    ".  1.  П": 7432,
    "ct": 7433,
    "iv": 7434,
    "«Сло": 7435,
    "КЛ.  -": 7436,
    "бувати": 7437,
    "вна ": 7438,
    "вернув": 7439,
    "ви. ": 7440,
    "вся. ": 7441,
    "гріш": 7442,
    "городи": 7443,
    "громадсь": 7444,
    "групи": 7445,
    "даго": 7446,
    "дного": 7447,
    "дуж": 7448,
    "землі ": 7449,
    "йте, ": 7450,
    "ка¬": 7451,
    "кіш": 7452,
    "лами": 7453,
    "лубо": 7454,
    "льно-": 7455,
    "мужи": 7456,
    "ни. \n": 7457,
    "ник,": 7458,
    "ність.": 7459,
    "оки": 7460,
    "околи": 7461,
    "осман": 7462,
    "па ": 7463,
    "переду": 7464,
    "плака": 7465,
    "піа": 7466,
    "підста": 7467,
    "роблю": 7468,
    "рожни": 7469,
    "сить": 7470,
    "слам": 7471,
    "ське ": 7472,
    "ській": 7473,
    "табо": 7474,
    "того  ": 7475,
    "трапи": 7476,
    "тувати ": 7477,
    "цями": 7478,
    "ч.,  кл.  -": 7479,
    "чі  ": 7480,
    "частин": 7481,
    "і, по": 7482,
    "інка": 7483,
    " землі": 7484,
    " шука": 7485,
    " яким": 7486,
    " і  ": 7487,
    " вар": 7488,
    " відповід": 7489,
    " гаразд": 7490,
    " запорозькі ": 7491,
    " мали ": 7492,
    " нагаду": 7493,
    " не знає": 7494,
    " політи": 7495,
    " помил": 7496,
    " робі": 7497,
    " руї": 7498,
    " сон": 7499,
    ", тільки ": 7500,
    ", що то": 7501,
    ", що її": 7502,
    ", щоб ви": 7503,
    ". Всі": 7504,
    "..  [грец.  ": 7505,
    ". \n\nС": 7506,
    "8  —": 7507,
    ";  ~е": 7508,
    "].  Пер": 7509,
    "А вже ж": 7510,
    "Амери": 7511,
    "Баглай": 7512,
    "Галаган": 7513,
    "Замо": 7514,
    "Мабу": 7515,
    "Ска": 7516,
    "Сту": 7517,
    "в  о": 7518,
    "ва з": 7519,
    "власни": 7520,
    "вою.": 7521,
    "вірш": 7522,
    "ге ": 7523,
    "дець": 7524,
    "ди в": 7525,
    "дною": 7526,
    "дійсне": 7527,
    "ки –": 7528,
    "користовується  ": 7529,
    "ла у": 7530,
    "логи": 7531,
    "ля,": 7532,
    "мат.  ": 7533,
    "мени": 7534,
    "нато": 7535,
    "нау": 7536,
    "не!": 7537,
    "них, ": 7538,
    "ния»": 7539,
    "но було ": 7540,
    "ніх  ": 7541,
    "отім": 7542,
    "образи": 7543,
    "предмета": 7544,
    "піль": 7545,
    "разом із": 7546,
    "руш": 7547,
    "себе ": 7548,
    "ского": 7549,
    "сполу": 7550,
    "спосіб": 7551,
    "стану": 7552,
    "телів": 7553,
    "тина": 7554,
    "тися. ": 7555,
    "фри": 7556,
    "хутко": 7557,
    "халі": 7558,
    "чогі": 7559,
    "ього": 7560,
    "ю,  -": 7561,
    "ю,  -я": 7562,
    "ючи ї": 7563,
    "іка": 7564,
    "ім.  ": 7565,
    "\nДорогий": 7566,
    "\nві": 7567,
    " \n3.  ": 7568,
    " 3.  ": 7569,
    " Павли": 7570,
    " ше": 7571,
    " — гу": 7572,
    " \n\nС": 7573,
    " будуть ": 7574,
    " дещо": 7575,
    " жив": 7576,
    " запорозького ": 7577,
    " знайшо": 7578,
    " лихо": 7579,
    " почув": 7580,
    " своєму ": 7581,
    " сучас": 7582,
    " товариш": 7583,
    " хаз": 7584,
    " хазя": 7585,
    " якою": 7586,
    " історії": 7587,
    ", ста": 7588,
    ", нехай": 7589,
    "- сказав": 7590,
    "...  [грец.  ": 7591,
    ".,  мед": 7592,
    "2)  ": 7593,
    "? Не": 7594,
    "ach": 7595,
    "¬ \n\nВ": 7596,
    "»). ": 7597,
    "Бере": 7598,
    "Галя ": 7599,
    "Дніпром": 7600,
    "Особа": 7601,
    "Потім": 7602,
    "Сто": 7603,
    "Чортомли": 7604,
    "акаде": 7605,
    "бни": 7606,
    "безпо": 7607,
    "бу¬": 7608,
    "валю": 7609,
    "вав, ": 7610,
    "внослов’я": 7611,
    "ві¬": 7612,
    "вість ": 7613,
    "відно": 7614,
    "да»": 7615,
    "далі ": 7616,
    "двері": 7617,
    "дній  ": 7618,
    "другий": 7619,
    "емі": 7620,
    "з при": 7621,
    "зділ  ": 7622,
    "ками. ": 7623,
    "кана": 7624,
    "крити": 7625,
    "ків, а": 7626,
    "ла я": 7627,
    "лковни": 7628,
    "людини  ": 7629,
    "мі  ": 7630,
    "нден": 7631,
    "ний»": 7632,
    "овари": 7633,
    "пез": 7634,
    "пере¬": 7635,
    "предметів": 7636,
    "ри  ": 7637,
    "руше": 7638,
    "рядд": 7639,
    "середи": 7640,
    "сною": 7641,
    "співу": 7642,
    "степ": 7643,
    "ступі": 7644,
    "сур": 7645,
    "тде": 7646,
    "таю": 7647,
    "ти  по": 7648,
    "тися,  -": 7649,
    "тканини": 7650,
    "том  ": 7651,
    "трав’яни": 7652,
    "ть, що ": 7653,
    "тягу": 7654,
    "цем ": 7655,
    "ців, ": 7656,
    "ччи": 7657,
    "чека": 7658,
    "чисто": 7659,
    "шкоди": 7660,
    "ї,  ": 7661,
    "\nМи": 7662,
    " слід": 7663,
    " усього ": 7664,
    " і пере": 7665,
    "  особа": 7666,
    "  сте": 7667,
    " губер": 7668,
    " до нього": 7669,
    " доводилося ": 7670,
    " завжди": 7671,
    " замість": 7672,
    " наближа": 7673,
    " надію": 7674,
    " належа": 7675,
    " на мо": 7676,
    " перебу": 7677,
    " селян": 7678,
    " чини": 7679,
    ", це": 7680,
    ",  -а,  ч.,  к": 7681,
    ",  -ів,  м": 7682,
    ". Кома": 7683,
    ". Фран": 7684,
    ".  2. ": 7685,
    ".  [лат. ": 7686,
    "].  1.  З": 7687,
    "der ": 7688,
    "ischen ": 7689,
    "АФ": 7690,
    "Запорожжі": 7691,
    "КОН": 7692,
    "Ново": 7693,
    "Слу": 7694,
    "аку": 7695,
    "аргород": 7696,
    "брата": 7697,
    "була": 7698,
    "вказу": 7699,
    "вжива": 7700,
    "вичайно": 7701,
    "вузь": 7702,
    "ду й": 7703,
    "діле": 7704,
    "жан": 7705,
    "згада": 7706,
    "йських": 7707,
    "кажчи": 7708,
    "летри": 7709,
    "лица": 7710,
    "лює": 7711,
    "м.  -ці": 7712,
    "мира": 7713,
    "мога": 7714,
    "мовляє": 7715,
    "музе": 7716,
    "на, і": 7717,
    "найм": 7718,
    "нового ": 7719,
    "нів. ": 7720,
    "одну": 7721,
    "опини": 7722,
    "пале": 7723,
    "певних  ": 7724,
    "перше": 7725,
    "писав ": 7726,
    "психо": 7727,
    "річна  ": 7728,
    "своїми ": 7729,
    "сив ": 7730,
    "уди": 7731,
    "форм": 7732,
    "хопив": 7733,
    "чні  ": 7734,
    "чепи": 7735,
    "шве": 7736,
    "ється на ": 7737,
    "інструмент": 7738,
    "\nня  ": 7739,
    " Кра": 7740,
    " вра": 7741,
    " зустрі": 7742,
    " щасли": 7743,
    " яких ": 7744,
    " \n\nД": 7745,
    "  землі": 7746,
    "  і  ви": 7747,
    " верс": 7748,
    " горі": 7749,
    " дух": 7750,
    " мужи": 7751,
    " народов": 7752,
    " науко": 7753,
    " пороз": 7754,
    " розви": 7755,
    " самих": 7756,
    " султан": 7757,
    "(се": 7758,
    ", ку": 7759,
    ",  -а,  ч.,  кл": 7760,
    ",  як": 7761,
    ", нена": 7762,
    ". Те": 7763,
    ".,  кл.  -о,  ": 7764,
    ";  ~6": 7765,
    "III в.": 7766,
    "P. S": 7767,
    "].  Ви": 7768,
    "od": 7769,
    "¬ \n1.  ": 7770,
    "Вона": 7771,
    "Василь\n": 7772,
    "Галі": 7773,
    "К,  -": 7774,
    "Лаговський": 7775,
    "ОСТ": 7776,
    "Прикм. ": 7777,
    "Рогоза": 7778,
    "Семе": 7779,
    "Україну": 7780,
    "а на": 7781,
    "бВ": 7782,
    "без  ": 7783,
    "верхо": 7784,
    "го.\n": 7785,
    "ег  —  ": 7786,
    "жно": 7787,
    "з тих": 7788,
    "з усіх": 7789,
    "ким-": 7790,
    "книжн": 7791,
    "коня": 7792,
    "кому Лузі": 7793,
    "корис": 7794,
    "ло.\n": 7795,
    "луб": 7796,
    "льний ": 7797,
    "містить  ": 7798,
    "н,  ": 7799,
    "нде": 7800,
    "нар": 7801,
    "ний;  ": 7802,
    "нським": 7803,
    "обстави": 7804,
    "ове": 7805,
    "організа": 7806,
    "п  ": 7807,
    "псі": 7808,
    "пе-": 7809,
    "природ": 7810,
    "півден": 7811,
    "рли": 7812,
    "рито": 7813,
    "рон": 7814,
    "рі. ": 7815,
    "сса": 7816,
    "снова": 7817,
    "співа": 7818,
    "ступив": 7819,
    "стільки ": 7820,
    "тля": 7821,
    "тав": 7822,
    "тень": 7823,
    "ти,  -аю,  -ає": 7824,
    "тися в": 7825,
    "тікач": 7826,
    "уса": 7827,
    "ффа": 7828,
    "хму": 7829,
    "хоч ": 7830,
    "чимало ": 7831,
    "юватися": 7832,
    "іть ": 7833,
    "іноді ": 7834,
    "ї по": 7835,
    "’,  ": 7836,
    "\nЯва ": 7837,
    "\nТут": 7838,
    " \nпа": 7839,
    " Якщо": 7840,
    " зверну": 7841,
    " щастя": 7842,
    " – до": 7843,
    "  зага": 7844,
    "  поло": 7845,
    " верст": 7846,
    " добра": 7847,
    " дожи": 7848,
    " до свого ": 7849,
    " записа": 7850,
    " користу": 7851,
    " кошового ": 7852,
    " людей ": 7853,
    " несподіва": 7854,
    " панів": 7855,
    " поетич": 7856,
    " релігі": 7857,
    " тодіш": 7858,
    " хочу": 7859,
    " щирий": 7860,
    ", ди": 7861,
    ", оче": 7862,
    ",  -я,  ч": 7863,
    ",  -і,  ж.,  ор.  -": 7864,
    "188": 7865,
    "¬ що": 7866,
    "Дани": 7867,
    "Кара": 7868,
    "березі": 7869,
    "біли": 7870,
    "ворот": 7871,
    "вік": 7872,
    "гни": 7873,
    "га,": 7874,
    "гідро": 7875,
    "дбува": 7876,
    "дцять ": 7877,
    "ді  ": 7878,
    "значений  для  ": 7879,
    "ира": 7880,
    "ка, і": 7881,
    "ко й": 7882,
    "ко од": 7883,
    "ли од": 7884,
    "ліж": 7885,
    "ліп": 7886,
    "моні": 7887,
    "нову": 7888,
    "оже ": 7889,
    "пече": 7890,
    "продук": 7891,
    "результа": 7892,
    "рослина  ": 7893,
    "со¬ ": 7894,
    "спек": 7895,
    "стий  ": 7896,
    "сукуп": 7897,
    "те.": 7898,
    "темпера": 7899,
    "ти –": 7900,
    "ти... ": 7901,
    "чне  ": 7902,
    "чним": 7903,
    "чав ": 7904,
    "шлюб": 7905,
    "щ,  перех": 7906,
    "явищ": 7907,
    "якихо": 7908,
    "ється.": 7909,
    "ється з": 7910,
    "— одповів": 7911,
    "•  1 ": 7912,
    " Катери": 7913,
    "  одного  ": 7914,
    " Лаговський ": 7915,
    " бал": 7916,
    " бой": 7917,
    " війська ": 7918,
    " газе": 7919,
    " говоря": 7920,
    " династі": 7921,
    " до своєї": 7922,
    " загину": 7923,
    " кожного ": 7924,
    " козацької": 7925,
    " людсь": 7926,
    " навіть і": 7927,
    " не так": 7928,
    " помер": 7929,
    " приста": 7930,
    " північ": 7931,
    " руба": 7932,
    " старих": 7933,
    " так, що ": 7934,
    " того, як": 7935,
    ", а про": 7936,
    ",  -уєш": 7937,
    ". Тепер": 7938,
    ". Ще": 7939,
    ". \n\nП": 7940,
    ".  2.  розм.  ": 7941,
    ";  -ї": 7942,
    "XIII": 7943,
    "des ": 7944,
    "im": 7945,
    "ür": 7946,
    "І08  —  ": 7947,
    "АЖ": 7948,
    "Для": 7949,
    "З  знач.)": 7950,
    "Пиля": 7951,
    "Схо": 7952,
    "Хло": 7953,
    "аль-": 7954,
    "були ": 7955,
    "в тім": 7956,
    "вав ї": 7957,
    "век": 7958,
    "влений  ": 7959,
    "дітей": 7960,
    "зумі": 7961,
    "звук": 7962,
    "и  ": 7963,
    "ймо": 7964,
    "к при": 7965,
    "куре": 7966,
    "культур": 7967,
    "кі  ": 7968,
    "ле ": 7969,
    "ли  ": 7970,
    "лихо": 7971,
    "ль-": 7972,
    "льня": 7973,
    "ль. ": 7974,
    "людину": 7975,
    "магні": 7976,
    "мо, ": 7977,
    "мірно": 7978,
    "нео": 7979,
    "ном, ": 7980,
    "ня. ": 7981,
    "ових": 7982,
    "одної": 7983,
    "орієнта": 7984,
    "охоче": 7985,
    "очере": 7986,
    "па  ": 7987,
    "пала": 7988,
    "рний": 7989,
    "руч ": 7990,
    "рів, ": 7991,
    "сми": 7992,
    "стря": 7993,
    "сим": 7994,
    "ского я": 7995,
    "ского яз": 7996,
    "ского язы": 7997,
    "течі": 7998,
    "тиж": 7999,
    "ть «": 8000,
    "ують  ": 8001,
    "ція  ": 8002,
    "чений  ": 8003,
    "шість": 8004,
    "ілю": 8005,
    " \nабо  ": 8006,
    " \nмо": 8007,
    " «Не": 8008,
    " Сули": 8009,
    " кро": 8010,
    " хре": 8011,
    " іще": 8012,
    "  спору": 8013,
    " до того": 8014,
    " діло": 8015,
    " кошовим": 8016,
    " мові": 8017,
    " молодий": 8018,
    " на Січі": 8019,
    " пише": 8020,
    " розмо": 8021,
    " сонця": 8022,
    " та ви": 8023,
    " тала": 8024,
    ",  -злю": 8025,
    ", щоб за": 8026,
    "-а,  ч.,  кл.  -": 8027,
    "-під": 8028,
    ". Бі": 8029,
    ".  Ди": 8030,
    "ot": 8031,
    "¬ \nти": 8032,
    "Бога": 8033,
    "Горо": 8034,
    "Пили": 8035,
    "ТОР": 8036,
    "Франко": 8037,
    "а далі ": 8038,
    "а саме": 8039,
    "ареш": 8040,
    "ба.": 8041,
    "ближче": 8042,
    "в голо": 8043,
    "в та": 8044,
    "верс": 8045,
    "ви, ": 8046,
    "влади": 8047,
    "гілля": 8048,
    "дис": 8049,
    "ди ж": 8050,
    "дівча": 8051,
    "зма": 8052,
    "капіта": 8053,
    "крес": 8054,
    "кістю": 8055,
    "льного": 8056,
    "мете": 8057,
    "нший": 8058,
    "неч": 8059,
    "нерво": 8060,
    "ноги": 8061,
    "ні. \n": 8062,
    "рну": 8063,
    "рев": 8064,
    "сама": 8065,
    "славно": 8066,
    "стях": 8067,
    "сува": 8068,
    "сьогодні ": 8069,
    "ся на ": 8070,
    "ть..": 8071,
    "ходження": 8072,
    "чка  ": 8073,
    "чував": 8074,
    "шкода": 8075,
    "ща ": 8076,
    "я за": 8077,
    "\nВід": 8078,
    " \nга": 8079,
    " XIV": 8080,
    " Бейру": 8081,
    " Вони": 8082,
    " Лу": 8083,
    " Чого ": 8084,
    " або  ": 8085,
    " автор": 8086,
    " учи": 8087,
    "  організа": 8088,
    " він. –": 8089,
    " десять ": 8090,
    " меж": 8091,
    " місто": 8092,
    " нень": 8093,
    " невелич": 8094,
    " посо": 8095,
    " промі": 8096,
    " сум": 8097,
    " сусі": 8098,
    " сім’ї": 8099,
    " теє": 8100,
    " тов": 8101,
    " тон": 8102,
    " тоді, ": 8103,
    " цього": 8104,
    "(у  2  знач.)": 8105,
    ", хто ": 8106,
    "5  —  ": 8107,
    "8  — \n": 8108,
    ": «О": 8109,
    "; на": 8110,
    "].  1.  У  ": 8111,
    "].  По": 8112,
    "«Народ": 8113,
    "Гнат Гнато": 8114,
    "Далі ": 8115,
    "Знов": 8116,
    "ИР": 8117,
    "Ума": 8118,
    "Хмельницький": 8119,
    "а що": 8120,
    "айда": 8121,
    "біол.  ": 8122,
    "вата": 8123,
    "ван¬ ": 8124,
    "вий.": 8125,
    "вича ": 8126,
    "вниз": 8127,
    "воли": 8128,
    "всь.": 8129,
    "гау": 8130,
    "гину": 8131,
    "глиби": 8132,
    "дбу": 8133,
    "давно": 8134,
    "дерев’я": 8135,
    "дів.": 8136,
    "з-поміж": 8137,
    "збірн.  ": 8138,
    "країни": 8139,
    "кій  міфо": 8140,
    "лла": 8141,
    "ли, як": 8142,
    "мо в": 8143,
    "нення": 8144,
    "ни¬": 8145,
    "ніш ": 8146,
    "овни": 8147,
    "оскві": 8148,
    "обіця": 8149,
    "поті": 8150,
    "православ": 8151,
    "прийня": 8152,
    "рослини": 8153,
    "рувати": 8154,
    "скину": 8155,
    "склика": 8156,
    "серд": 8157,
    "тирь": 8158,
    "ть о": 8159,
    "ться. ": 8160,
    "цьким": 8161,
    "\n- Не": 8162,
    "\nКоза": 8163,
    "\nда": 8164,
    " \nли": 8165,
    " II ": 8166,
    " Вона ": 8167,
    " впа": 8168,
    " змі": 8169,
    " зібра": 8170,
    " р.)": 8171,
    "  [грец.  ": 8172,
    "  із  за": 8173,
    " <|EOS|> ": 8174,
    " боже": 8175,
    " були по": 8176,
    " висла": 8177,
    " все ж": 8178,
    " він на": 8179,
    " добрі": 8180,
    " корон": 8181,
    " мові ": 8182,
    " моря": 8183,
    " назустріч": 8184,
    " особли": 8185,
    " почуття": 8186,
    " праці": 8187,
    " православ": 8188,
    " проте": 8189,
    " пісні ": 8190,
    " роки ": 8191,
    " російської": 8192,
    " чис": 8193,
    ", во": 8194,
    ", мов ": 8195,
    "-а,  -е.  1.  ": 8196,
    ".,  дав.,  м.  -з": 8197,
    "ist": 8198,
    "||А,  -и,  ж": 8199,
    "¬ \n\nН": 8200,
    "», то": 8201,
    "»), ": 8202,
    "Йва": 8203,
    "Півден": 8204,
    "Чорне море": 8205,
    "арха": 8206,
    "вав і": 8207,
    "вди»": 8208,
    "велике": 8209,
    "вий, ": 8210,
    "віш": 8211,
    "відповід": 8212,
    "гетьмана": 8213,
    "гнав": 8214,
    "готу": 8215,
    "дячи": 8216,
    "давно ": 8217,
    "дніх": 8218,
    "дуна": 8219,
    "емле": 8220,
    "живу": 8221,
    "зберег": 8222,
    "зрештою": 8223,
    "карти": 8224,
    "ки, і": 8225,
    "кл.  -е": 8226,
    "ком. ": 8227,
    "ли!": 8228,
    "лози": 8229,
    "льна ": 8230,
    "лю¬": 8231,
    "люва": 8232,
    "ми;  ": 8233,
    "монасти": 8234,
    "мора": 8235,
    "нку ": 8236,
    "ний у": 8237,
    "ним.": 8238,
    "ну в": 8239,
    "ні на ": 8240,
    "ні;": 8241,
    "п.  ": 8242,
    "пес": 8243,
    "пише": 8244,
    "плач": 8245,
    "серта": 8246,
    "сльоз": 8247,
    "сної": 8248,
    "теї": 8249,
    "тирьо": 8250,
    "тоді": 8251,
    "хо¬": 8252,
    "чума": 8253,
    "чес": 8254,
    "чому ": 8255,
    "ший  ": 8256,
    "щення": 8257,
    "ще в": 8258,
    "юрко": 8259,
    "ючий": 8260,
    "є  по": 8261,
    "ід  ": 8262,
    "– ви": 8263,
    "\nТільки ": 8264,
    "\nдля  ": 8265,
    " \nво": 8266,
    " \nло": 8267,
    " два ": 8268,
    " очах": 8269,
    " як ви": 8270,
    " – сказав": 8271,
    "  -": 8272,
    "  опера": 8273,
    "  служ": 8274,
    " Вам ": 8275,
    " Нечай": 8276,
    " він не ": 8277,
    " гото": 8278,
    " дати ": 8279,
    " дору": 8280,
    " захід": 8281,
    " лиц": 8282,
    " особи": 8283,
    " пар": 8284,
    " пересвід": 8285,
    " прийшов": 8286,
    " років": 8287,
    " руки ": 8288,
    " тобі ": 8289,
    " туди": 8290,
    ", тільки ж": 8291,
    ",  -а,  */": 8292,
    ",  -ую,  -уєш": 8293,
    ",  виготовле": 8294,
    ", але й": 8295,
    ", стор. 1": 8296,
    ", щоб у": 8297,
    "-а,  -е.  Прикм.  до  ": 8298,
    ". за": 8299,
    ".  1.  Р": 8300,
    ".  2.  При": 8301,
    ".  2.  У": 8302,
    ";  перен.  ": 8303,
    "].  1.  О": 8304,
    "«за": 8305,
    "«на": 8306,
    "¬ 1.  ": 8307,
    "Істо": 8308,
    "Гордієнко": 8309,
    "Той,  хто  ": 8310,
    "авлю": 8311,
    "байда": 8312,
    "вка": 8313,
    "вати ї": 8314,
    "вся й": 8315,
    "грец. \n": 8316,
    "дним ": 8317,
    "давшись": 8318,
    "ді¬": 8319,
    "жива": 8320,
    "зби": 8321,
    "зміст": 8322,
    "згад": 8323,
    "зовсім ": 8324,
    "ка: ": 8325,
    "кількома": 8326,
    "лля ": 8327,
    "ли з ": 8328,
    "ли її": 8329,
    "людь": 8330,
    "мної  ": 8331,
    "мойло": 8332,
    "нки  ": 8333,
    "ний \n\n": 8334,
    "нок  ": 8335,
    "обри": 8336,
    "обов’яз": 8337,
    "про¬ \n": 8338,
    "рги": 8339,
    "рат": 8340,
    "розум": 8341,
    "селе": 8342,
    "сти,": 8343,
    "твердо": 8344,
    "треба ": 8345,
    "ть, а": 8346,
    "тілося ": 8347,
    "тільки  не": 8348,
    "улей": 8349,
    "Сулей": 8350,
    "усіх": 8351,
    "фонети": 8352,
    "ходо": 8353,
    "чну ": 8354,
    "час¬": 8355,
    "шому": 8356,
    "щем": 8357,
    "як за": 8358,
    "ять": 8359,
    "ється \n": 8360,
    "і  с": 8361,
    "і все": 8362,
    "ість": 8363,
    "\nчи": 8364,
    " Далі": 8365,
    " Запорожжя": 8366,
    " ж до ": 8367,
    " кла": 8368,
    " кров": 8369,
    " стій": 8370,
    " Великого Лугу": 8371,
    " вихо": 8372,
    " доведеться ": 8373,
    " довіда": 8374,
    " за часів ": 8375,
    " крим": 8376,
    " кінці ": 8377,
    " літо": 8378,
    " наші ": 8379,
    " не чу": 8380,
    " поїха": 8381,
    " польське військо": 8382,
    " почала ": 8383,
    " про те,": 8384,
    " проф.": 8385,
    " татари ": 8386,
    " усіє": 8387,
    " цим": 8388,
    " чисто": 8389,
    ", так ": 8390,
    ",  -и,": 8391,
    ",  -уєшся": 8392,
    ",  орга": 8393,
    ", коли я": 8394,
    ", моло": 8395,
    ", напр.,": 8396,
    ". \n\nБ": 8397,
    ".  1.  Н": 8398,
    "; тільки ж": 8399,
    ";  ~я": 8400,
    "XVI ": 8401,
    "Іванін": 8402,
    "Москві": 8403,
    "Павлю": 8404,
    "Систе": 8405,
    "Хто ": 8406,
    "Хмельницького ": 8407,
    "Який  ви": 8408,
    "агі": 8409,
    "бої": 8410,
    "вкраї": 8411,
    "ва.\n": 8412,
    "великого ": 8413,
    "вся і": 8414,
    "вія": 8415,
    "гроші ": 8416,
    "дей  ": 8417,
    "дить ": 8418,
    "ені": 8419,
    "жджа": 8420,
    "зверх": 8421,
    "значення": 8422,
    "кта": 8423,
    "казати ": 8424,
    "кам ": 8425,
    "квітка": 8426,
    "кет": 8427,
    "киї": 8428,
    "клони": 8429,
    "кі, ": 8430,
    "лда": 8431,
    "лав": 8432,
    "лися й": 8433,
    "ліри": 8434,
    "м.  3.  ": 8435,
    "ме ": 8436,
    "молод": 8437,
    "мур": 8438,
    "мів  ": 8439,
    "н. \n\n": 8440,
    "ників ": 8441,
    "нижче ": 8442,
    "ність,  ": 8443,
    "обачивши": 8444,
    "оку ": 8445,
    "ороз": 8446,
    "окопи": 8447,
    "особли": 8448,
    "падок": 8449,
    "ряддя": 8450,
    "світи": 8451,
    "силе": 8452,
    "смаї": 8453,
    "справа": 8454,
    "судно": 8455,
    "сі.": 8456,
    "тного ": 8457,
    "ти, бо": 8458,
    "туз": 8459,
    "тягне": 8460,
    "фана": 8461,
    "ць.": 8462,
    "ці,  ": 8463,
    "ціле": 8464,
    "чному": 8465,
    "чо¬": 8466,
    "шпи": 8467,
    "ють на ": 8468,
    "ють у": 8469,
    " \nго": 8470,
    " Коли": 8471,
    " аби": 8472,
    " всім": 8473,
    "  повітря": 8474,
    "  і т.  і": 8475,
    "  —  за": 8476,
    " був би": 8477,
    " була б": 8478,
    " він о": 8479,
    " деякі": 8480,
    " найбільше ": 8481,
    " помо": 8482,
    " подару": 8483,
    " понад ": 8484,
    " слов’я": 8485,
    " соро": 8486,
    " спини": 8487,
    " через те, що ": 8488,
    ",  -а,  ч.,": 8489,
    ",  -у,  ч.  [нім.  ": 8490,
    ",  -яю,  -я": 8491,
    ",  що  до": 8492,
    ", бо й": 8493,
    ", поки ": 8494,
    ", стор. 2": 8495,
    "-е.  Прикм.  до  ": 8496,
    ".\nВін": 8497,
    ". Ну": 8498,
    "].  За": 8499,
    "].  Ро": 8500,
    "Кулі": 8501,
    "Лобо": 8502,
    "Олексан": 8503,
    "Побачивши": 8504,
    "Року ": 8505,
    "Сама": 8506,
    "Трохим": 8507,
    "а коли ": 8508,
    "ачи": 8509,
    "бого": 8510,
    "вавсь": 8511,
    "ве,": 8512,
    "вністю": 8513,
    "во¬ ": 8514,
    "ги. ": 8515,
    "дбав": 8516,
    "ду.\n": 8517,
    "ж на ": 8518,
    "ження ": 8519,
    "зрі": 8520,
    "зувати": 8521,
    "й,  -а,  -е.  ": 8522,
    "казо": 8523,
    "ли його": 8524,
    "лінгв": 8525,
    "мей": 8526,
    "мети": 8527,
    "ндро": 8528,
    "на  в  ": 8529,
    "ництво": 8530,
    "ння.\n": 8531,
    "ння. \n": 8532,
    "нням.": 8533,
    "ноз": 8534,
    "ня, ": 8535,
    "о ж до ": 8536,
    "Що ж до ": 8537,
    "отде": 8538,
    "правитель": 8539,
    "рецензі": 8540,
    "речовини": 8541,
    "рина": 8542,
    "ряду  ": 8543,
    "ріди": 8544,
    "скру": 8545,
    "свідомо": 8546,
    "ста¬": 8547,
    "страх": 8548,
    "суспіль": 8549,
    "тної": 8550,
    "ть¬ ": 8551,
    "тільки  ": 8552,
    "українофі": 8553,
    "ха,": 8554,
    "хах": 8555,
    "цеві": 8556,
    "ці з": 8557,
    "ції,": 8558,
    "часи": 8559,
    "че, ": 8560,
    "чимало": 8561,
    "чогось ": 8562,
    "шла": 8563,
    "яка  ": 8564,
    "ясно": 8565,
    "іа  —  ": 8566,
    "\nДейнека\n": 8567,
    " \nроз": 8568,
    " Сло": 8569,
    " ін.)": 8570,
    " \n\nК": 8571,
    "  І": 8572,
    "  здійсню": 8573,
    "  сполу": 8574,
    "  інших": 8575,
    " було в": 8576,
    " вісім": 8577,
    " до «": 8578,
    " друкова": 8579,
    " зазначи": 8580,
    " звелів": 8581,
    " козацькі": 8582,
    " краще": 8583,
    " не хоч": 8584,
    " перех": 8585,
    " пісні": 8586,
    " раз у раз": 8587,
    " само ": 8588,
    " старого ": 8589,
    " те,": 8590,
    " теж ": 8591,
    " ще й ": 8592,
    ", ми ": 8593,
    ", і по": 8594,
    ", щоб не ": 8595,
    "-ко": 8596,
    ". Жи": 8597,
    ".  Ста": 8598,
    ".  2.  За": 8599,
    "1-го ": 8600,
    ";  -ський": 8601,
    "? Та": 8602,
    "II в.": 8603,
    "XVIII": 8604,
    "en»": 8605,
    "ib": 8606,
    "um ": 8607,
    "Ісмаї": 8608,
    "Адже": 8609,
    "Великий  ": 8610,
    "ЕНТ": 8611,
    "Мороз": 8612,
    "Орленко\n": 8613,
    "Справ": 8614,
    "Тома": 8615,
    "блів": 8616,
    "боже": 8617,
    "будин": 8618,
    "вода": 8619,
    "вол": 8620,
    "грун": 8621,
    "дне ": 8622,
    "дав.,": 8623,
    "ду і": 8624,
    "забаром": 8625,
    "завтра": 8626,
    "к не ": 8627,
    "кого  —  ": 8628,
    "лет": 8629,
    "лими ": 8630,
    "ли про": 8631,
    "ливо ": 8632,
    "лом.": 8633,
    "мбе": 8634,
    "ме¬ ": 8635,
    "мікро": 8636,
    "на по": 8637,
    "ння,  -я,  с": 8638,
    "нську": 8639,
    "ну. \n": 8640,
    "ніші": 8641,
    "о мною": 8642,
    "поло": 8643,
    "рба": 8644,
    "рога": 8645,
    "рушни": 8646,
    "спере": 8647,
    "скрип": 8648,
    "службу": 8649,
    "стає": 8650,
    "строї": 8651,
    "сті;  ": 8652,
    "тка ": 8653,
    "теп": 8654,
    "тись з": 8655,
    "тіла ": 8656,
    "утро": 8657,
    "хвилин": 8658,
    "шими ": 8659,
    "щею": 8660,
    "– на": 8661,
    "— скри": 8662,
    " \nра": 8663,
    " Голо": 8664,
    " Звенигород": 8665,
    " зеле": 8666,
    " оце": 8667,
    " пло": 8668,
    " уче": 8669,
    " христия": 8670,
    " цари": 8671,
    " я по": 8672,
    " — скри": 8673,
    "  ма": 8674,
    "  обро": 8675,
    "  об¬": 8676,
    " Туапсе": 8677,
    " велику ": 8678,
    " вийшов ": 8679,
    " водою": 8680,
    " допі": 8681,
    " до рук": 8682,
    " запорозьких": 8683,
    " особливо": 8684,
    " пам": 8685,
    " пан Януш": 8686,
    " потре": 8687,
    " поет": 8688,
    " розвід": 8689,
    " рукою": 8690,
    " словни": 8691,
    " соло": 8692,
    " степу": 8693,
    " століття": 8694,
    " тає": 8695,
    " турецької": 8696,
    " цьому ": 8697,
    " часопи": 8698,
    " шляхтич": 8699,
    ",  мн.  ": 8700,
    ",  -аюся": 8701,
    ",  -и,  ж.": 8702,
    ".  3": 8703,
    "8)  —  ": 8704,
    "of": 8705,
    "Власти": 8706,
    "Галага": 8707,
    "Нали": 8708,
    "Правобереж": 8709,
    "Селім": 8710,
    "Яко": 8711,
    "Який \n": 8712,
    "арів": 8713,
    "б’єдна": 8714,
    "в ха": 8715,
    "вко": 8716,
    "ва \n": 8717,
    "вав.": 8718,
    "великий ": 8719,
    "вною": 8720,
    "вогне": 8721,
    "водити  ": 8722,
    "всь на ": 8723,
    "від¬ ": 8724,
    "гадав": 8725,
    "глядач": 8726,
    "гору": 8727,
    "го, а": 8728,
    "дло": 8729,
    "да. ": 8730,
    "дав.,  м": 8731,
    "жити ": 8732,
    "з най": 8733,
    "з ха": 8734,
    "зробле": 8735,
    "зруч": 8736,
    "зброєю": 8737,
    "зветься ": 8738,
    "калі": 8739,
    "кінця": 8740,
    "лиця": 8741,
    "ляр": 8742,
    "лісти": 8743,
    "мент  ": 8744,
    "ндо": 8745,
    "нків": 8746,
    "нше": 8747,
    "на о": 8748,
    "ние ": 8749,
    "ний,  не": 8750,
    "ний о": 8751,
    "ний, \n": 8752,
    "нію": 8753,
    "оже,": 8754,
    "осійсь": 8755,
    "обов’яза": 8756,
    "па¬ ": 8757,
    "південь": 8758,
    "славні": 8759,
    "сльози": 8760,
    "сор": 8761,
    "ства»": 8762,
    "ства, ": 8763,
    "сти.": 8764,
    "тського ": 8765,
    "том.": 8766,
    "тів. ": 8767,
    "уваги": 8768,
    "фотографі": 8769,
    "філософі": 8770,
    "цура": 8771,
    "церкви": 8772,
    "ці»": 8773,
    "ші,": 8774,
    "ювати,  -юю,  -ює": 8775,
    "я на ": 8776,
    "як він": 8777,
    "і  —  ": 8778,
    "іта": 8779,
    "інтерес": 8780,
    " Мілле": 8781,
    " Ото": 8782,
    " Тоді ": 8783,
    " і всі": 8784,
    " \n\nН": 8785,
    "  у  вигляді  ": 8786,
    " бібліоте": 8787,
    " голови": 8788,
    " гуля": 8789,
    " до ха": 8790,
    " здоро": 8791,
    " козаків,": 8792,
    " листа": 8793,
    " мовою ": 8794,
    " мову ": 8795,
    " мохаррем": 8796,
    " міг би": 8797,
    " на ко": 8798,
    " неща": 8799,
    " не смі": 8800,
    " ніби ": 8801,
    " очере": 8802,
    " пара": 8803,
    " праці ": 8804,
    " підда": 8805,
    " руши": 8806,
    " стало ": 8807,
    " четвер": 8808,
    "(не": 8809,
    ",  не  ": 8810,
    ",  -а,  ч.,  кл.  -е.  ": 8811,
    ",  призначе": 8812,
    ",  ч.": 8813,
    ", мовляв,": 8814,
    ", панове": 8815,
    "-е.  1.  ": 8816,
    "-ї,  ж": 8817,
    ". Ві": 8818,
    ". Ду": 8819,
    ".  1.  Ви": 8820,
    ".).": 8821,
    "ad": 8822,
    "est": 8823,
    "¬ \nдо": 8824,
    "¬ \n\nС": 8825,
    "ürk": 8826,
    "Бугу": 8827,
    "ВАТИ": 8828,
    "Війська Запорозь": 8829,
    "Гло": 8830,
    "Гра": 8831,
    "К,  -а,  ч.  ": 8832,
    "Кру": 8833,
    "Хмельницько": 8834,
    "бЛ": 8835,
    "багацько": 8836,
    "ваги": 8837,
    "ва й": 8838,
    "вигля": 8839,
    "вських": 8840,
    "гову": 8841,
    "года": 8842,
    "гом  ": 8843,
    "голосу": 8844,
    "груд": 8845,
    "гурту": 8846,
    "дитя": 8847,
    "ди і": 8848,
    "дії ": 8849,
    "змін": 8850,
    "зник": 8851,
    "й пере": 8852,
    "йти": 8853,
    "квар": 8854,
    "ками  ": 8855,
    "ки за": 8856,
    "ким чи": 8857,
    "кого-,  ": 8858,
    "криста": 8859,
    "лежний  ": 8860,
    "ли собі": 8861,
    "лізм": 8862,
    "млях": 8863,
    "моне": 8864,
    "му з": 8865,
    "музичний  ": 8866,
    "нтер": 8867,
    "на –": 8868,
    "нах ": 8869,
    "ний)": 8870,
    "ний,  -а,  -е.  1.  ": 8871,
    "ним, ": 8872,
    "но пере": 8873,
    "ну о": 8874,
    "нь і": 8875,
    "ніг": 8876,
    "осто": 8877,
    "обидва": 8878,
    "обуре": 8879,
    "пріч": 8880,
    "пута": 8881,
    "разу ж": 8882,
    "руху": 8883,
    "ріж": 8884,
    "ріан": 8885,
    "са  ": 8886,
    "сиро": 8887,
    "сторон": 8888,
    "твій": 8889,
    "тверд": 8890,
    "тепер ": 8891,
    "ти,  ви": 8892,
    "тись на ": 8893,
    "трача": 8894,
    "ть ї": 8895,
    "тя ": 8896,
    "упоряд": 8897,
    "у Великому Лузі": 8898,
    "х по": 8899,
    "чний,  -а,  -е.  ": 8900,
    "шка ": 8901,
    "ючись,": 8902,
    "якої-н.  ": 8903,
    "іра": 8904,
    "їде": 8905,
    "їжджа": 8906,
    "– про": 8907,
    " XIX": 8908,
    " Бра": 8909,
    " Наві": 8910,
    " аж до ": 8911,
    " й за": 8912,
    " стрі": 8913,
    " сюди": 8914,
    " \nщо  ": 8915,
    "  викону": 8916,
    "  за  допомогою  ": 8917,
    "  значення": 8918,
    "  нав": 8919,
    "  одна": 8920,
    " Київ": 8921,
    " всі ": 8922,
    " віді": 8923,
    " декілька ": 8924,
    " для  ": 8925,
    " думку": 8926,
    " живо": 8927,
    " монго": 8928,
    " міст": 8929,
    " пече": 8930,
    " переклада": 8931,
    " полі": 8932,
    " повз": 8933,
    " пісень": 8934,
    " розум": 8935,
    " сад": 8936,
    " самані": 8937,
    " столи": 8938,
    " сьогодні ": 8939,
    " таку": 8940,
    " читач": 8941,
    "! – за": 8942,
    ". II": 8943,
    ". \n\nВ": 8944,
    "; на ": 8945,
    "].  У": 8946,
    "et ": 8947,
    "¬ ро": 8948,
    "ІЧ": 8949,
    "И,  -": 8950,
    "Одна": 8951,
    "Поло": 8952,
    "Римі": 8953,
    "Російсь": 8954,
    "Товари": 8955,
    "азербайджа": 8956,
    "алан": 8957,
    "брав ": 8958,
    "ва (": 8959,
    "варті": 8960,
    "видячки, ": 8961,
    "ворож": 8962,
    "вських ": 8963,
    "грож": 8964,
    "гий  ": 8965,
    "дного  ": 8966,
    "дом,": 8967,
    "етимо": 8968,
    "з того": 8969,
    "зера": 8970,
    "зволе": 8971,
    "к тільки ": 8972,
    "католи": 8973,
    "ки..": 8974,
    "креди": 8975,
    "ласти": 8976,
    "ливе": 8977,
    "лося, ": 8978,
    "мисне": 8979,
    "ми, я": 8980,
    "мінера": 8981,
    "містя": 8982,
    "нча": 8983,
    "ншого ": 8984,
    "нщи": 8985,
    "ну,  ": 8986,
    "обереж": 8987,
    "овгород": 8988,
    "Новгород": 8989,
    "одбува": 8990,
    "окро": 8991,
    "опі": 8992,
    "певній  ": 8993,
    "писах": 8994,
    "при  ": 8995,
    "програ": 8996,
    "раже": 8997,
    "речи": 8998,
    "рного  ": 8999,
    "рська  ": 9000,
    "рів. ": 9001,
    "сигна": 9002,
    "сиз": 9003,
    "сили ": 9004,
    "спини": 9005,
    "сторін": 9006,
    "тюрко": 9007,
    "ташова": 9008,
    "тере": 9009,
    "типу": 9010,
    "тікачі": 9011,
    "фре": 9012,
    "харч": 9013,
    "ходять": 9014,
    "ців  ": 9015,
    "частина ": 9016,
    "чений": 9017,
    "штов": 9018,
    "що  ": 9019,
    "ь  ": 9020,
    "ювати  ": 9021,
    "юриди": 9022,
    "я,  -ї,  ж.  [": 9023,
    "\nСа": 9024,
    " \nдо  ": 9025,
    " Вони ": 9026,
    " гір": 9027,
    " як по": 9028,
    " іще ": 9029,
    "  займа": 9030,
    " 184": 9031,
    " би й": 9032,
    " бій": 9033,
    " віршів": 9034,
    " дозволя": 9035,
    " думає": 9036,
    " коня": 9037,
    " коре": 9038,
    " короля": 9039,
    " морем": 9040,
    " нія": 9041,
    " посила": 9042,
    " пози": 9043,
    " полковника ": 9044,
    " польські": 9045,
    " роди": 9046,
    " рус": 9047,
    " слова ": 9048,
    " талан": 9049,
    " та при": 9050,
    " так само ": 9051,
    " холо": 9052,
    ", про ": 9053,
    ",  -у,  ": 9054,
    ",  -ї,": 9055,
    ", наприклад": 9056,
    ", так що": 9057,
    ", що це": 9058,
    ". Пра": 9059,
    ".  1.  С": 9060,
    ";  в": 9061,
    ";  ~ї": 9062,
    "].  Д": 9063,
    "is ": 9064,
    "¬ \nна  ": 9065,
    "ЕГ": 9066,
    "Замостя": 9067,
    "Крим": 9068,
    "Томаків": 9069,
    "Хафіза": 9070,
    "Який": 9071,
    "а через те": 9072,
    "арешті": 9073,
    "ахар": 9074,
    "або  по": 9075,
    "адміністра": 9076,
    "буде": 9077,
    "вних  ": 9078,
    "вця": 9079,
    "великий": 9080,
    "великі ": 9081,
    "вова": 9082,
    "вісти": 9083,
    "військ": 9084,
    "готовлення  ": 9085,
    "дрів": 9086,
    "дару": 9087,
    "для  по": 9088,
    "жни": 9089,
    "життя ": 9090,
    "знайоми": 9091,
    "ильни": 9092,
    "йми": 9093,
    "керів": 9094,
    "клопота": 9095,
    "ку;": 9096,
    "кім разі": 9097,
    "лая": 9098,
    "лого": 9099,
    "лозі": 9100,
    "матеріалу": 9101,
    "менш,  ": 9102,
    "ми \n": 9103,
    "на;": 9104,
    "не  по": 9105,
    "неш": 9106,
    "них у": 9107,
    "новський": 9108,
    "ному  ": 9109,
    "оп  —  ": 9110,
    "орма": 9111,
    "обороня": 9112,
    "палю": 9113,
    "пен": 9114,
    "певний  ": 9115,
    "пив ": 9116,
    "рейта": 9117,
    "рі  ": 9118,
    "серди": 9119,
    "став ": 9120,
    "стародав": 9121,
    "сть у": 9122,
    "сть. ": 9123,
    "сь,  ": 9124,
    "тного  ": 9125,
    "той,  ": 9126,
    "ть з": 9127,
    "усте": 9128,
    "ухо": 9129,
    "фра": 9130,
    "фа ": 9131,
    "феода": 9132,
    "фігу": 9133,
    "х на ": 9134,
    "хав": 9135,
    "хвороби": 9136,
    "хопле": 9137,
    "ців. ": 9138,
    "чугу": 9139,
    "чути ": 9140,
    "часом": 9141,
    "чою": 9142,
    "чогось.": 9143,
    "шла ": 9144,
    "ш,  перех.": 9145,
    "шкоду": 9146,
    "що-будь": 9147,
    "ясне": 9148,
    "якого-н.  ": 9149,
    "якогось  ": 9150,
    "історію": 9151,
    " \nте": 9152,
    " (за": 9153,
    " Може": 9154,
    " Поль": 9155,
    " а за ": 9156,
    " згоди": 9157,
    " слів": 9158,
    "  р": 9159,
    "  і  т.  ін.,  ": 9160,
    " вель": 9161,
    " даль": 9162,
    " до по": 9163,
    " до своїх": 9164,
    " друго": 9165,
    " знайде": 9166,
    " король": 9167,
    " кур": 9168,
    " наско": 9169,
    " на поміч": 9170,
    " неді": 9171,
    " поряд": 9172,
    " прихильни": 9173,
    " річкою ": 9174,
    " саж": 9175,
    " січови": 9176,
    " такого": 9177,
    " татар ": 9178,
    " те, що": 9179,
    " хоро": 9180,
    " часів ": 9181,
    ", пе": 9182,
    ",  ма": 9183,
    ",  -уюся": 9184,
    ",  а  також  ": 9185,
    ", 192": 9186,
    ".  2.  М": 9187,
    ". Тим": 9188,
    "3-го ": 9189,
    ";  про": 9190,
    "].  Л": 9191,
    "¬ \nпри": 9192,
    "¬ \nта": 9193,
    "ІІІ": 9194,
    "Аста": 9195,
    "ДА,  -и,  ж": 9196,
    "Захар": 9197,
    "ИЛ": 9198,
    "КАР": 9199,
    "Отак": 9200,
    "Спасибі": 9201,
    "Який  стос,": 9202,
    "автори": 9203,
    "аналіз": 9204,
    "в собі": 9205,
    "вав на ": 9206,
    "вали.": 9207,
    "ватий": 9208,
    "вах ": 9209,
    "вдач": 9210,
    "ворогів": 9211,
    "вчини": 9212,
    "віру": 9213,
    "від ": 9214,
    "глядів": 9215,
    "дби": 9216,
    "дні  ": 9217,
    "де¬": 9218,
    "ди.\n": 9219,
    "зира": 9220,
    "зова": 9221,
    "к,  -": 9222,
    "ката": 9223,
    "ки о": 9224,
    "книжн.  ": 9225,
    "князів": 9226,
    "колю": 9227,
    "ків. \n": 9228,
    "лком ": 9229,
    "ла вона ": 9230,
    "ли: ": 9231,
    "лом,": 9232,
    "льй": 9233,
    "льних ": 9234,
    "льє": 9235,
    "мало ": 9236,
    "ми..": 9237,
    "моз": 9238,
    "мовляв": 9239,
    "на, \n": 9240,
    "ння і": 9241,
    "ном  ": 9242,
    "но роз": 9243,
    "ні у": 9244,
    "нім ": 9245,
    "осеред": 9246,
    "оберну": 9247,
    "пое": 9248,
    "пора": 9249,
    "почи": 9250,
    "приро": 9251,
    "розпо": 9252,
    "с,  ": 9253,
    "сии": 9254,
    "скою": 9255,
    "слово ": 9256,
    "сягне": 9257,
    "сію": 9258,
    "тка  ": 9259,
    "твою": 9260,
    "те в": 9261,
    "тності": 9262,
    "том,": 9263,
    "ть»": 9264,
    "усла": 9265,
    "фін": 9266,
    "хаз": 9267,
    "ходили ": 9268,
    "ць, ": 9269,
    "чне ": 9270,
    "чогось;  ": 9271,
    "ючи, що ": 9272,
    "я на": 9273,
    "\nПе": 9274,
    "\nТак": 9275,
    " 1  •  ": 9276,
    " Воло": 9277,
    " Химчен": 9278,
    " кру": 9279,
    " студен": 9280,
    "  родини  ": 9281,
    "  по  ": 9282,
    "  тощо.": 9283,
    " Києві": 9284,
    " Петру": 9285,
    " Сама": 9286,
    " балака": 9287,
    " вез": 9288,
    " дає": 9289,
    " династії": 9290,
    " західно": 9291,
    " камі": 9292,
    " наме": 9293,
    " навіть у": 9294,
    " новіт": 9295,
    " паруб": 9296,
    " покла": 9297,
    " се ": 9298,
    " середи": 9299,
    " твої": 9300,
    " ход": 9301,
    " церкви": 9302,
    " що в": 9303,
    " якийсь ": 9304,
    ", вони": 9305,
    ", через": 9306,
    ", яке": 9307,
    ",  -у,  ч. ": 9308,
    ",  невідм.,  ч": 9309,
    ", що коли ": 9310,
    "-наме": 9311,
    ". ти": 9312,
    ". у  ": 9313,
    ".  І.  ": 9314,
    ".,  спец": 9315,
    "0 коп.": 9316,
    ";  до": 9317,
    "ig": 9318,
    "ung": 9319,
    "¬ за": 9320,
    "¬ ко": 9321,
    "¬ \n\nБ": 9322,
    "АПОР": 9323,
    "Бара": 9324,
    "Верх": 9325,
    "Гетьман": 9326,
    "Д. Грінчен": 9327,
    " Д. Грінчен": 9328,
    ". Д. Грінчен": 9329,
    "Б. Д. Грінчен": 9330,
    "Дуже ": 9331,
    "Заха": 9332,
    "Нарешті": 9333,
    "ОЖ": 9334,
    "ОК,  -": 9335,
    "Пари": 9336,
    "аді": 9337,
    "акси": 9338,
    "алек": 9339,
    "байра": 9340,
    "би, ": 9341,
    "бували ": 9342,
    "більшо": 9343,
    "втіх": 9344,
    "ві і": 9345,
    "гетьман ": 9346,
    "дних ": 9347,
    "дній ": 9348,
    "збуду": 9349,
    "кчем": 9350,
    "ке,": 9351,
    "ки, по": 9352,
    "князя ": 9353,
    "колиш": 9354,
    "л[": 9355,
    "ладу": 9356,
    "лася, ": 9357,
    "лось ": 9358,
    "лів, ": 9359,
    "мн.,  ": 9360,
    "ма, ": 9361,
    "мо¬ ": 9362,
    "на  для  ": 9363,
    "на Пи": 9364,
    "ника ": 9365,
    "но на ": 9366,
    "нося": 9367,
    "но і": 9368,
    "ній,": 9369,
    "оба": 9370,
    "обма": 9371,
    "обоз": 9372,
    "пы": 9373,
    "пеціаль": 9374,
    "питу": 9375,
    "площи": 9376,
    "практи": 9377,
    "при¬ \n": 9378,
    "пів ": 9379,
    "радика": 9380,
    "рези": 9381,
    "робництва": 9382,
    "рях": 9383,
    "рідини": 9384,
    "сва": 9385,
    "сила ": 9386,
    "сках": 9387,
    "солод": 9388,
    "сіе": 9389,
    "тже ": 9390,
    "те!": 9391,
    "ти (": 9392,
    "ти і ": 9393,
    "тор.": 9394,
    "ть...": 9395,
    "ть: ": 9396,
    "тягну": 9397,
    "тільки  недок": 9398,
    "ування,  -я,  с": 9399,
    "української": 9400,
    "хильни": 9401,
    "цих": 9402,
    "ці і": 9403,
    "чіпа": 9404,
    "че.": 9405,
    "чих  ": 9406,
    "шіраз": 9407,
    "якими ": 9408,
    "є \n\n": 9409,
    "єре": 9410,
    "ється \n\n": 9411,
    "ів,  ": 9412,
    "іга": 9413,
    "інститу": 9414,
    "\nри": 9415,
    " \nди": 9416,
    " - сказав": 9417,
    " 22": 9418,
    " der ": 9419,
    " А що": 9420,
    " Москві": 9421,
    " Треба": 9422,
    " глуз": 9423,
    " ня  ": 9424,
    " окрім": 9425,
    " французь": 9426,
    " \n\nБ": 9427,
    " \n\nР": 9428,
    "  —  ви": 9429,
    " Вер": 9430,
    " Військо Запорозьке": 9431,
    " будьте ласка": 9432,
    " вже й": 9433,
    " видко": 9434,
    " віч": 9435,
    " гори": 9436,
    " день ": 9437,
    " забра": 9438,
    " зазна": 9439,
    " корот": 9440,
    " лежить ": 9441,
    " лица": 9442,
    " малю": 9443,
    " матеріал": 9444,
    " молодих": 9445,
    " нада": 9446,
    " не хотів": 9447,
    " пана ": 9448,
    " політич": 9449,
    " прийня": 9450,
    " серди": 9451,
    " такою": 9452,
    " та К": 9453,
    " таєм": 9454,
    " тисячі": 9455,
    " час ": 9456,
    "+  грец.  ": 9457,
    ",  до  ": 9458,
    ",  -5Ш": 9459,
    ",  як  ": 9460,
    ".  2.  Не": 9461,
    ".),": 9462,
    ";  ~й": 9463,
    "ant": 9464,
    "«Ве": 9465,
    "Ара": 9466,
    "Гре": 9467,
    "Землі": 9468,
    "Оце": 9469,
    "Перша  частина  склад": 9470,
    "Сулеймана Пи": 9471,
    "Щодо": 9472,
    "будова": 9473,
    "в нас": 9474,
    "вському": 9475,
    "ванням  ": 9476,
    "вання Січі": 9477,
    "вельмож": 9478,
    "вими  ": 9479,
    "вного": 9480,
    "вог": 9481,
    "вості": 9482,
    "вського.": 9483,
    "ві.\n": 9484,
    "д,  ": 9485,
    "дета": 9486,
    "ду на ": 9487,
    "ділу": 9488,
    "ді. ": 9489,
    "емлях": 9490,
    "жалі": 9491,
    "зерка": 9492,
    "йчен": 9493,
    "айчен": 9494,
    "Чайчен": 9495,
    "йдуж": 9496,
    "ка на ": 9497,
    "кая": 9498,
    "ковий  ": 9499,
    "ку»": 9500,
    "ку мову ": 9501,
    "лга": 9502,
    "лекси": 9503,
    "міща": 9504,
    "нка, ": 9505,
    "ни \n": 9506,
    "ння;  ": 9507,
    "ння  в  ": 9508,
    "нок.": 9509,
    "ність, ": 9510,
    "пезу": 9511,
    "принци": 9512,
    "прямова": 9513,
    "під¬": 9514,
    "риб": 9515,
    "рною": 9516,
    "славного ": 9517,
    "слугову": 9518,
    "тків": 9519,
    "тмо": 9520,
    "тю  ": 9521,
    "та з": 9522,
    "ти ж": 9523,
    "у,  ч": 9524,
    "українських": 9525,
    "хазя": 9526,
    "хоплю": 9527,
    "як на": 9528,
    "ється до ": 9529,
    "і тільки ": 9530,
    "– не": 9531,
    "\nТепер": 9532,
    " \nни": 9533,
    " (на": 9534,
    " Б. Д. Грінчен": 9535,
    " Семе": 9536,
    " осма": 9537,
    "  обер": 9538,
    "  і  за": 9539,
    "  і  по": 9540,
    "  іде": 9541,
    " Андрій": 9542,
    " Вишне": 9543,
    " баш": 9544,
    " він ї": 9545,
    " господар": 9546,
    " дід": 9547,
    " жар": 9548,
    " живу": 9549,
    " життя ": 9550,
    " зараз же": 9551,
    " копій": 9552,
    " менше": 9553,
    " намага": 9554,
    " народної": 9555,
    " росія": 9556,
    " статті": 9557,
    " та  ": 9558,
    " та і": 9559,
    " фак": 9560,
    " ще не ": 9561,
    ", бра": 9562,
    ", ми": 9563,
    ",  -а,  ч.,  кл.  -е  [лат.  ": 9564,
    ",  ви¬": 9565,
    ",  щоб": 9566,
    ", наче ": 9567,
    ", що були ": 9568,
    ", що про": 9569,
    ". 2.  ": 9570,
    "1)  ": 9571,
    "; коли ж": 9572,
    "P. S.": 9573,
    "XVII": 9574,
    "ische": 9575,
    "§08  —  ": 9576,
    "«Народу»": 9577,
    "¬ \nне": 9578,
    "Європі": 9579,
    "Ісха": 9580,
    "Алі": 9581,
    "АЛІ": 9582,
    "ВИЙ,  -а,  -е.  ": 9583,
    "НИЙ,  -а,  -е.  1.  ": 9584,
    "Чоло": 9585,
    "аж до": 9586,
    "брі": 9587,
    "білору": 9588,
    "в ній": 9589,
    "вмер": 9590,
    "вців": 9591,
    "важно ": 9592,
    "вень": 9593,
    "вним  ": 9594,
    "вно,": 9595,
    "вно-": 9596,
    "вподо": 9597,
    "всякі ": 9598,
    "ву.\n": 9599,
    "відомо": 9600,
    "віря": 9601,
    "га.": 9602,
    "гота": 9603,
    "гідь": 9604,
    "дказав": 9605,
    "дай": 9606,
    "дав.,  м.": 9607,
    "дом  ": 9608,
    "думу": 9609,
    "економі": 9610,
    "землях": 9611,
    "й до ": 9612,
    "кне": 9613,
    "кса": 9614,
    "ка..": 9615,
    "ках, ": 9616,
    "кий.": 9617,
    "ковий": 9618,
    "кого-н": 9619,
    "краз": 9620,
    "крові": 9621,
    "лив ": 9622,
    "льну ": 9623,
    "льному": 9624,
    "менше ": 9625,
    "мусульма": 9626,
    "міром, ": 9627,
    "на..": 9628,
    "ни»": 9629,
    "ники ": 9630,
    "ни в": 9631,
    "нору": 9632,
    "пана ": 9633,
    "певну  ": 9634,
    "полі": 9635,
    "пруже": 9636,
    "рай": 9637,
    "разок": 9638,
    "ргиз": 9639,
    "редак": 9640,
    "ром  ": 9641,
    "роз¬ ": 9642,
    "рядок": 9643,
    "сел": 9644,
    "соп": 9645,
    "ступає": 9646,
    "сть і": 9647,
    "стяга": 9648,
    "сь по": 9649,
    "сіє": 9650,
    "тних": 9651,
    "також": 9652,
    "талан": 9653,
    "термі": 9654,
    "ти при": 9655,
    "тою ": 9656,
    "тям": 9657,
    "цим": 9658,
    "ці)": 9659,
    "частини": 9660,
    "чить ": 9661,
    "чий ": 9662,
    "числен": 9663,
    "чоловік": 9664,
    "я вже": 9665,
    "інки": 9666,
    "інший": 9667,
    "\nВсі": 9668,
    " Іван": 9669,
    " Добре": 9670,
    " з того ": 9671,
    " одна ": 9672,
    " осві": 9673,
    " єсть ": 9674,
    " \n\nГ": 9675,
    "  ст.": 9676,
    " Вас ": 9677,
    " Чиги": 9678,
    " визнача": 9679,
    " вимо": 9680,
    " відповідь": 9681,
    " довгі": 9682,
    " завда": 9683,
    " завсі": 9684,
    " задля ": 9685,
    " завтра": 9686,
    " зветься ": 9687,
    " любий": 9688,
    " на Україну": 9689,
    " написати ": 9690,
    " нашій": 9691,
    " не раз": 9692,
    " пару": 9693,
    " помилок": 9694,
    " проз": 9695,
    " пісе": 9696,
    " тоді, коли ": 9697,
    " чека": 9698,
    " ще в": 9699,
    " що-небудь": 9700,
    "! Чи": 9701,
    "(Ви": 9702,
    "(при": 9703,
    ",  перен.  ": 9704,
    ",  -ю,  ч": 9705,
    ", 185": 9706,
    ", ніби ": 9707,
    ", та тільки ": 9708,
    "-па": 9709,
    ".\nАле": 9710,
    ".  1 ": 9711,
    ".  1. ": 9712,
    ".,  дав.,  м.  -зі": 9713,
    "177": 9714,
    "8  — ": 9715,
    "ag": 9716,
    "and": 9717,
    "«Просві": 9718,
    "Балан": 9719,
    "Бачи": 9720,
    "Богдан": 9721,
    "Макси": 9722,
    "Німе": 9723,
    "бак": 9724,
    "бах": 9725,
    "ба, ": 9726,
    "бог": 9727,
    "верст": 9728,
    "вські ": 9729,
    "вся за ": 9730,
    "вувати": 9731,
    "газе": 9732,
    "губер": 9733,
    "диниця": 9734,
    "дному ": 9735,
    "дола": 9736,
    "дуть": 9737,
    "дійшов": 9738,
    "жа ": 9739,
    "жає": 9740,
    "з другого ": 9741,
    "з не": 9742,
    "здобич": 9743,
    "здобле": 9744,
    "здов": 9745,
    "знак": 9746,
    "зна¬ ": 9747,
    "з’яви": 9748,
    "й, по": 9749,
    "к же": 9750,
    "к стій": 9751,
    "ка по": 9752,
    "ка! ": 9753,
    "кинув": 9754,
    "корот": 9755,
    "ку в": 9756,
    "лива ": 9757,
    "льно,": 9758,
    "лю,": 9759,
    "людей  ": 9760,
    "лів.": 9761,
    "лінгв.  ": 9762,
    "мате": 9763,
    "мом ": 9764,
    "міні": 9765,
    "мі¬ ": 9766,
    "нний  ": 9767,
    "на на ": 9768,
    "на! ": 9769,
    "но в ": 9770,
    "ні були ": 9771,
    "німи ": 9772,
    "нічно": 9773,
    "о Б. Д. Грінчен": 9774,
    "До Б. Д. Грінчен": 9775,
    " До Б. Д. Грінчен": 9776,
    ". До Б. Д. Грінчен": 9777,
    "опові": 9778,
    "плек": 9779,
    "плеч": 9780,
    "повне": 9781,
    "праці": 9782,
    "престо": 9783,
    "прибу": 9784,
    "рків": 9785,
    "рас": 9786,
    "реєстро": 9787,
    "робити  ": 9788,
    "рука": 9789,
    "смерть": 9790,
    "ства. ": 9791,
    "ступо": 9792,
    "сьогодні": 9793,
    "ся. ": 9794,
    "тексту": 9795,
    "тих  ": 9796,
    "ти мені ": 9797,
    "ти, але": 9798,
    "тирьох": 9799,
    "тись,": 9800,
    "три ": 9801,
    "у Льво": 9802,
    "формі": 9803,
    "фортец": 9804,
    "філологі": 9805,
    "ха.": 9806,
    "хам": 9807,
    "цями ": 9808,
    "цікави": 9809,
    "ча,": 9810,
    "шому ": 9811,
    "ють і": 9812,
    "я був": 9813,
    "євну": 9814,
    "і для": 9815,
    "і ста": 9816,
    "— на ": 9817,
    "\nБі": 9818,
    " Кода": 9819,
    " Корсу": 9820,
    " Сте": 9821,
    " м’я": 9822,
    " і через те": 9823,
    "  і т .  ін.  ": 9824,
    "  і т .  ін. ": 9825,
    " володі": 9826,
    " відомий": 9827,
    " він до ": 9828,
    " за те, що ": 9829,
    " загально": 9830,
    " кобза": 9831,
    " коме": 9832,
    " кохання": 9833,
    " мав ": 9834,
    " не зміг": 9835,
    " ніякої": 9836,
    " нічого не ": 9837,
    " обозре": 9838,
    " пани": 9839,
    " поперед": 9840,
    " пото": 9841,
    " себто": 9842,
    " та й по": 9843,
    " точ": 9844,
    " тутеш": 9845,
    " цілком": 9846,
    "(перев.  ": 9847,
    ",  -а,  ч.  [нім.  ": 9848,
    ",  -а,  ч.,  кл.": 9849,
    ",  -я,  ч.,  кл.  -ю": 9850,
    ", ба ": 9851,
    ", то в": 9852,
    ".  2.  перем.  ": 9853,
    ".  Роз": 9854,
    ".,  спец.  ": 9855,
    ".,  кл.  -е": 9856,
    "2-го ": 9857,
    "«Ди": 9858,
    "Єванге": 9859,
    "ІЯ,  -ї,  ж.  [грец.  ": 9860,
    "АТИ,  -аю,  -ає": 9861,
    "Абу-Ісха": 9862,
    "Академії": 9863,
    "Буко": 9864,
    "Гля": 9865,
    "Дейнека\n": 9866,
    "ЕЦЬ,  -": 9867,
    "Зрештою": 9868,
    "Каль": 9869,
    "Коло": 9870,
    "Сього": 9871,
    "Форма": 9872,
    "ада": 9873,
    "аря ": 9874,
    "аристо": 9875,
    "близько": 9876,
    "вряту": 9877,
    "велика ": 9878,
    "вій  ": 9879,
    "ві, а": 9880,
    "давньогрець": 9881,
    "для  за": 9882,
    "душі": 9883,
    "ду з": 9884,
    "дін": 9885,
    "жу,  -": 9886,
    "жінка": 9887,
    "злі": 9888,
    "залеж": 9889,
    "здовж": 9890,
    "ками й": 9891,
    "коїв": 9892,
    "ку,  ": 9893,
    "кумент": 9894,
    "кущ": 9895,
    "кінчи": 9896,
    "ла, а": 9897,
    "лася до ": 9898,
    "льною  ": 9899,
    "мир": 9900,
    "на, я": 9901,
    "ний з": 9902,
    "но у": 9903,
    "ном. ": 9904,
    "нський  ": 9905,
    "нської  ": 9906,
    "нуд": 9907,
    "ні, я": 9908,
    "овий": 9909,
    "одно ": 9910,
    "отля": 9911,
    "пня": 9912,
    "повс": 9913,
    "повсю": 9914,
    "правда,": 9915,
    "пред¬": 9916,
    "ражає  ": 9917,
    "рити ": 9918,
    "робити": 9919,
    "розм. ": 9920,
    "рібля": 9921,
    "са,": 9922,
    "си.": 9923,
    "сина": 9924,
    "ско-": 9925,
    "стой": 9926,
    "сучас": 9927,
    "сь \n": 9928,
    "ського. ": 9929,
    "ською ": 9930,
    "телі": 9931,
    "ти¬": 9932,
    "ти й ": 9933,
    "тим ": 9934,
    "тку  ": 9935,
    "тьма": 9936,
    "тів,  ": 9937,
    "у  з": 9938,
    "что": 9939,
    "час ": 9940,
    "чому-н": 9941,
    "чужих": 9942,
    "ята": 9943,
    "є  з": 9944,
    "ємо ": 9945,
    "європей": 9946,
    "івни": 9947,
    "– Ви": 9948,
    "– Це": 9949,
    "\nми": 9950,
    "\nних  ": 9951,
    " \nВи": 9952,
    " III": 9953,
    " Росі": 9954,
    " глибо": 9955,
    " слав": 9956,
    "  (прот.  ": 9957,
    "  однієї  ": 9958,
    "  інструмен": 9959,
    " величез": 9960,
    " видав": 9961,
    " війни": 9962,
    " давно ": 9963,
    " заку": 9964,
    " карти": 9965,
    " като": 9966,
    " край": 9967,
    " матір": 9968,
    " мову": 9969,
    " місцях": 9970,
    " не хочу": 9971,
    " неволі": 9972,
    " незалеж": 9973,
    " плавні": 9974,
    " привіта": 9975,
    " сей": 9976,
    " тихо": 9977,
    " тої": 9978,
    " тоді, я": 9979,
    " характери": 9980,
    " щоден": 9981,
    ",  -з^": 9982,
    ",  який": 9983,
    ", 191": 9984,
    ", ніж у": 9985,
    ". А втім": 9986,
    ". Павли": 9987,
    ". \n\n\n\n1 ": 9988,
    ".  3.  З": 9989,
    "^^": 9990,
    "ab": 9991,
    "¬ у  ": 9992,
    "Для ": 9993,
    "Добро": 9994,
    "Драгоманова": 9995,
    "Котля": 9996,
    "Окрім": 9997,
    "Париж": 9998,
    "Старовин": 9999
  },
  "merges": [
    [
      " ",
      " "
    ],
    [
      "н",
      "а"
    ],
    [
      ",",
      "  "
    ],
    [
      "р",
      "о"
    ],
    [
      ".",
      "  "
    ],
    [
      "т",
      "и"
    ],
    [
      "к",
      "о"
    ],
    [
      "п",
      "о"
    ],
    [
      "г",
      "о"
    ],
    [
      "н",
      "и"
    ],
    [
      "т",
      "а"
    ],
    [
      "в",
      "а"
    ],
    [
      "л",
      "и"
    ],
    [
      "р",
      "а"
    ],
    [
      "н",
      "е"
    ],
    [
      "н",
      "о"
    ],
    [
      "в",
      "і"
    ],
    [
      "к",
      "и"
    ],
    [
      "т",
      "о"
    ],
    [
      "з",
      "а"
    ],
    [
      "в",
      "и"
    ],
    [
      "н",
      "і"
    ],
    [
      "р",
      "е"
    ],
    [
      "к",
      "а"
    ],
    [
      "в",
      "о"
    ],
    [
      "р",
      "и"
    ],
    [
      "с",
      "ь"
    ],
    [
      "д",
      "о"
    ],
    [
      " ",
      "на"
    ],
    [
      "л",
      "о"
    ],
    [
      "т",
      "ь"
    ],
    [
      " ",
      "по"
    ],
    [
      "л",
      "а"
    ],
    [
      "с",
      "я"
    ],
    [
      "щ",
      "о"
    ],
    [
      "м",
      "а"
    ],
    [
      "л",
      "ь"
    ],
    [
      "д",
      "а"
    ],
    [
      "м",
      "о"
    ],
    [
      " ",
      "не"
    ],
    [
      "т",
      "е"
    ],
    [
      "м",
      "и"
    ],
    [
      "п",
      "е"
    ],
    [
      "н",
      "я"
    ],
    [
      "р",
      "і"
    ],
    [
      "л",
      "я"
    ],
    [
      " ",
      "за"
    ],
    [
      "ч",
      "и"
    ],
    [
      ",  ",
      "-"
    ],
    [
      "д",
      "и"
    ],
    [
      "л",
      "і"
    ],
    [
      "го",
      " "
    ],
    [
      "к",
      "у"
    ],
    [
      "т",
      "і"
    ],
    [
      "б",
      "у"
    ],
    [
      "м",
      "і"
    ],
    [
      "р",
      "у"
    ],
    [
      "к",
      "і"
    ],
    [
      " ",
      "що"
    ],
    [
      " ",
      "до"
    ],
    [
      " ",
      "та"
    ],
    [
      "л",
      "е"
    ],
    [
      "б",
      "о"
    ],
    [
      "ц",
      "і"
    ],
    [
      "м",
      "е"
    ],
    [
      "д",
      "і"
    ],
    [
      "г",
      "а"
    ],
    [
      "м",
      "у"
    ],
    [
      "в",
      "е"
    ],
    [
      "п",
      "ро"
    ],
    [
      "п",
      "і"
    ],
    [
      "н",
      "ня"
    ],
    [
      "н",
      "у"
    ],
    [
      "ч",
      "а"
    ],
    [
      ",",
      " що"
    ],
    [
      "д",
      "е"
    ],
    [
      "ти",
      " "
    ],
    [
      "ж",
      "е"
    ],
    [
      "\n",
      "\n"
    ],
    [
      " на",
      " "
    ],
    [
      "т",
      "у"
    ],
    [
      "д",
      "у"
    ],
    [
      "с",
      "і"
    ],
    [
      "б",
      "а"
    ],
    [
      " не",
      " "
    ],
    [
      ";",
      "  "
    ],
    [
      "п",
      "а"
    ],
    [
      " ",
      "ко"
    ],
    [
      " ",
      "ві"
    ],
    [
      "ч",
      "е"
    ],
    [
      "й",
      "  "
    ],
    [
      "с",
      "та"
    ],
    [
      "п",
      "ри"
    ],
    [
      "ли",
      " "
    ],
    [
      "ся",
      " "
    ],
    [
      "с",
      "а"
    ],
    [
      "х",
      "о"
    ],
    [
      " ",
      "\n\n"
    ],
    [
      "б",
      "і"
    ],
    [
      "пе",
      "ре"
    ],
    [
      "с",
      "о"
    ],
    [
      "с",
      "е"
    ],
    [
      " ",
      "то"
    ],
    [
      "с",
      "и"
    ],
    [
      "п",
      "и"
    ],
    [
      "л",
      "ю"
    ],
    [
      " ",
      "бу"
    ],
    [
      " ",
      "ви"
    ],
    [
      "б",
      "и"
    ],
    [
      "ро",
      "з"
    ],
    [
      "ш",
      "и"
    ],
    [
      "н",
      "ь"
    ],
    [
      " ",
      "мо"
    ],
    [
      "ть",
      " "
    ],
    [
      "с",
      "то"
    ],
    [
      "сь",
      "ко"
    ],
    [
      "б",
      "е"
    ],
    [
      " ",
      "про"
    ],
    [
      ", що",
      " "
    ],
    [
      "ни",
      "й"
    ],
    [
      "ц",
      "ь"
    ],
    [
      "  ",
      "з"
    ],
    [
      "ки",
      " "
    ],
    [
      "с",
      "у"
    ],
    [
      "х",
      "а"
    ],
    [
      "ні",
      " "
    ],
    [
      "ч",
      "о"
    ],
    [
      "ки",
      "й"
    ],
    [
      "ц",
      "е"
    ],
    [
      "в",
      "у"
    ],
    [
      " до",
      " "
    ],
    [
      "ни",
      "х"
    ],
    [
      "на",
      " "
    ],
    [
      "с",
      "ти"
    ],
    [
      "на",
      "  "
    ],
    [
      ".",
      ",  "
    ],
    [
      " та",
      " "
    ],
    [
      "ж",
      "и"
    ],
    [
      ",  -",
      "а"
    ],
    [
      "п",
      "ра"
    ],
    [
      "ш",
      "е"
    ],
    [
      "щ",
      "е"
    ],
    [
      "л",
      "у"
    ],
    [
      " ",
      "пі"
    ],
    [
      "  ",
      "і"
    ],
    [
      "  ",
      "—"
    ],
    [
      "ми",
      " "
    ],
    [
      "о",
      "го "
    ],
    [
      "с",
      "во"
    ],
    [
      "к",
      "ра"
    ],
    [
      ",  ",
      "ч"
    ],
    [
      "р",
      "я"
    ],
    [
      "з",
      "на"
    ],
    [
      " ",
      "при"
    ],
    [
      "ж",
      "а"
    ],
    [
      "ва",
      "ти"
    ],
    [
      " ",
      "во"
    ],
    [
      "т",
      "я"
    ],
    [
      "2",
      ".  "
    ],
    [
      "г",
      "у"
    ],
    [
      "  ",
      "о"
    ],
    [
      "кі",
      "в"
    ],
    [
      "ла",
      " "
    ],
    [
      "г",
      "і"
    ],
    [
      "с",
      "ті"
    ],
    [
      "1",
      ".  "
    ],
    [
      "ка",
      " "
    ],
    [
      " ",
      "те"
    ],
    [
      "же",
      " "
    ],
    [
      "ві",
      "д"
    ],
    [
      "ть",
      "ся"
    ],
    [
      " ві",
      "н"
    ],
    [
      "ки",
      "х"
    ],
    [
      "д",
      "ля"
    ],
    [
      "к",
      "е"
    ],
    [
      "му",
      " "
    ],
    [
      "ло",
      " "
    ],
    [
      "  ",
      "с"
    ],
    [
      "ку",
      " "
    ],
    [
      "а",
      "бо"
    ],
    [
      ";  ",
      "-"
    ],
    [
      ".  ",
      "2.  "
    ],
    [
      "ра",
      "з"
    ],
    [
      ".  ",
      "1.  "
    ],
    [
      "в",
      "  "
    ],
    [
      "ц",
      "я"
    ],
    [
      " ",
      "ма"
    ],
    [
      "ння",
      "  "
    ],
    [
      "  —",
      "  "
    ],
    [
      "ни",
      "й  "
    ],
    [
      "сь",
      " "
    ],
    [
      "ш",
      "а"
    ],
    [
      "у",
      "  "
    ],
    [
      "да",
      "в"
    ],
    [
      " ",
      "бо"
    ],
    [
      "но",
      " "
    ],
    [
      "ве",
      "р"
    ],
    [
      ".  ",
      "["
    ],
    [
      "го",
      "  "
    ],
    [
      "г",
      "е"
    ],
    [
      "ю",
      "чи"
    ],
    [
      "’",
      "я"
    ],
    [
      "к",
      "ла"
    ],
    [
      " ",
      "пере"
    ],
    [
      "м",
      ".  "
    ],
    [
      " ",
      "го"
    ],
    [
      "ї",
      "  "
    ],
    [
      ",  ",
      "що"
    ],
    [
      " ",
      "са"
    ],
    [
      "кра",
      "ї"
    ],
    [
      "г",
      "и"
    ],
    [
      " ",
      "ме"
    ],
    [
      "пе",
      "р"
    ],
    [
      " ",
      "сво"
    ],
    [
      "т",
      "во"
    ],
    [
      " ",
      "ро"
    ],
    [
      "ф",
      "і"
    ],
    [
      "т",
      "ра"
    ],
    [
      " ",
      "де"
    ],
    [
      "с",
      "ть"
    ],
    [
      ",  ",
      "ж"
    ],
    [
      "  ",
      "по"
    ],
    [
      " ",
      "ду"
    ],
    [
      " ко",
      "за"
    ],
    [
      "ш",
      "і"
    ],
    [
      "кий",
      " "
    ],
    [
      " за",
      " "
    ],
    [
      " ",
      "ні"
    ],
    [
      "б",
      "ра"
    ],
    [
      "й",
      "ого "
    ],
    [
      "м",
      "  "
    ],
    [
      "ки",
      "й  "
    ],
    [
      " ",
      "се"
    ],
    [
      "д",
      "но"
    ],
    [
      "н",
      ".  "
    ],
    [
      "о",
      "го"
    ],
    [
      " ",
      "ті"
    ],
    [
      "ва",
      "в"
    ],
    [
      "т",
      ".  "
    ],
    [
      "т",
      "ро"
    ],
    [
      "л",
      ".  "
    ],
    [
      "с",
      "ка"
    ],
    [
      " ",
      "чи"
    ],
    [
      " ",
      "ба"
    ],
    [
      ".",
      " \n\n"
    ],
    [
      "ве",
      "ли"
    ],
    [
      "  ",
      "ви"
    ],
    [
      " ",
      "па"
    ],
    [
      "в",
      "сі"
    ],
    [
      "с",
      "по"
    ],
    [
      ",  -",
      "у"
    ],
    [
      "Н",
      "е"
    ],
    [
      "  ",
      "за"
    ],
    [
      " ",
      "роз"
    ],
    [
      "с",
      "те"
    ],
    [
      "В",
      "а"
    ],
    [
      ",",
      " по"
    ],
    [
      " ",
      "ста"
    ],
    [
      "с",
      "ко"
    ],
    [
      ",",
      " то"
    ],
    [
      "є",
      "ться"
    ],
    [
      "ро",
      "ж"
    ],
    [
      "є",
      "  "
    ],
    [
      " ",
      "мі"
    ],
    [
      "с",
      "ло"
    ],
    [
      "н",
      "сь"
    ],
    [
      "]",
      ".  "
    ],
    [
      " пі",
      "д"
    ],
    [
      "ч",
      "но"
    ],
    [
      "Т",
      "а"
    ],
    [
      "ть",
      "ся "
    ],
    [
      "т",
      "рі"
    ],
    [
      " ",
      "ка"
    ],
    [
      "  ",
      "("
    ],
    [
      " ",
      "ти"
    ],
    [
      "с",
      "ла"
    ],
    [
      "г",
      "ра"
    ],
    [
      "в",
      "ши"
    ],
    [
      ",  -",
      "е"
    ],
    [
      "с",
      "ту"
    ],
    [
      "бе",
      "з"
    ],
    [
      "д",
      "ру"
    ],
    [
      " ві",
      "д"
    ],
    [
      "ль",
      "ки "
    ],
    [
      "я",
      "ко"
    ],
    [
      ",  -а",
      ",  ч"
    ],
    [
      " ",
      "ча"
    ],
    [
      "в",
      "сь"
    ],
    [
      "ме",
      "н"
    ],
    [
      "пі",
      "д"
    ],
    [
      "т",
      "ри"
    ],
    [
      "ни",
      "к"
    ],
    [
      "ни",
      " "
    ],
    [
      ", що",
      "б"
    ],
    [
      " та",
      "к"
    ],
    [
      "ва",
      " "
    ],
    [
      "ва",
      "ння"
    ],
    [
      " за",
      "по"
    ],
    [
      "ни",
      "м"
    ],
    [
      "й",
      "сь"
    ],
    [
      "ний",
      " "
    ],
    [
      "ф",
      "о"
    ],
    [
      "В",
      "и"
    ],
    [
      "ре",
      "з"
    ],
    [
      "ль",
      "но"
    ],
    [
      ",",
      " бо"
    ],
    [
      ",  -а",
      ",  -е"
    ],
    [
      "в",
      "но"
    ],
    [
      "ще",
      " "
    ],
    [
      "к",
      "ри"
    ],
    [
      " ",
      "ту"
    ],
    [
      "ти",
      "  "
    ],
    [
      "й",
      "сько"
    ],
    [
      "ра",
      "н"
    ],
    [
      "кі",
      " "
    ],
    [
      "В",
      "і"
    ],
    [
      "с",
      "ві"
    ],
    [
      "ну",
      " "
    ],
    [
      ",  ",
      "я"
    ],
    [
      "П",
      "е"
    ],
    [
      "х",
      "  "
    ],
    [
      "пи",
      "са"
    ],
    [
      "щ",
      "и"
    ],
    [
      "щ",
      "а"
    ],
    [
      " ",
      "це"
    ],
    [
      "ти",
      "ся"
    ],
    [
      "1",
      "8"
    ],
    [
      "П",
      "ри"
    ],
    [
      " ",
      "хо"
    ],
    [
      "ю",
      "ть"
    ],
    [
      "а",
      "ле"
    ],
    [
      "в",
      "ся"
    ],
    [
      "ві",
      " "
    ],
    [
      "не",
      " "
    ],
    [
      "  ",
      "до"
[...]
